memory_initialization_radix=2;
memory_initialization_vector=
11111111110100111110100011101110,
00000000000101011010010110101110,
00000000001111110000101011101000,
11111111110100111101000100011101,
11111111110010101101011110100110,
00000000000111101010100101000000,
11111111110100111001011110100111,
00000000000111000001010010110110,
00000000001011010010101000101001,
00000000001101110110001100011110,
00000000000010010110101001001111,
00000000010000110011001011010111,
11111111111011000111010110110001,
00000000001010011010000010111110,
11111111111010010100111101101001,
11111111110110000111010010011010,
00000000000101011101111101100011,
00000000001001111011010001010101,
00000000001000100110010100010010,
00000000001011111100111010011011,
11111111111111111010000111010101,
00000000000111001011100111111111,
00000000001101000010111110010100,
11111111110011100000001011110101,
11111111111100011101000101010111,
00000000001011010100110010000110,
11111111111100101010100111001100,
00000000001111011011110011010101,
00000000001000011111001100001100,
11111111111000010101000110011111,
00000000001110010101111101110100,
11111111111000110111111011110100,
00000000001011111000010100100010,
00000000001110010110000111010001,
00000000001011010101000110001001,
00000000001110010000001001010000,
00000000000001011101111000010010,
11111111110000011101001111100000,
00000000001110010010101111100001,
00000000000001110000011101011111,
11111111111000110010111110101001,
11111111111101001011101101001011,
11111111110101010001011000011010,
00000000001000001100100101001111,
11111111101110011001111111010011,
00000000001000011110100000110010,
11111111101110101000111001111111,
11111111110111000110110010101000,
00000000001100011110111100110111,
11111111111101001101000000011011,
00000000001100101110101110100011,
00000000001110100001011111011011,
11111111111010010001000111111011,
00000000000000010000101011111001,
11111111110010000111011000101100,
11111111111010011011110101111010,
00000000000111000010110011100010,
11111111111010101100111001011001,
00000000001110111010110000101010,
00000000001001110011111001010110,
00000000001011101100010010011010,
00000000001110010011111001001001,
00000000000001001101110010011001,
11111111111111010010100001010011,
11111111111100011000111011101100,
00000000010001000001100000001100,
00000000001100100100100010111110,
11111111110010000011011111001100,
00000000000101000111101110011100,
11111111111010111110100110101000,
00000000001111011110101001011100,
11111111110101011101010100111111,
11111111110001110000101010111010,
00000000000100000011011100000101,
11111111110011011110110101010110,
00000000001111111100000100001011,
00000000010001000000100111101011,
11111111110011001110011100010001,
11111111111100111010010111101001,
11111111111101101010111010100011,
11111111101111000001101101101100,
11111111110010001001111001011101,
00000000010001000001011011011011,
00000000001101011101010000001011,
11111111111001100000001110000101,
00000000000110111101010001011000,
11111111111100000000110010101011,
00000000000010110110011010000001,
11111111111110110001111111010001,
00000000000110011011001010111111,
11111111110110001001111100110100,
00000000001111110010001110101111,
11111111111100110100110101110111,
00000000010010000001010111000101,
11111111110101110110011000000010,
11111111111100101110111011101110,
00000000001101001010011101001101,
11111111101111001011101001011101,
00000000000100001000011000011111,
00000000001000011001111000110111,
11111111111111001010010111111010,
11111111110010000000110001000011,
11111111110011110110101000110010,
00000000001000110001001111010010,
11111111101110001101000000111001,
11111111110101001011001101001011,
00000000001100001011010110000011,
11111111111011010100001111011100,
11111111101110001110111010101110,
11111111111000010100010110001101,
00000000000010010100100000111010,
11111111111000110000011011110011,
11111111110111001110101010001111,
11111111110101100010111101001101,
00000000001111011110101100110011,
00000000001111001010001000001010,
11111111110011100000000101110101,
00000000001100000001010010010110,
00000000010001011101111000110111,
11111111111000110100101010010111,
00000000000111000110001001011110,
11111111101101110100100100001110,
00000000001110110111100000000011,
11111111110110010110010001111101,
11111111110000001001111001010111,
11111111110100101100110000101111,
11111111101110001011011001101010,
00000000010000010001000110110100,
11111111101111011100000010100100,
11111111110000011110110111101110,
00000000000101100010100001100110,
00000000001010011011110100010011,
11111111110111011110111100110100,
00000000001000110010110000110110,
11111111111110000000011011100100,
11111111110011001100000000000111,
00000000001000001111000011011010,
00000000001001001110111110000010,
11111111101111001011110100110010,
11111111110000001001000101001110,
11111111111101111000011100100000,
11111111110001101100010101110011,
11111111110010000110011101000010,
00000000000010110110110011001101,
00000000000001011000001100000110,
00000000000110100110110110011001,
11111111110101001000001000001010,
11111111110111101000110101011101,
11111111101110010011100011001001,
00000000001001111011100011011011,
11111111110000000111001111110110,
00000000000011011010011101110100,
00000000001101101010000110011101,
00000000000111001011101010110100,
00000000001010100110110011000100,
00000000001111011000010001001111,
00000000000000001010011001001000,
11111111111000101111000111111001,
00000000000000001011100011000111,
11111111110001010111100011000001,
11111111110100011111001110111001,
00000000001001011101110011111100,
00000000001100010010001011101000,
00000000000111111101101001111010,
11111111110000010010000001101000,
11111111110011011111100100100101,
00000000001110111111001111110101,
00000000000001000110010011011100,
11111111110010101001101110111100,
00000000000011100101010100110010,
00000000001010001010101100011011,
00000000001010001011111110011011,
00000000001100100110100111110001,
11111111110111110100100001111011,
00000000001010011001101101001111,
11111111110011000010001101001001,
00000000001001010101001011010000,
11111111110010000000001001111110,
00000000000000001000010001011101,
00000000010000010110000100000111,
00000000001101010011001100000010,
00000000001000010100011011001111,
00000000000001001111010110011001,
00000000001010000110001000100000,
00000000000000001100111001001010,
00000000001110111100110110111101,
00000000001010001100101111100000,
00000000010010000010110011011001,
11111111111010000010110110010011,
00000000001001100110000001010100,
00000000001101100000011011001011,
00000000001000111001000001000010,
11111111110101101100001000010001,
00000000000110101110101100001011,
11111111110110111101101111000010,
11111111101111111101110101011101,
00000000001111110010110101100111,
11111111101110110000110001110010,
00000000010000000101011110111100,
11111111111100000000001101100011,
11111111111010011111010101101010,
11111111110011011011001001011001,
11111111111001011011110100111001,
00000000000100000111000110001010,
11111111110110100010101100011011,
00000000010000001111100001100101,
00000000000101111100011010101111,
00000000001111010001010011011101,
11111111110001001011111001110011,
11111111110110001110101010000110,
11111111111111101001101110011101,
11111111111010010011111100100100,
11111111110011010110011111010110,
11111111111000010000001001110001,
11111111101111110101001000001111,
00000000010000010010001010110101,
00000000001010010000111111010110,
11111111110000101010100011000000,
11111111110011110000010001001000,
00000000010000001100011000001100,
00000000001111000010010101101000,
00000000000100001010111001010000,
11111111111000010110001011011011,
00000000000111110000110100001010,
00000000000101100101101110000110,
11111111111001001111100010110011,
00000000000100010011011010100110,
00000000001110011111011001010001,
00000000001110110001100000000101,
11111111110000101100101100000010,
00000000000110101101110000101001,
11111111111110111000101101011001,
00000000001000000001000000100101,
11111111110111001011010000111011,
11111111111001000010111101000001,
00000000001110000000000100011001,
00000000001011111011110011100110,
00000000000101101001110011111011,
00000000001111100010101101101100,
11111111110010111100100111100000,
00000000010000010110100100100100,
11111111101110011000111001000010,
00000000001000111010001100000111,
00000000001001100110001100100011,
00000000001101010000011100100100,
00000000001010111001000011110011,
00000000001100100001111101001111,
00000000001110101001011100101010,
11111111101111010011110111010000,
00000000010000001010010111110011,
11111111111001001101011011011111,
00000000000101100100111000110001,
11111111101111111111011011010000,
11111111101110101011010110010110,
00000000001100111111000100101011,
11111111101110111010100011000010,
00000000000101110000000100111100,
00000000001101101000110011000111,
00000000001100101000100111110000,
11111111110101101110111010010100,
00000000000001100001001100100000,
00000000001100110100111110101011,
11111111101110100100000110111011,
11111111111101101100110001110101,
11111111110000101011010101000101,
11111111101111011010000101111000,
11111111110111001010111010110101,
11111111111000001111101001111100,
00000000010010010000011011010111,
00000000000000001111111000110111,
11111111111001001010000000111000,
00000000000000010011110101100010,
00000000001000010001000100001100,
00000000010001000011001001011101,
00000000000001101001111100010000,
00000000001110000010010100011100,
00000000000001100000011110110110,
00000000001011101111101010000011,
11111111101111101001001011010000,
00000000001110010110110100110100,
11111111111001101011110011001000,
11111111111000010001111101011001,
11111111110011101110000111011100,
00000000000111100100110110111011,
00000000010000000001101100011110,
00000000001001010010101100001110,
00000000001001101000001011101100,
11111111110111001100100001010010,
11111111110010000010000010010100,
00000000000000010101110001100110,
11111111111010010110101010100000,
00000000001010010101110101011011,
00000000000101000101111110110001,
11111111111110011001111000111001,
11111111110010101010011011101000,
00000000001000101101001100001100,
11111111111000110101100100000001,
00000000000001001010111010001011,
11111111111011010110110110100100,
00000000010000100010101111100000,
00000000001001110100110100000011,
11111111110110001111110001101010,
00000000000011101000010111010100,
11111111111000110011111011100011,
11111111111100010011000101011110,
00000000001011010011000001001111,
11111111111110110100100110001111,
00000000000001000101110101011111,
00000000001111001011001010110100,
00000000000101001101100111010011,
00000000001000101001001011001110,
11111111110110001100000001110100,
00000000001111111101000000011000,
00000000001001000010000110110110,
11111111110101011010111010100011,
11111111101111110100000011001100,
11111111111100110110001110001100,
11111111101111100001111010101001,
00000000000010111001001100111101,
00000000001101001001000010111100,
11111111110011100001000011110011,
11111111101111010100101110100000,
00000000001011011101100010101011,
11111111110100010011110110000100,
00000000000001111111010110100101,
11111111111010101110101101001111,
00000000001001101101000100101000,
00000000001110101000101001111011,
00000000001101011001111100110010,
11111111101101111100010000010111,
11111111111000000111001101110001,
00000000010001010111011000001000,
00000000001101000001011011011001,
11111111110101111101010001111011,
11111111110000000010001111000000,
00000000001100000001000001100000,
11111111111011111001000010100001,
00000000001100011110010110111111,
11111111110111001001011111100010,
00000000010000100011001011111100,
00000000001000111111100001110110,
11111111111011011101111101100000,
11111111111010110100000010011011,
00000000010010001011011000100010,
00000000000111010000110011100110,
11111111110011101100010011011000,
00000000001011100001100111100110,
11111111110010111101010011111111,
11111111111111101111001100000000,
11111111111001000111001100100010,
11111111101110011111110010111111,
00000000001110111101100001001100,
00000000001110101100111001110001,
00000000001010101010010111011111,
11111111111100011010011010011111,
11111111111001000100111011110111,
11111111111001111001100011000010,
00000000001011100111010000001000,
00000000001111100101000110111000,
00000000001110111110011011010111,
11111111111100000001010000111101,
00000000000110011001010001110110,
11111111111101001000001000001100,
00000000000101100101001100101010,
00000000000011001101011110011110,
11111111110000101101011110101010,
00000000001110011010001011110011,
11111111110101110100010111010011,
11111111111110010011101101000101,
11111111110101001110010001100101,
11111111111001110010001101100101,
00000000001101111111111010100011,
00000000001101011001101010000110,
00000000001111101000111001110000,
11111111110000000110111100111001,
00000000001111000100111101001111,
11111111110100001111111001101110,
11111111111110101011010011100110,
00000000001110100011100100111101,
00000000000010011110010101101111,
00000000000110100110000101000000,
00000000000100001001110101010111,
11111111110000111011111000010000,
11111111110111111000111110000001,
11111111111010010101110100011001,
11111111111111100101100010111100,
11111111111111110111010011011000,
11111111110100010011100111010111,
00000000001100000101110100111010,
00000000000001011111010100011000,
00000000000111010001011000110110,
00000000000101000110100111110011,
11111111101110100000111110101111,
00000000000010100010010001010000,
11111111101110110010001011110100,
00000000000011111111010100111010,
00000000010000101001100001100100,
00000000000011011011001101011000,
00000000001000010010110100100111,
00000000000111100001111111001100,
11111111111100110000100110011011,
00000000000000100100001111000110,
00000000000001100000010100011110,
00000000001101011001110110111100,
00000000001000100100001010000110,
00000000001111110101111101110001,
11111111110101111010110011111011,
11111111110101011101000110100000,
11111111110100010000010001011100,
00000000001110001010000110100100,
11111111111000001010110000100001,
00000000001100001100110001101100,
11111111111100111001011001000111,
11111111110000110001001011000101,
11111111111011010011010100001100,
11111111111111111101000110100100,
00000000000111001011010100100111,
11111111101110011100010010110001,
11111111110000100100001000000111,
00000000001001110011011100110110,
11111111111101011111000010101101,
11111111111100101110110111000011,
11111111110010011101010110100101,
00000000001010100000110010110011,
00000000001110111010100000011101,
11111111111010101010010001001100,
00000000010001000010011011111101,
11111111101111001000010101010100,
11111111110011101011110101110010,
00000000001010010111011111010001,
11111111110101001001110001111100,
00000000000111100111011110111100,
11111111110110011011000000011100,
11111111110000101001111101111000,
00000000000011000000000111101111,
00000000001001101111101100101100,
11111111110101011111111000100110,
11111111111110000111011100010111,
00000000000100001011000011100000,
00000000010010000001011111011000,
00000000000011101011101000001111,
00000000000001000111011010111101,
11111111110111010010000000100010,
11111111111101111101011100011001,
00000000000111111111010111010010,
00000000010000000100010110110000,
11111111111001010000110101000000,
00000000001110011111101011000011,
11111111110011100110010110000000,
00000000000110011111000011001110,
11111111101110101011010110101010,
00000000010010000101010101000011,
00000000001100110110111010010100,
00000000001011001011101001011010,
11111111111010011111000001011111,
00000000000110110010101110000110,
11111111111101000000101111101111,
00000000000110101110101111110110,
00000000001100000111011100010110,
00000000001111010101100010011110,
00000000000001001010001111000011,
00000000001000010101100010110001,
11111111110100011111001011111111,
00000000000111011000110001010011,
11111111111111111001011110101111,
11111111111111100011000000000010,
11111111110010011110111101111000,
00000000001011001101001000100111,
11111111101110100111000000010111,
11111111110110010011010111001011,
00000000010001000101001110111100,
00000000010000110100010011010011,
00000000001001111000011110101111,
11111111110100101110100011000111,
00000000010001011101010000010010,
11111111111010101111101001011010,
11111111111100101110001011001001,
00000000001011111110100111101101,
11111111111110001001100110110100,
11111111111110011001111001110100,
00000000000100000010010011100000,
00000000010001010100111010011110,
00000000001101010110111001101100,
11111111110011010101100000100001,
00000000000001001001101010110001,
11111111111101011110110111110000,
00000000000100001001111110110011,
00000000000010011100100110110101,
00000000000110111100110101011001,
11111111110101000101010001001110,
11111111111100111010011111010011,
00000000000010010111010100111100,
11111111110010111011000011000111,
00000000000100001000100000100111,
11111111101111101111000111011110,
11111111111101000101110010011100,
11111111111011110001110010101110,
00000000001001100111010100011011,
11111111110100111101100110010010,
11111111111001001000001011111001,
00000000001011110110111110110011,
00000000001001101010101011011110,
00000000010001000011100110001001,
11111111111101000011010001001001,
00000000000001010000100011100000,
11111111110101110000010100010111,
00000000001101011000001000011100,
00000000010000111110110101010111,
00000000001100111100000000010000,
00000000000111100010011011111100,
11111111110101101111010111010000,
11111111110111001000000110100010,
11111111111100101001000111110100,
00000000001010001100100001011111,
11111111111110011111001001110000,
11111111111101111000111100001111,
00000000000100101011001010100000,
00000000000110110110100101001111,
11111111111100100010000010101100,
11111111110101011110111001011000,
00000000010000011010100011111010,
11111111110110001000100101000011,
00000000010000001010010100001101,
11111111101111011011001100001111,
11111111110001110111011110001001,
11111111111010100100101100000000,
00000000001011001000011101111001,
00000000000111110100110010011101,
00000000000001111000111110010000,
00000000000010010010000111111001,
11111111111111100111111100101011,
11111111110001111011010100001111,
11111111111010011001010100111100,
00000000000100001001010010101010,
11111111110111100011011001001101,
00000000010001011011000101011100,
11111111111100111000010011100011,
11111111111011101101110011010100,
11111111110110000000011100100110,
00000000001001010100000111010000,
00000000010001101010000100000100,
00000000010000001010110010100011,
11111111101111011010001100001100,
11111111111110011001111001000000,
11111111111100000000101000110111,
11111111111011011011010101000100,
11111111101111100001100000011111,
00000000010010010001000010111011,
00000000001110110011101000011100,
11111111110011001000011001100100,
00000000001011100001110000100000,
11111111111010100110111110101000,
00000000010000101011110101101011,
11111111111111011101011001111001,
00000000001001100011000010100000,
11111111111110110111001000110101,
11111111111010100100000011110110,
11111111101111000101001011010010,
11111111110010010001010111110100,
00000000010001010001010011100011,
00000000010000111101101111000011,
00000000010001100100000111101001,
00000000001101010001101101010100,
11111111101111100001010011111011,
11111111110100010100000010010000,
00000000000100000000001011001001,
11111111101111000110100000110000,
11111111111111010010110110101001,
00000000000101111101011110000000,
11111111111010010010011100101100,
00000000000011001010000000110111,
00000000000001010001110000101000,
11111111111000111101111100101010,
00000000000010001100011001111011,
00000000000011110110101010011010,
11111111110000101100110111101001,
00000000010000110110111010000011,
00000000010010001001111110111001,
11111111110000111110011110001000,
11111111111011100111100110101010,
11111111111111011111100010001000,
11111111111111110101111100100111,
11111111111001100010111001010000,
00000000000001001101110000110010,
00000000000101011010101110011100,
00000000000101011111101000101100,
00000000001010010011100001101000,
00000000000011011110000000101100,
00000000000110001110011001110111,
11111111111101100011001100010001,
11111111111011001100101101110011,
00000000001000011011100001011110,
00000000001110011001111001001001,
00000000000000001100010001100110,
11111111110001110100010110010010,
00000000000101111001000110101101,
11111111110001101000100100011101,
00000000000101111010101001011000,
00000000010001011011111010011000,
11111111110011101000010000010110,
11111111111101011110001010101010,
00000000010001001000010110011101,
00000000000111011000111000001110,
00000000010001011110010011010000,
11111111110111011000000111001010,
11111111111101111100011111111000,
11111111110011011110100111010100,
11111111110110000101000110110001,
00000000000011111011100101101001,
00000000001110110011111001010101,
00000000010000010110000101101100,
11111111111001001100000101000100,
00000000001111100000100000101101,
11111111110010111101001100010011,
11111111101110110111111010001001,
00000000000010011010011010010010,
00000000010001000010010000000110,
00000000001101111111001011000111,
11111111110010101010000111001010,
11111111111100001011111111111101,
00000000010000001011011101110011,
00000000001001100100000011100011,
00000000000000011000110110011110,
11111111110111110101100100101011,
00000000001011100101000010000100,
00000000001111011100011001011111,
00000000001011110011101011101110,
00000000000111101011111010000010,
11111111110111101110111111011110,
11111111101110001110111000010100,
00000000010000011110100001110010,
00000000000100010001011110011111,
00000000000010010011100101010110,
00000000000110110110101111100011,
11111111111001000110101010000011,
11111111110010101111110011000001,
00000000001001111110110110010010,
11111111111101110010111000011011,
11111111101110100000000110100110,
11111111111100100100000011000001,
11111111111101010000001001010101,
11111111110010101001100100110100,
11111111110001100001011111000111,
11111111111011110001011001010000,
11111111110000110011110100101110,
00000000001001010010101000000001,
11111111101110010101101101100111,
11111111110111101100110100111001,
11111111110010101100011010111101,
11111111111001011111111011101111,
11111111101101110110111111001101,
11111111111010111000001001001111,
11111111110011110111110010110000,
00000000001011001111011100100110,
11111111110000101110010100000001,
00000000010001001001111111000100,
00000000010001001100111010010010,
00000000000100110100000011011001,
11111111111110010101111110011000,
11111111110101001010101001000110,
11111111110111110111110111011110,
11111111110011101000001100110000,
00000000000010110001000110001110,
00000000010001010101111001001100,
11111111111001111000100010000111,
11111111111000011010010000111001,
00000000000100000011110100100000,
11111111101110111000101011010001,
11111111111001110010001101110000,
11111111110011010001110000111110,
11111111110010110101101011100011,
11111111111010011110101001111111,
00000000001110001100101111001111,
00000000000111110001111001001010,
00000000000101000101011110110100,
00000000001111001111011010100101,
00000000001010101011010101101011,
11111111111111110010001100110100,
00000000000100100001111011011110,
11111111111101011110100000011101,
00000000001000111100001101010000,
00000000000100000110011010100111,
00000000000111010011011001010110,
11111111101110111001001010011011,
11111111111101100001010111100001,
00000000001001101110001111101011,
00000000000110110110000011101111,
00000000000100100011101100110010,
11111111111000100100000101011011,
00000000001011110101111010110101,
11111111111100000101011110001100,
11111111110110000100111001001001,
11111111110010111100010000111110,
00000000000000001010010011000100,
11111111110001100011111010010111,
00000000001011011100001000010000,
00000000000010011011100111101100,
11111111111100001000001010000010,
00000000001111110011101000101010,
11111111111111101011100011010001,
00000000000010001010011010100000,
00000000001011111111001100100111,
00000000000011000101110010000111,
00000000000000000101110011011110,
00000000010000101110011100010100,
11111111110001111101001111001000,
00000000001001000010100010010100,
00000000000100101000110001000100,
11111111111101001010100100101011,
00000000000101111110100110001110,
00000000000001011111110111000110,
11111111110100101000001000111100,
11111111110011101001000101101110,
11111111110110110100100100010000,
00000000010000100000011100101011,
00000000001110010001111000010100,
11111111111110000010110111011101,
00000000001001001110101100110000,
00000000001011000100101101001110,
00000000001111011010000101011010,
00000000000100110101111110001111,
00000000001101111100111001001000,
11111111111011000110100010100010,
00000000000011110110010001010011,
11111111110100110111000001000011,
11111111110000101110101010001000,
11111111111100000010010110001010,
11111111110001010001110101101010,
00000000000110000100101011111100,
00000000001100000000101101010111,
00000000000011101011001110000100,
11111111101110011111110111010100,
00000000000111110001000011101000,
00000000010000010100101010001010,
00000000000010111001111101111110,
11111111101111011100010110001100,
11111111111100010000110011110011,
00000000010001101111111110000111,
11111111110101100010000000011101,
11111111110001111001001000011110,
00000000001101100000111100001001,
00000000001110000110010100010110,
00000000000000001101110010011000,
00000000010001000111010000010010,
11111111110000001110010111110010,
00000000001011010000101011111100,
11111111101110110000000111111111,
11111111111010011010001111000111,
00000000001110100011011010011001,
11111111110111000000110000101101,
11111111110010010101100001100110,
00000000000011001100110110010000,
00000000010010001011010000101100,
11111111111001010001110110010001,
11111111101111110001001101000010,
00000000001010010111111010110111,
00000000001110111110000001101011,
11111111110100010010001010100100,
11111111110110101111010011010011,
00000000001000110100000010101110,
00000000000100000111000110010111,
11111111110001111100000100100011,
11111111111100011011101111110011,
00000000000011010110001000001000,
00000000000001110110000001110110,
00000000001101100001001101110100,
00000000001001111000001111011110,
00000000000001111010011001011100,
00000000001100111110100100011010,
11111111101110101110100110001110,
00000000000011001000101011010111,
11111111111111011111011111001111,
11111111110100010110111100110100,
11111111111100110001110001100110,
11111111111010011010000101011011,
11111111101110011010111000001010,
00000000000001010111101000001000,
00000000010010001110010110000011,
11111111110011101100010001001010,
11111111111101111001101100001100,
11111111111011110100110011110000,
11111111110101110010010111000001,
00000000001000001111000011110010,
11111111101110011111100001111111;