memory_initialization_radix=2;
memory_initialization_vector=
11111111110101111111001101101100,
11111111111001111110000000110001,
00000000001011110010001111101101,
00000000000110000010101000111010,
11111111111110010100000100001011,
11111111110001010100000101011001,
11111111110101110111101011011010,
00000000001010011000101000110011,
11111111110111011101010100110010,
11111111110001111001100110010110,
11111111110101111110001000001000,
11111111111001111000101011100111,
11111111110111110111111011001000,
00000000001001101011010100111000,
11111111111111110001111111100001,
00000000010001010000101000010100,
11111111101111001010101010111010,
11111111110110110100011001011111,
00000000000110000100110001010110,
00000000001011001101100001011100,
11111111111000011111011011100110,
00000000000111010100001000000000,
11111111110101111011010100110111,
11111111110100111011001101100010,
00000000001001111111111101111111,
11111111111110111000101111010001,
11111111110010100111100101101111,
11111111111111010010101111000011,
00000000010000000101111101111000,
00000000000100001011001100001001,
11111111111100010101110011001011,
11111111111100101100000000000000,
11111111110101000110100010011001,
00000000001010011001101100000100,
00000000000000010011010101101011,
11111111110110100011011011000110,
00000000000001000011110011111101,
00000000000101101001101110100110,
00000000000000110001100011100000,
11111111111110100000010010100100,
11111111101110110011111000111110,
11111111111111011100101110001010,
11111111111010001001100111011011,
11111111111111110001000000111101,
11111111110100110001000111010010,
00000000000110111001100011011011,
11111111110100101011011010101100,
11111111111010000101110101101100,
11111111110111100101111110001101,
11111111110110110010110110011110,
00000000000000010000101011000111,
11111111110111110111010000010110,
11111111111000000101011011110000,
00000000000001111011010101111111,
00000000000111101011110111001010,
11111111110111010011001010000010,
00000000001001101111110111110011,
00000000000101011011001110110001,
00000000001110000111011110110101,
00000000000001110001001101111100,
00000000001111000000010000011010,
11111111101111100001011011100110,
00000000000101010100111101010111,
11111111110000010010010101010111,
00000000000111101110110001110110,
11111111111000111111000001111110,
11111111111100010000000100011101,
00000000001111011111001110000101,
00000000010001000111100111000001,
11111111111011011010100010010100,
11111111110101011110010100111101,
00000000001001111111100000011100,
11111111110111111001100110110100,
11111111110111011001101010100011,
11111111110010001111111010111000,
00000000010010001010111101111001,
00000000000001000101011010001100,
00000000000011100100110100001010,
11111111110101010111011111111011,
00000000001000100001100011000101,
11111111101110101010010010111111,
11111111111010101100010001000101,
11111111111101001101001001111011,
00000000001010110000101111100100,
11111111111110010010111101100110,
00000000000010101000000100001010,
00000000001101111110110110110110,
00000000000110011100000011100010,
00000000001110110110110000011111,
11111111111001110001001011101001,
00000000001011010011011001110000,
11111111111101001010100110101011,
11111111111110101011001101110001,
00000000000011111010000101000111,
00000000010001101000010010101001,
00000000000000000100101111011001,
11111111111110000011000000111101,
11111111111000110101111101000000,
11111111110100011100110001010000,
00000000001010100000001110111110,
11111111111100001101001011110101,
11111111111001110101110010101000,
00000000000011111110000011000001,
00000000000011000111110001110011,
11111111111101000010000001110011,
00000000001111010010000010110000,
00000000001011001100000100111011,
00000000000100011101001000000100,
11111111110111010101100110110111,
11111111111000011011001011101110,
00000000001111111001101000000111,
00000000000011110001100110110000,
11111111101111011001100100110000,
11111111111101100010011101101010,
00000000000100000111010010001111,
00000000000100111011111011010101,
00000000001111100000111010001010,
00000000000000100101100010011011,
11111111111101110010111101111011,
00000000001100111011011111011010,
11111111111101010011001001101000,
00000000000101111001000011010000,
11111111110010010011011011000001,
11111111111001100010110000110010,
11111111110010001101010010011000,
00000000000001110100010111110101,
11111111110001101010011111101111,
00000000001101111011011111101101,
11111111110111111001000111110011,
11111111110011011101111100000100,
00000000000001000110011011010110,
11111111110111011000011111101011,
11111111110101000011011000010100,
00000000001101011000111101010100,
00000000000101111000100011110001,
00000000000010111111110000100101,
00000000001000111111011110000000,
11111111111001111000111100010101,
00000000000001111001100111101110,
00000000010001101001010001011100,
11111111111000000101101110111001,
00000000000111010111100011000011,
00000000001111011000000011001100,
11111111111101011100011100100001,
00000000001111000010111101000001,
11111111111011001100100011101111,
11111111111100010110010110111001,
00000000000100101010010101010000,
11111111111101001011000011101111,
11111111111011001100101100001001,
11111111111100011011110110000111,
00000000000011101111011111101110,
11111111110101111001100100110110,
11111111110010000010010001100001,
11111111110001101010110101111110,
00000000010001111111001110111100,
00000000000000011111011001001111,
00000000001000001011111000001110,
11111111101110011111000110101110,
11111111111101010100101111111110,
11111111110001101100111001101010,
11111111111110011010111100000101,
00000000010000010010011111111101,
00000000001101010001010101001000,
11111111111001011001011100010011,
11111111110110000100010001010101,
11111111110001000010011011001100,
11111111110110111110111000101011,
00000000000110010000001111001011,
11111111110101001011000001101001,
00000000001010000011010001000101,
11111111111001011011101000011001,
00000000010000111100001111011100,
11111111111011100100110111101110,
11111111111100101111101110100011,
00000000001010110001111100010100,
00000000001100110100011001000100,
00000000001101001100111100000110,
00000000001101001111110000111000,
11111111101110101101011101111110,
00000000001010000101010011111110,
11111111110110011011111011010000,
00000000001100111110010010101010,
00000000001110001110100100001101,
11111111111110011110011010101000,
00000000000110010011100001101101,
00000000000011110111100101111110,
00000000001000000010001100010011,
00000000001100010000111001000111,
00000000000101010010101110000010,
11111111111001110111111101100001,
00000000000000101110000001110111,
00000000000010000111001001111001,
11111111110000111001000000010011,
00000000000110000000101010010100,
11111111110100000101011110100100,
00000000001011100110001011010000,
00000000010000011000101110100111,
00000000000010011111010001110010,
00000000001111010011111001111011,
00000000000000011001001111011010,
00000000001011011111111011101010,
00000000001001000111110101010111,
11111111110000110000110000010101,
11111111110001010101011000101010,
11111111111011100111000010000000,
00000000000111010001110100000010,
11111111111100100110001110110111,
11111111111100010010101010110111,
00000000001011000011101011000011,
00000000010000011000101101100000,
00000000000111101111100000101100,
00000000000101011010110111101110,
00000000001001010010110011001111,
00000000000010011111010010010101,
11111111101111100010000010011110,
11111111101101110111000001100000,
11111111101110111101111000000111,
11111111101111111010110111000110,
00000000001101110110010111001010,
11111111111110101101010101101110,
11111111110011010100110010110010,
00000000000011111110111101101010,
00000000000000000110001001100010,
11111111110101000001110100010110,
11111111101110100000001010101110,
00000000000100001110111010001000,
00000000000000010001111001100110,
11111111111001100000101011111101,
11111111110101110011100000001010,
11111111111011001010010101011100,
00000000001111111001010110110010,
11111111110001010111011000110111,
11111111111000110000010000000111,
11111111111010001011101000011000,
00000000010000110000101010111010,
00000000000001000111010100001010,
00000000001100011101110100110111,
11111111111110001011110111010100,
11111111111101001000111010110000,
00000000001010011001000111011110,
11111111111000111101101110011100,
00000000001010110111111111010110,
00000000001111111111110000000101,
00000000000111011100011101010000,
00000000001011010010010010101010,
11111111110001110101000100001010,
00000000010000110111101100110110,
11111111110100111110010100100110,
00000000001010010010011000111011,
00000000000101101101010100010011,
00000000000001010101101000011000,
00000000000100101111000111101100,
11111111101110000011110011011111,
00000000010001011101101100000000,
11111111111110110100100100100111,
00000000010000010101001110111001,
00000000000000011100101001101101,
11111111111000100010111101100011,
00000000001011011100011111011011,
11111111111111101001101101100111,
11111111110100011000110010000010,
00000000000010010011000011000011,
11111111101101110011001000110110,
11111111110100101101010110101001,
11111111110001001000111111001000,
00000000000000111100000111000011,
11111111110101111011101110100000,
11111111111111100110011110001010,
11111111110010000110000111000110,
11111111110000001111101110110001,
11111111111101111000110101000101,
00000000000010001001111000000110,
00000000001101001010001000000001,
11111111111001101111110110011111,
00000000010001011001010010011001,
11111111110010111011001000101110,
00000000000110010101001001001010,
11111111101111100011001001111101,
00000000010000100000101010111101,
11111111111001000110010011010101,
00000000001010001010000001000101,
00000000000000111000010111111100,
11111111111000101001011000111100,
11111111111011101001000000010100,
11111111111001001010110011011100,
00000000001011001011100111011010,
00000000001101010110101110011010,
00000000010001011001110010010001,
11111111111011101001101010000011,
11111111111010011111001100101111,
11111111110110110100100011110000,
11111111111110101111111011100001,
00000000000100011011000010011101,
11111111111110011111101011010000,
11111111110100001011110011101011,
00000000000001010110010100101001,
11111111111111011101001110101110,
11111111110001010111111010101000,
11111111111011000001101100100001,
11111111111111010000000110111110,
11111111101110001111011000111111,
00000000000010100010101111110001,
00000000000101000001010110101110,
11111111111110010010010011001101,
11111111111101011110010010111010,
00000000000000011100000011000011,
00000000000100101010010010110110,
11111111110111001111010010011001,
11111111111110010011000101001011,
00000000001010100000000000100010,
11111111111010101000110101101110,
11111111111111111110010110101111,
11111111101111000101100100110010,
11111111110010000101001100011000,
11111111111110001111011000110101,
11111111111001101011101000110101,
00000000010001110001110110100100,
11111111111100000101100101110000,
11111111110000101111011010111100,
00000000001111100101111010011100,
11111111110100001011100010101100,
00000000001111001000101000110100,
11111111111110001001001010111011,
00000000000011100101110010111011,
11111111101110000100011010011011,
00000000010000100101111100001100,
11111111111111110010110101100001,
11111111110110110101001001110111,
11111111110010111100110101101101,
00000000000011010100111001010100,
11111111101110101111000101000000,
00000000001101100011101000110000,
00000000001010000001010111101000,
00000000001111110110010110100101,
00000000010000010010000010111000,
11111111110101001110100000011100,
11111111111011000011000110100001,
00000000001011001100111000000110,
00000000001011101100111000001110,
00000000010001111001011110111111,
11111111111000011100011010001001,
00000000000010101000001111000101,
11111111111111011000010001001001,
00000000001010100001111110111010,
11111111110111000010101001010110,
00000000010000100011011110001100,
11111111111010100101100010110000,
00000000001001000101010011101111,
00000000001101110011000001011001,
11111111101101101111001010011001,
00000000000011011010000010101011,
11111111110011011101100010110100,
00000000001000110011011010010000,
00000000001111101010001011100111,
11111111111010001100000010110111,
11111111110011100110111111010001,
11111111110110101101001100010011,
00000000001110001111100000101011,
11111111111101000010011001100100,
11111111110010011000111001111111,
00000000001110111101110111110101,
00000000001011111111001111111011,
11111111111110000001010100101011,
00000000000010000110101101001100,
00000000000010001111101100010001,
00000000010001101011000111001010,
00000000001010100110110000010111,
00000000000011010010111000001100,
00000000000000011010000110011000,
00000000000101111000110111101011,
11111111110010011111011100001010,
00000000001001111010011111110001,
00000000000111101011101011111100,
00000000000010000111011110111010,
00000000001010100111010001001111,
11111111111100011110010011111111,
11111111101111010010010101100101,
11111111110000110001111111101100,
00000000010001001111010110011001,
11111111111001111101111110101101,
11111111110010101001101010011101,
00000000010001111001001011010111,
11111111110011000100101101110010,
00000000001110110111000010110011,
00000000010000010010011000001001,
11111111111101101011011001110001,
00000000001010101001011100111011,
00000000001101111111101101010001,
11111111101110110010111000100011,
11111111110110001101100110010100,
00000000000010011000001101110011,
00000000000101101110111001100000,
11111111110011100001001000011000,
11111111110000111100010110000101,
00000000010001100001100011101100,
11111111110111011000011100000110,
11111111101110001010011110011000,
00000000001000000010000101111111,
11111111110110100110001110011100,
11111111111001100111100100100010,
11111111111001100101100011001011,
00000000010000111000010001011101,
00000000000110111101010110100111,
00000000010001111010101110010000,
11111111111001100010011001111000,
00000000001101010000010001000000,
11111111110001001010010110011110,
00000000001011000100101100110100,
00000000000000101111111001010111,
00000000000000101011101100111111,
00000000001111100100101111010101,
00000000000001011001101000101001,
11111111111000001110010010000001,
11111111110101111010100010001111,
00000000000010111101100111110110,
11111111111001111000011111100001,
00000000001001001111101100101011,
11111111110000101110100110001001,
11111111110011101101100100011011,
00000000001111111100101001111101,
11111111111000111010111101110111,
11111111101101111110100110101110,
00000000001101000101010001101111,
11111111111011000010011101001110,
00000000000000000110111010100101,
00000000001011010101000101101011,
00000000000110000110101010101110,
11111111101110011101001100101101,
00000000000011010001111100111011,
00000000010001101101111001101110,
11111111111110111100011000011011,
00000000001101010011000001111111,
00000000010000000001010000001100,
00000000000110101111010010000111,
11111111101111000110010100000000,
00000000001111101011111101010000,
00000000001110011100010011110010,
00000000000101011110110100100000,
11111111111110011111101001001001,
11111111110011011001111010110111,
00000000000100000001111111101011,
11111111111001101001011100110111,
00000000010000011000101110010000,
11111111101101110001010101101101,
00000000000011111100010100110100,
11111111111111100111010011011001,
00000000000000000011000100100000,
11111111111101101110100001101010,
00000000000111101111010011000010,
11111111110000010011001001000010,
00000000000011111011110111101110,
11111111110011110100101110101010,
00000000000101110100010100111101,
11111111111110011100101001000100,
00000000000010010100100000100111,
00000000001010010011111011010011,
11111111111000101110101011000001,
11111111110001010010001001111110,
11111111110111011110000100010110,
00000000001110111001111011101010,
11111111110001000111011000110011,
00000000001011100110001000101111,
11111111111001100010110001100111,
00000000000000111101100011000010,
00000000000111011111010100111111,
11111111111001100011011001101010,
11111111110011011001110111001110,
00000000000110001100000100000100,
00000000001011000010101111101111,
00000000000110110100000011101011,
11111111111111010111001111001001,
00000000000001111100110010001001,
00000000000111101011010110101000,
00000000000101110100111100101011,
11111111110110111011111100001110,
00000000001101001011100101100011,
11111111111101100011010110101101,
11111111111000110010010100000100,
11111111111010011110111010111100,
00000000000010011011011010110100,
11111111110110100010011110000100,
11111111110010101010001011110101,
00000000001010001100100110000000,
00000000001110111011000000110101,
11111111101101110100110110100110,
00000000001110100011010010110100,
11111111110101010000010001011101,
00000000000100010100011011001101,
00000000010000111011000100000001,
11111111110100100100001010100011,
11111111111000011110110101101001,
00000000000101010001010011110010,
11111111110100100011111110010010,
11111111111000111000100001010110,
11111111110000101010111101011101,
00000000000010001000100101000011,
00000000001011011010101010110111,
00000000000100111001011011101010,
11111111111100101111101110010101,
00000000010001010101010110110000,
00000000001110010001011011110100,
11111111110110000011010110001001,
00000000001010011101011100101010,
11111111111011110011100000101000,
00000000000101111001011010100011,
00000000000001111111001001001100,
00000000001000000000001101101110,
11111111110110101100101100100011,
11111111110111001011111100001101,
11111111110101100100100100110100,
11111111110100001010010000110101,
11111111111000000111011000000011,
00000000000100011000111010011011,
00000000000101001101001000001111,
00000000000011011101110000011001,
00000000001101100110111001011000,
00000000001101111010000000101100,
00000000001110110000011001111011,
00000000001011011000011000000100,
11111111111111110110110100110000,
00000000000100101001101101011010,
11111111110110110010101100100000,
00000000000000010011100111011000,
00000000000001011000101110011000,
11111111110001000011001010101101,
00000000001110111101110100110000,
11111111111011111100101000100110,
00000000001101111111100110010000,
00000000001000101011110111010111,
11111111110110000100010101111101,
00000000000101010111000000011110,
11111111110111111100010101100101,
11111111110110111111111111110100,
00000000000101110011011111011110,
00000000001000111100010011010111,
11111111110101100011100011101000,
11111111110110110000010101010100,
00000000001101110011110011110001,
11111111111001010001110001101111,
11111111110011101110100001001100,
11111111110000100001000001001000,
00000000001010100100011101011111,
00000000001101001011000011100110,
00000000010010001000000111101011,
11111111110010010001010101110010,
00000000000010001100010101100100,
00000000000011100011100111111010,
00000000000001110011110001111110,
00000000000011101100010000111000,
11111111101111000110111110100000,
11111111101110011010111110001110,
11111111111000011010110001110101,
00000000000001101011100111011110,
00000000000001011000101001100010,
11111111111101011000101101110101,
11111111101101101111001101100101,
00000000001011011010110001011111,
11111111110011101111011101010010,
00000000000100010101110110110111,
11111111110010101000110111111000,
00000000001101001011101000011101,
00000000001110101101111101001011,
11111111110110011100011011110101,
00000000001111101100000101111010,
11111111111010011111011001011011,
11111111101110001110110010010001,
11111111111101000010101001011100,
11111111110010001100101010001101,
00000000000011110100000101011011,
00000000000011100010001001100011,
11111111110111111011101110100111,
11111111111010101110100011011101,
00000000000101011000111101000111,
11111111110101111111010001011101,
00000000000111100001001001010100,
11111111110010011101010111101111,
00000000001010101011111100101110,
11111111110111010011001011010000,
11111111110000101111001011011101,
00000000000011100000100001101011,
00000000000001111011010110010111,
11111111110010011111101110010011,
00000000010000000100110011100100,
11111111111001011001110101100001,
00000000001100000011001011100000,
11111111111011010001110001000101,
00000000001100001110100111010100,
11111111110111001011110101111011,
11111111110011010010100100101010,
11111111110001000100101110000111,
11111111110110101010100101110101,
11111111110110000001100100100111,
00000000001000010101111001010110,
11111111110011111011100001010000,
11111111111100111001101010100001,
11111111111001010110110011111010,
11111111111001000110001001111101,
11111111111101110000101001100000,
00000000001010000101101111001110,
11111111111000011101011000000000,
11111111110000101011011000100000,
00000000001100011100101110001111,
11111111110101010111111101011111,
00000000001100100111100110001011,
11111111111110001000111000010000,
11111111111101110101101001100000,
00000000010001001001101000111001,
00000000000011010010101011000011,
11111111101111011101010010011110,
11111111101110011110001101001101,
11111111101110111001010010111110,
11111111110010100000011000000100,
00000000000110100111000001001011,
00000000000111100110000100100000,
00000000001001011110011010111100,
11111111101111001011001001011001,
00000000001010111111001111010111,
00000000010000001101011101100101,
00000000000111001011010110101110,
11111111111000110010100111101001,
11111111110000001001001010101110,
00000000010010000101000001100011,
00000000000001110010110100000101,
00000000000011111100010110101011,
00000000000000101100010010000111,
00000000001100010001101110000010,
11111111101110000001110010010111,
00000000001001001111101000000101,
11111111110011100100101000111001,
00000000010000111101011110110111,
11111111110001101110101010101000,
11111111111011111101111010011110,
00000000000110000010101110000111,
00000000000110000101000111101010,
00000000000110000111011100111110,
00000000000000101111001110100000,
00000000000101000001010001110000,
11111111110011101100010101001001,
11111111111110111010110110110110,
00000000000101000110010011001101,
00000000001110101010110000100001,
11111111110001000111010001110001,
11111111111000110010000010111011,
11111111110011101111100000111011,
11111111110110100011001111111000,
11111111110101010100000100101110,
11111111111101001101011001010000,
00000000000110100110110111000000,
11111111111100011100011001011111,
00000000000011101010100000110110,
11111111111011101011010011111100,
11111111101110011001110110101111,
00000000000010010100110101100101,
00000000000000110011001111100000,
11111111110011100101010000000111,
11111111101110011001001000001010,
00000000000100100000111100100011,
11111111111010111101111110000011,
00000000000011101010011000010010,
11111111111100000000001100100100,
11111111111011011111110101110000,
11111111111000101010101001000101,
00000000010001100100100011010101,
11111111101111101101101101010000,
11111111111011011101011100011111,
11111111111011000001000010001001,
11111111111001100100000110000011,
00000000001001010001010110110000,
00000000010000010000100001110001,
00000000001111000101001011010001,
11111111110111000110100001101100,
11111111111000000001010110111010,
00000000000111010000100101110111,
00000000001001110100001011100110,
11111111110000101010110010011101,
11111111110111101101011001111000,
11111111110111011000010111001010,
11111111111110001110000101110100,
11111111111001100100100111010011,
11111111110001110111010110111100,
11111111111100111011100001011000,
11111111111011110001011100100111,
00000000000001011001110101100000,
11111111111001000001111100001111,
11111111110111011101101110101111,
00000000010000010100111000111001,
11111111111010101110110000101001,
00000000001010111001000011001010,
11111111110100000010100010011100,
11111111111000000100101011011001,
00000000000111011100001101100100,
00000000000011100111000100010110,
11111111110010001101100001000000,
00000000001110001000101101110111,
11111111111011000001011010000100,
11111111111111111111101010111100,
11111111111101100000101010000100,
00000000001101111101110010110011,
00000000000100011011010011000100,
00000000001000100001010001101000,
11111111111100000001011100111000,
00000000010010001110110100010101,
00000000000111000111011011000110,
00000000001001000001101010111001,
11111111111100011100111100100110,
11111111110000110111001101100011,
00000000001101001101101100011100,
11111111101111101101110100110011,
11111111101101111011000010111010,
00000000000001101111001010011000,
11111111111100011101110010011101,
11111111110010110100110110001000,
00000000001110000100110101010001,
00000000000001110110000000110000,
11111111110111100001101000011111,
00000000001011110000100100001000,
00000000000110011110010011111010,
11111111110001101110010000010100,
11111111111100111110100011110111,
11111111110000001111101010111011,
11111111110101110011110101100000,
00000000000011010010111110010000,
00000000000101000100001110000010,
11111111111000111011010111111000,
11111111111001100011111111000111,
11111111110000011000101000011001,
11111111110100101100100000011010,
11111111111110110101101000000101,
00000000000000101010000011001011,
00000000001010010010011100001101,
00000000001100001001011100111000,
00000000001111111101010011000111,
00000000000011100011100100101111,
11111111110010011110000101010001,
11111111111010110101000110101001,
11111111101111111010001010011110,
11111111111110100110000000010101,
00000000001001100100110101001110,
00000000000010000101111010001001,
00000000001000010110011010000100,
00000000001111011100000100101100,
00000000001001100000110110110010,
11111111111100001100101010000111,
00000000010000101010001101100000,
00000000001010001000110000001100,
11111111110010011011011110010000,
00000000000010101000001011010001,
00000000001000110100011101000111,
00000000000101110111010110100100,
00000000010001100110100111001001,
11111111110100000000000000010001,
00000000000010100100110010111100,
00000000010001101110100101011000,
11111111110100100010000011111110,
11111111110110001001101100110101,
00000000001100011000111110001110,
00000000001001001101100100011000,
00000000001110011000111101111011,
11111111111100110100110000110101,
00000000001010110101101101000100,
11111111110000010010001100000001,
11111111110101011101010000001100,
00000000000010111011100111101000,
11111111110011000001100000110111,
11111111111111101011110101110010,
11111111111001001011010110001110,
00000000010010000100111001010101,
11111111111010100010010111100111,
00000000000110010111010001010100,
00000000000011100000101100001110,
00000000010001100111100110001000,
00000000000000001100001100111001,
00000000001010011000110111101001,
11111111110011100101110101010100,
11111111110010110011110001101001,
00000000001001011101110011110011,
00000000001011010111000100101100,
11111111110110101111010110000111,
00000000001110101001100000110100,
00000000000110000001111001111010,
11111111110101101000110000110100,
00000000001000110100011000000010,
00000000010010001011101000100000;