memory_initialization_radix=2;
memory_initialization_vector=
11111111101111001110100100111010,
11111111110111000110111000111001,
00000000001100010110011001111000,
11111111110101000010011011111011,
00000000001110110111101100011000,
11111111110111011100111011110000,
00000000000010111001001000111011,
00000000000010011001001100010100,
11111111111111100011010010111000,
00000000001011011000111001111110,
00000000001111100001111100110000,
11111111110100100101010100010101,
00000000001010010000010101011101,
00000000000100111000101011110110,
11111111111111101010001100010100,
11111111110011001101101110100010,
00000000000101011011001001101100,
00000000001101010001011011111111,
11111111110000010011011111111000,
11111111101111000111001011011001,
11111111101110000001100000101101,
00000000000100001110011010000110,
11111111111010101111101111001000,
11111111111010010100011110100010,
00000000010001000001101110001011,
11111111111011010101100000000011,
11111111110100011000110100000010,
00000000000001101001010001001100,
11111111110101111101101011001111,
11111111111010101001000111001111,
00000000001001101010001011011101,
00000000000100001110000110000100,
11111111110011011100111011010000,
00000000010001011010001010000010,
00000000001100010111110001011000,
11111111110011100010001110111110,
00000000000111111101110000011001,
00000000000111100000111001001001,
11111111110010111000010000101010,
11111111110011001001100001111110,
11111111110000110110111110011010,
00000000001000001001010011011011,
00000000000011001011111001001001,
00000000000111101110100101011011,
11111111110111111101111110110000,
00000000001101101111111101110100,
00000000000010010101011011101100,
11111111110001011010001100101000,
11111111111011011001011100000011,
00000000001001010101001111010111,
00000000000100000001010100110110,
11111111111101001100111101111000,
11111111110011001110010111110100,
11111111110100101000000000001001,
00000000001111110001011010001101,
11111111110101100001100111100101,
00000000001100111101010100000110,
11111111111001111000010010011000,
00000000000000001011101100101001,
11111111101110001100011000110011,
11111111111010000011100101010000,
00000000001111011010100001101101,
11111111101111100101010100010110,
00000000001001001100110101111110,
11111111110000100111000110110001,
00000000000010101010101100000111,
11111111101111011010111110011111,
11111111110001100001100011111101,
11111111110001001111001110110011,
11111111111001101010001101000000,
00000000000010011111010101111101,
11111111110010100101111110101011,
00000000000100101000100101111100,
00000000001011000000110110011110,
00000000001110111010000000111111,
00000000010000001100001110011001,
00000000001100000010100000001110,
11111111111010100111011001001100,
11111111111110010100001001011101,
00000000010000001011011100000111,
00000000001001000110001010110100,
11111111111011001001101001100010,
00000000001101110011100100001000,
11111111110000000001010000100010,
00000000001111101001100111000011,
00000000001010001110110010000010,
11111111110010100101101001000001,
11111111110001000101011111111111,
00000000001110010011001100011001,
00000000010010000010100000000111,
00000000000001100110000111110111,
11111111111000110110101110100110,
00000000001010011010011000000011,
00000000001000001111111101111001,
11111111111101101101111100100011,
00000000001110101000111100110110,
00000000001011110110100011001010,
00000000000100100011110000001101,
00000000001001011111101001010100,
11111111101110110111110011000011,
11111111110111011011110101000000,
00000000000010000000010010001111,
00000000000100111110010000000011,
11111111111101100000000000100111,
00000000000110111001111000101010,
00000000000101100100100000001110,
11111111101111000110011010101101,
00000000000101110001001000010010,
11111111111110100000110110011000,
11111111110011011010101011000110,
00000000000000100111011111101011,
11111111111011100000001011100101,
11111111110110010010100010000001,
11111111101111010101100101111010,
00000000001111010011000001000111,
11111111110100111001010010100010,
00000000000010011101001011101011,
00000000001110101001100001000000,
11111111111101101100100100001000,
11111111110100000000111110101000,
11111111101110010011110011000101,
00000000000011000010011100100111,
11111111110110110100110010111000,
00000000000001010101010110000001,
00000000000101110101110100000110,
11111111111010110100011010110000,
00000000001100011001100000101100,
11111111111101100111101101011101,
11111111111000101100111101000101,
11111111110011111010001101011011,
00000000000101100011000100010001,
11111111110100101100011101110001,
00000000000011110110000000010000,
11111111111101101100010011000111,
00000000001100100100010010001110,
11111111110111000010010001101000,
11111111110110111111011111011100,
11111111111101101000110000100011,
11111111110100110101001101100000,
00000000000110111110001010100001,
11111111111001010011010100110101,
00000000000111100000001000111011,
00000000001010100111001100111011,
00000000001010101011010111101110,
11111111111100101001001010000101,
00000000001001111110101010101101,
11111111110110010100010011010001,
11111111101101110001111111001001,
11111111111110010000100111111100,
11111111110010101111011101110000,
11111111110001110101010110001101,
00000000000100101001011110110111,
00000000001111101000000010011000,
11111111111000110011011101000010,
11111111111110111101110011001011,
11111111110010110000001000100111,
00000000000011001100100010100001,
00000000000101001101101001010010,
11111111111101001100010110101111,
00000000001101111010011000110100,
11111111110001010010000111110100,
11111111111101100010111111000000,
11111111110101110110011010001100,
00000000010000000011100101001100,
00000000001111011111001111111011,
00000000010001111111001001111111,
00000000010000110100101101101111,
00000000000111001111011111111110,
11111111110001111111111001010011,
11111111110011100110001011010100,
00000000000100011000100010110111,
11111111101111101011001010100101,
00000000001011100100111000110111,
00000000000111111100110001011111,
00000000000100010111001110010100,
11111111110000000010100011001000,
00000000001101010011010100100111,
11111111111110000100001001000111,
11111111111000010100111001110111,
00000000001001100011000001001000,
00000000000001100010111001010101,
11111111110111110111011010001111,
00000000000100010001111010001011,
11111111110011110011100101011111,
00000000010000111111101011100001,
00000000010000000001110000001001,
00000000001000011011101101101111,
00000000001001101011000111010001,
11111111101101110100101010110101,
11111111110101110101011100111111,
11111111101110011001110111110110,
11111111110110011110000010100101,
11111111110000110101101111110010,
00000000001101011101011010011111,
00000000001001110111011000100011,
00000000001010110001001100100101,
11111111110111111000011110000011,
00000000001101111011111110100000,
11111111111101010110111001001110,
11111111111011010000110010101101,
00000000001001110110000111101011,
00000000001100000111000000000000,
11111111110010110110111000010100,
00000000010001011010001001011000,
11111111111110001001111000100100,
00000000000100110111101100011011,
11111111101101110010101101000010,
00000000000010000010010010000101,
11111111110110111100110011101000,
11111111110100100011001111001001,
11111111111000010111011000000001,
11111111111111111010100011001000,
11111111111010110010100110111001,
11111111110100010010010100100110,
00000000001101000101111010000001,
00000000000101011100001010001011,
11111111101110111110111000010101,
00000000000011110101011111001111,
00000000000100011111011110101100,
00000000000000101011000000001011,
00000000000100011100001011001110,
11111111111110011110000001001100,
00000000000111111111110100001110,
11111111110011001000001001001001,
11111111111000001101000000110000,
00000000001101101100101010110001,
11111111110100101010111101011110,
00000000001000111110001011011101,
00000000010000111010110101010100,
11111111101111010001111000001101,
11111111110111111111010010101110,
00000000001111100110101100010001,
11111111111110111001001111001000,
00000000000011100111000001111100,
00000000000010100110100011011111,
00000000000111100010010001100001,
11111111111000011101110011100011,
00000000000010010111111011011101,
00000000001100011101001011010010,
11111111111110011101010001011001,
11111111101111001110010100000111,
00000000000110010100100000111111,
11111111111011010101001111100001,
11111111111100001001000110110101,
00000000001001100010010110000110,
00000000000011001101000110001100,
11111111110100111100000010001000,
11111111110111100011111100101011,
11111111111101001110000110110000,
11111111111011011110110111010000,
11111111111100001000010000000100,
11111111110011100000000110010110,
00000000001101001111110010010010,
00000000001001011110111011111000,
00000000000011100110111100111000,
00000000000100001000111110100100,
00000000000010001001000000001101,
00000000001101101011000100000000,
00000000000100001000110100000100,
00000000000010110010010001011010,
11111111110101111100101011100110,
00000000000110000110011001011011,
11111111101110111001001001001010,
00000000000101110001000110000011,
11111111110000001001100110111110,
11111111111000011011101001101110,
00000000001001101001110101101100,
11111111110101000110111101101100,
00000000001110100011110111100000,
11111111110101111001011001001011,
00000000010001010100011110111110,
00000000000101101000101100100011,
11111111111000000100110110100001,
00000000001011001001101110111000,
11111111101111110011100110101000,
11111111110100011010101000101000,
11111111110100100010110011011111,
00000000000010011010000011100111,
00000000000001110010111110001111,
11111111110000010001011011011101,
00000000010001101001010001111001,
11111111111111111110111000011011,
11111111110110001111000100100100,
00000000000000011011111101000010,
11111111111000001001101001101011,
00000000000101000010110111110110,
00000000000110100111101001111000,
11111111111010110100000010010001,
00000000000001000100001110011011,
00000000001010111000010101000101,
11111111110100000110110011110100,
11111111111011111011000010100101,
11111111111101010011010110101011,
11111111110011111001101110010101,
00000000000001011111010100010000,
00000000000000101011000000101101,
11111111110001001110101110100001,
00000000000011110000000100011010,
00000000010001011100111111111001,
00000000001001101110011101111011,
11111111110110000101001100010101,
00000000010000101111001111011001,
11111111110011011011100011011000,
11111111110110101100111110010011,
00000000001000000100001101000111,
00000000001110100011000000101100,
00000000010001011100110010011001,
00000000001111101111100001110001,
11111111110101111011100101100101,
00000000000100001011110010101110,
11111111110100100001001010010100,
00000000000000011001110110000000,
00000000001111001001100101100110,
00000000001001000000001111010011,
11111111101111000111011000111001,
11111111111000001000010101110101,
11111111110000100100100101010000,
00000000001000100111010010011100,
11111111111101101011011100000011,
11111111110010101000011111101001,
11111111111010001010000010101101,
00000000000110000000000010111100,
00000000000001101100010110000011,
00000000010001001010000101100111,
11111111111111110000011101101000,
00000000000101110000000111110001,
11111111111010011101011111010011,
00000000000010001011101001011101,
00000000000000101001111011000111,
00000000001111101101010000001110,
00000000000111101010010111001011,
11111111110101100101000100000100,
11111111101111110000001000100101,
11111111101110100110100010110111,
11111111111001010111000000000101,
00000000000010010111010001101111,
00000000010001001100111101110001,
11111111111110001101000000111010,
00000000000111001001100100100010,
00000000001001010010110001001101,
11111111110001111111100011111001,
11111111110000110111111010111110,
00000000000110111011011100001010,
00000000001000100001011110110010,
11111111110111011111000100101111,
00000000000010110111011001001011,
11111111101110000110001010010001,
00000000000000001110110000000100,
00000000000100011110110111010010,
00000000000000001011000100111101,
11111111111101000110001111011010,
00000000000111100111000110111000,
11111111111010111110010100111110,
00000000001101100111001001110100,
11111111110000001111111111111010,
11111111110101100011001011111000,
11111111110000101111000000011101,
11111111101111011101100101110011,
00000000001101100011100110000110,
11111111111011011110011000101101,
11111111110001101000101101011001,
00000000000011110010101110101000,
11111111110010001001110010110110,
00000000000000111100011111101111,
00000000001000101100010101010011,
11111111111100001000100010010001,
00000000001001011001100111011010,
00000000000011110000001100011110,
11111111110001010100111010100110,
00000000000011100110010101010101,
00000000001011110010011010100010,
11111111111011110000101101000111,
00000000000001101110100110100101,
00000000000010010101010011000101,
00000000000001100100101000101010,
00000000000100110000001101101110,
11111111101110011111011111111101,
00000000001101110111111010011110,
00000000000111111110011010100000,
00000000000010010000100001001111,
00000000000011010100111100100000,
11111111110001010000001100111100,
11111111111010110001110110111111,
11111111111111001101000110001011,
00000000000100010110001100000001,
11111111110101111110000001111000,
00000000000001111100001011000010,
11111111111010010100110011100000,
00000000001101010011110100111011,
11111111110000010011011110001110,
00000000000001111010010101010101,
00000000001100011000110111001100,
11111111110001110011000011110110,
11111111111111011110011101010100,
00000000001000011100110001111100,
00000000000111011000001111010110,
00000000000010001001101000000011,
00000000000111011001000100100100,
11111111110011010000001100101001,
00000000001111001110101101101011,
00000000000000011010000110011110,
00000000001011110100011110110100,
00000000000100000010111000111111,
11111111111101111101110011110001,
00000000000111110101010001101111,
00000000010001010110111100111111,
00000000010010000010011000111011,
11111111110000100110111010101010,
00000000000001000110111110100010,
11111111110010110111010010110110,
00000000001010101001110111010111,
00000000001101001000001001000100,
11111111110011001010001110100111,
11111111111110111100010111001101,
00000000001100101001110100000000,
00000000001100000101111010101111,
11111111110010010000000110010001,
00000000001100010001110000111110,
11111111111100110000110100000011,
11111111110000011100101101000110,
00000000000011101001000111101011,
00000000001000100001001100010010,
00000000001010111101110110000100,
11111111110011100100010010111100,
11111111110010110000011000011110,
11111111110011101101101100100000,
00000000001010010111001101110010,
11111111110000000001001100010100,
11111111111111110110001000011011,
11111111111010101000000110010101,
00000000000111111110111100111100,
00000000000011100101110100110100,
11111111110110110001000010001101,
00000000000011001100011010001111,
00000000010000110100111110011110,
00000000000011000000101011100001,
11111111110110111100000100100111,
00000000000000100111001011100101,
11111111101111001110100011101111,
11111111110100010001001001100100,
11111111111100100110100111110011,
11111111110100100110101111000001,
00000000001111011111000000111111,
00000000000011100011001010100010,
00000000001110001010011011111010,
11111111111011110101100001000000,
11111111111101011101001111100001,
00000000000100100111001100101111,
11111111111010100100000001110010,
11111111111001110001000101001101,
11111111101110000011111110100111,
00000000001101110001101000011000,
00000000010000100011001001001000,
11111111101101111001010001100010,
11111111111001111100110011010001,
11111111110010001010110011110110,
11111111111000100100111100111000,
00000000001101111010111100110111,
00000000001001110010000000101010,
11111111111110100101001100100000,
00000000000111110011110101001100,
00000000000101011101011111101011,
00000000001001111111000111010001,
11111111110001010011100011101110,
00000000000101101001101111100110,
11111111101110101011101000010110,
11111111110011111110010101111111,
11111111111001001011111000110111,
11111111111110001101111110101101,
11111111101110101111100110001001,
00000000000000011101001000000000,
00000000000010111010110110000000,
11111111111000101111100011011011,
00000000000101111011100101100000,
00000000001111111110100111110111,
11111111111100111000000110010010,
11111111110110010000101110110010,
11111111101111110011010100111110,
11111111110010101001011101000100,
11111111110101111000101110101101,
11111111110010011110110101101000,
11111111111000110011111001101110,
00000000001010000100101100010101,
00000000000101101110001101010101,
00000000010000011110110011101000,
00000000010010001001111010100001,
11111111111001011010100100101000,
11111111111000110101101100011010,
00000000000010100000001001011101,
11111111110001011100000111110101,
00000000001001111100100010100110,
11111111111100101101010111111110,
11111111110000101100000101100000,
11111111110010001100011101001011,
11111111110011011001100101111110,
00000000000101000001101001111101,
00000000001110000001000110110100,
00000000001110011111001010010111,
11111111111010111101110000011001,
11111111110101011000001110111001,
11111111110111111000100101100010,
11111111110011100000100011100010,
11111111111011010010010001100111,
11111111101111011111000100001101,
00000000001001110001100000111100,
11111111101110110010100010000110,
11111111110100101000000001001100,
00000000001100010001011000010000,
11111111110010010100100111011001,
00000000000100010111110001100010,
00000000001101101100100100100110,
00000000010010000001100100010001,
00000000001001010000001001110000,
11111111111011000101111011110111,
00000000001010011100101111100010,
11111111111111011001011000001010,
11111111111010010111001001110111,
00000000000000000011110011111011,
00000000000100000110100000010111,
00000000001100010000101100110010,
00000000000111101011001111100111,
00000000001000101110110011001110,
00000000000010101111000100100110,
11111111111111000101000110010000,
00000000000111101011011001100011,
00000000000100011001011110101110,
11111111101110100000001010100100,
00000000000010111101001101001100,
11111111110111111000010010010010,
11111111110110010011011001100111,
00000000000111000100100101011100,
00000000000011101111010011110110,
00000000000011000110001011100010,
11111111110111010100110101100000,
00000000001000011100110000100011,
00000000010001001010001110111011,
00000000000010001111001010110101,
00000000000111100001000001001011,
11111111101111111101010001101001,
00000000001010110111101110101011,
00000000000110010110100010110001,
00000000001000001111001111110010,
00000000000111101000000001100000,
11111111111011001100001011111011,
11111111111110111001110000001111,
00000000010001101011111110101100,
00000000001101011000010101110001,
11111111110010111001001001110010,
00000000001110100000100010000100,
00000000010010001100101101001000,
00000000000010011001111001111110,
11111111110001101110111101101101,
00000000000011100010110110010101,
11111111111100010011101001011111,
00000000001101001001011010111000,
11111111101110011011100110111011,
00000000000100101011011110101111,
11111111111111110010010001100010,
00000000000001011100001000001101,
00000000001100100101000001111011,
00000000000000010101001001000001,
11111111110001010001110100110101,
11111111110101010101010101000010,
11111111111000101011011010011100,
00000000000001111100110011111011,
00000000000111000011100111001111,
11111111111100100101100011101111,
11111111111000110010000111010011,
00000000001000000001100001110110,
11111111101110001110000111110011,
00000000001100110001110001100001,
11111111111101110111111101010011,
00000000001100101110010100011011,
00000000001101110100010010001100,
00000000000001111101000001001001,
00000000000101110010001100011000,
11111111110101101010000101000011,
00000000001101000110011111011011,
00000000001010101100111101100110,
11111111111101001000001100100100,
00000000000111001000001001101001,
11111111111110111110011100101101,
00000000001110010010010101010010,
00000000000111100001101111100000,
00000000001101010101001100010111,
11111111101111011000001111000010,
00000000010001110100001111011001,
00000000000110110100000001101101,
00000000001000111000111110001100,
00000000000100000100110001100010,
00000000001100000000101000001110,
00000000010001001101101110110111,
11111111111110011100010011011001,
11111111110000111111110000011100,
00000000010000110010101000010110,
11111111111100001001001100100110,
11111111110111001011100110010110,
00000000001011010000011010010100,
00000000001010001101000111001000,
00000000000010011100101011100011,
11111111111110110110100010011110,
11111111111100100000000111111001,
00000000010000110001000010111101,
00000000001011001001000010011000,
00000000001010111000111100100111,
00000000001011101010010001000000,
11111111110110011011100001010011,
00000000000011110100010110011010,
11111111110000001011100110010001,
00000000001010100111111010010111,
11111111101101111000000000001111,
11111111101101101110011010010110,
11111111101101111011001100011001,
00000000001011010001101011010110,
00000000000001111001110010101010,
00000000000000000010101010010100,
00000000000010111010001000111011,
11111111111001000101000110101010,
11111111111010011100101000001001,
11111111110011101011101101000111,
11111111111011100010001100100101,
11111111110100101111111000010110,
00000000000000011110110010100111,
00000000001110010111100000000011,
11111111110000111000100010001011,
00000000001000111111100000110101,
11111111110010011001100010110100,
11111111111000011011000111110111,
00000000000011100100110101111100,
00000000000011001001010111100010,
00000000001110111111101110010010,
11111111111111111111100011111111,
11111111111001000010010001100111,
11111111111000011100000000011101,
00000000000000100010010011110111,
11111111110010010010011111000111,
11111111110001101010011011011000,
11111111111000001011010001110010,
00000000000000011110000100000000,
11111111110011101001101010000111,
11111111110101100011111101100101,
00000000001101000011100101000001,
00000000010000111001011110111011,
11111111111010010001011011001110,
11111111110000010011111101111101,
11111111111000111111111100111100,
00000000000111011000010101000111,
00000000000101111011110011110111,
11111111111010010101001101100100,
11111111101111111001010011101000,
11111111111010100000000110111111,
11111111111011111010010101001001,
00000000001010100001111011001000,
11111111110110111011101100001100,
00000000001010111110010111010100,
00000000000010100010010101110001,
11111111111100111011110111001100,
11111111101111101101000100001001,
00000000010010000011011000101000,
11111111111100101111010100011000,
00000000001011100000010101111001,
11111111110110100010101001011111,
11111111101110001100010101110000,
11111111110001011011001010011100,
11111111110110101000001111101111,
11111111111010001011010011010010,
11111111111101011010101111010111,
00000000001111010000000010001111,
11111111101111001000101100011011,
00000000001001001000000110111111,
00000000001111011000101101100100,
00000000000000000111100010000100,
11111111110100100110001010010010,
00000000000000100101011011100100,
00000000000100010101101000110010,
00000000001000000101110011100011,
11111111111010011100010001001111,
11111111111001101110011001000100,
11111111110111010111111001001100,
11111111101110010100000101010101,
00000000000110011011000000111100,
11111111110010001011001111110010,
11111111110111001101110010110000,
11111111111111110011111101010000,
00000000001110000110001011011001,
00000000010000010000100010110000,
11111111110010101100110001111110,
00000000001111110110111110010100,
00000000010000011000010100011101,
00000000001110110001011001100010,
00000000000001100101111000110011,
00000000001110101011111010010000,
00000000001000111000100110100010,
11111111110010111000010000000001,
11111111110110010111001010110101,
00000000000000010110000000100101,
11111111110011000010101001001000,
11111111111001111110101001010111,
00000000001110101111100010000111,
00000000001000100000110111000111,
00000000001111111011001011010111,
00000000000000001000111110001100,
11111111110110101011010001010100,
00000000001100000110100011010010,
00000000000001010110010001101011,
00000000000011000101000101001010,
11111111111000010000001001110000,
00000000000111100000101110000010,
11111111110010011111101100001010,
00000000001110100101110111000100,
00000000001111111111110100001110,
00000000000110100110010000111101,
00000000001110001111010101010000,
00000000001011000110010100111000,
11111111111001000001000011000011,
11111111110000001000111110001110,
00000000000010011001111111111000,
00000000001011011110110010110110,
11111111111110001000010001110011,
00000000000001100010011110000010,
00000000001101100011011010000110,
00000000000111100011001100111100,
00000000001101101010111001001100,
00000000000010101011110101110111,
00000000000010000011001011101101,
11111111111011101000000100100001,
11111111111100111010100001000001,
11111111110110010010000010001001,
00000000001100001110011011010000,
00000000010000101011010110111010,
00000000000110110010010011111000,
00000000000000100001010000001001,
11111111111001111101101011101101,
11111111101101111100100010100010,
11111111111100100111010011011011,
11111111110011000001001101010000,
11111111110010100000000001011100,
11111111111100011000010000111011,
11111111111100011001110001111100,
00000000000011101100000100111010,
11111111110010101111110000010001,
00000000001101001001000010010011,
11111111101111010110100000101111,
11111111110111010101110000101100,
11111111111001000011101100101111,
00000000000001001000001001101101,
00000000000111100011110001100000,
11111111111011001011100101111011,
00000000000010110110101001010011,
11111111111011101010111100111101,
11111111111000110011101101110000,
11111111111101011100010011011110,
00000000000011101011101000001010,
11111111101110001111001111011110,
11111111110011010001011011100100,
00000000001110010010010010011000,
00000000001000010001001011111000,
11111111111111100000101101011010,
00000000000000100100111101010100,
00000000000010100001100010100101,
00000000000100010000000000000010,
11111111110011100001000000000101,
11111111111011000000111111101011,
11111111101111001101111100001010,
11111111110001100111111100000010,
11111111111100100011110011100000,
11111111111101100101011110101011,
00000000001110010011010101011001,
00000000000011001001100100111000,
11111111111101000010001111100100,
11111111111111011111100100111111,
00000000001010001101100110000111,
11111111111010011101011111011101,
11111111111100100101001110001111,
11111111111100010101001110111001,
11111111110001010000010100000100,
11111111111101011100011100000001,
11111111101111000110001000111010,
11111111110110001010111100110011,
11111111110100010111000110001101,
00000000001101100111110001101011,
11111111101111001001111100111001,
00000000010001100111100110111000,
00000000000110110110110010111011;