memory_initialization_radix=2;
memory_initialization_vector=
00000000010000101100010010000011,
11111111111110001101000011100001,
00000000001110101010111101010111,
11111111111000011110100010000101,
11111111111010001101010010011000,
00000000001000001101100001000011,
11111111110100111110110111100111,
11111111111000111111011101110000,
00000000000000111110111010110100,
00000000000001100000011011110001,
00000000000000111011001111100100,
11111111111101100011001101010100,
00000000000101110100100010001000,
00000000010001101010101010111111,
11111111111001110111111000110010,
00000000001010000011110100011010,
00000000000100011110100111010100,
00000000001011100100010101011101,
00000000001110111010100101101011,
11111111111110010000000101000000,
11111111111100001100110000010001,
11111111111000110010011011011101,
11111111111010111011101101110100,
11111111111000001110100111001001,
11111111111011011111000001010101,
00000000001010101011111111001110,
00000000000101011111010001000110,
11111111110111010111110111110110,
00000000001010010101111010000000,
00000000000001101000111100101111,
00000000000000101110010100010011,
00000000000111000011111000011101,
11111111110101110000011101010000,
11111111111110000100001010110111,
00000000001101111100101001100111,
00000000001011110110001101001010,
00000000001010010011101100001110,
11111111111101011011110010000110,
00000000000001110110000100010001,
00000000001011110111101010101111,
00000000000011001011110000110100,
00000000001010000100011100111100,
00000000001001010000111101110111,
00000000001000000001010001010001,
00000000001000100110100010110100,
11111111110011101111111110010000,
11111111101111111011011011100011,
11111111101101111000010111101110,
00000000001110010101000111000011,
11111111110101110101000010001100,
11111111110001100111110110010001,
00000000000010010101100111101001,
11111111111100011110101000010001,
00000000000101110011100011100001,
11111111111011001110011000000010,
00000000001110001010101111001000,
11111111101110101010011011010011,
11111111101101111110101110000000,
00000000001111101111111110111110,
11111111111000000100001010101111,
00000000000100011110110010101000,
00000000000110101010011110110111,
00000000000010110111101011010001,
11111111110100011100110010100000,
00000000000001111110111001111001,
11111111110100000001110010101011,
00000000001111011011001100010111,
00000000000010110100101011000101,
00000000001101001101010100001111,
00000000001100111010101101010110,
00000000000111110010001001111100,
00000000000110011101010110010111,
00000000001010010011111110100101,
11111111110100010101111001111101,
00000000001101110011000011110011,
11111111111100000100011011010010,
00000000001110001000011100110110,
11111111111110110001101001100000,
00000000001000011110010100010010,
00000000001101100000001011100000,
00000000000011011110010110001010,
11111111111100011101000110000011,
00000000000111011101010101010011,
11111111101101110001110101011010,
11111111111110000111111010010011,
11111111111100010001101111011000,
11111111110001111111110000010001,
11111111111111001000100110110001,
00000000000100010000001011000000,
11111111101110001110011100001011,
00000000001110111110100001001101,
00000000001010010110110011010110,
00000000010010000010100111001011,
11111111111000001000111110100011,
11111111110011000010100001101011,
00000000001011001010010100011000,
00000000010001001100000000111101,
11111111110101010101111001010010,
11111111110101010001011011100011,
11111111111110101001101010100001,
00000000001111100011000110110101,
11111111111101001011000010000011,
11111111101110011111000110011011,
11111111111000011011110101000001,
11111111110101100010010001010000,
00000000001101110010010100111111,
11111111110010101000000001001010,
00000000001101101001100110000000,
00000000000110110101001101011001,
11111111111110010111100000110100,
11111111111011011010001111001111,
00000000001010000110011101101110,
11111111110101101001010101111101,
11111111111000111011111010111100,
00000000010000001000100111100110,
11111111111000111011011111000111,
00000000000001110110110100100000,
00000000001110110110100000111000,
11111111110001101010001010011111,
00000000000011000001100001111100,
00000000000000100000011101010111,
11111111110110100011011110101100,
00000000001110110000110101010100,
00000000001100100101111111001011,
11111111111110110011010100011111,
11111111111110000010001000001110,
00000000001011011000111011101100,
11111111111001111100110011100011,
00000000001010010110100010110000,
11111111110011110011010100100000,
11111111110000111110101011001111,
00000000001100001101010111010111,
00000000001100011110010100010000,
11111111110001110010001111111000,
11111111111011111101001001110000,
00000000000111110001001000100101,
00000000001001110001001001110000,
00000000001010111001010011110100,
00000000001100110100001100001100,
11111111110111101000011001000110,
00000000000011111001010111110111,
00000000001111101101010001010111,
11111111110000111111100101110010,
00000000001011110111000110110010,
00000000000100101000000100011001,
00000000000000110011001010001111,
00000000010010000111010101100100,
11111111111000011001111010001111,
11111111111010111101110001011011,
11111111110010011010010100110111,
00000000001111011001010101010101,
11111111110010101000100100000010,
00000000010000010110100110001110,
11111111110010100010110101101000,
00000000001010011110110101010100,
11111111110110110111100111100101,
00000000010000000100011100100011,
11111111110011110000011100101110,
11111111110100001010001100000110,
11111111111010101110010101111000,
11111111110001010011000111111100,
00000000010001011000011000010100,
00000000000110110000101011111100,
11111111110110000100010111101000,
11111111110010001011001101100011,
11111111111001111101001011110100,
00000000000010101111110001101101,
11111111110111110001000011001011,
00000000001010101000000011010100,
11111111110111000001011100010011,
00000000000101011100101101001110,
00000000001101001010100101111101,
11111111110011000010010001111011,
11111111110001101110010001101101,
11111111101110100000101101100001,
00000000000011011100001110001011,
00000000001110010110110010110100,
11111111110100010101011000010101,
11111111111101100010011000011100,
00000000001011011100100110100101,
00000000001110001100000011100001,
00000000001010000001101111110101,
00000000000101110110110010111011,
00000000000011001011000110101011,
00000000000001010101111011010001,
00000000001111111101101100010000,
00000000000000101001110001011100,
00000000000111000110110011110110,
11111111111110101010100101110110,
00000000001110011110110110100011,
11111111101101111000001100011010,
11111111111010001011110011101101,
11111111101110011110011101010110,
00000000000100010010110101001000,
11111111111011110100001111010000,
11111111110000111110001101111010,
11111111110001111111101000000001,
00000000000101001101110011101010,
00000000001101101110101111110000,
00000000001111100100111011010001,
00000000001100100011001001001110,
11111111110001001111001100100101,
00000000001111001100110110001101,
00000000010001011011100010111000,
00000000000000111000101100001001,
11111111101110011100011101101110,
11111111110010110001110111110111,
11111111101111110011110000010001,
00000000000010111100100000010011,
00000000001111000010011011001001,
00000000001011101110101100111111,
11111111110111000110110110001001,
11111111111000000010100100101011,
00000000000100010100101111111100,
11111111110110001011111100101000,
11111111111110010000000100101000,
00000000000101010010100111001111,
11111111111001010011011101001101,
00000000000110100011010011001110,
11111111111101011001011000010110,
00000000010000110100111011011110,
11111111110000111110011110010000,
00000000001111011011110011101100,
00000000001100010101001110001111,
11111111101111101000000000000101,
00000000000100010011000001101101,
11111111111101101010001011000001,
00000000001000100101110001000100,
00000000001101001101111100001100,
11111111110110001011001010010100,
11111111110101100110011001010010,
11111111110010101101001110101000,
00000000001101010001011110101100,
11111111110000101011110010001100,
11111111110100100111011001111111,
00000000010000011110010010010101,
00000000001001011011000101011010,
00000000001100100011010010011111,
00000000001111110000010010011000,
11111111110000000010111100110101,
11111111111011011100110101110010,
11111111111110011101010101011001,
00000000010000111010011111110111,
11111111111010110101010011000010,
11111111111110110001101001001011,
00000000001010010111110001000010,
00000000001001100001100111011111,
11111111110100000100001101010000,
11111111110000000111011101000010,
11111111111001000110000010011101,
00000000000101110101011101100110,
00000000010001011001101001111111,
00000000001000001111101011101100,
00000000001010100101001010010001,
00000000000101101000001011101011,
11111111111011010110100010011011,
11111111111100111110110111010010,
00000000001111011000010111000100,
00000000000011111001010001101010,
00000000000011101001110101011010,
00000000001010101100110110011101,
00000000001101001011100101110010,
00000000000101001101111100101100,
11111111111110001001111001011111,
11111111110111111010011000010110,
11111111110100111000111001001010,
11111111110110110110111110000110,
00000000001110111000011011111000,
00000000001110100011101110010100,
11111111110110010101010000010110,
00000000001111011011001111011110,
11111111111011010001101001101011,
11111111111011011000010001101101,
00000000000101110011011111010101,
11111111110001001000101110010001,
11111111110101001011100111110110,
11111111111101010100110011010100,
11111111111010010000001100111000,
00000000001001001110110111101001,
11111111111011101011001110101100,
11111111110000011010101111101100,
11111111110000000101000110011110,
00000000010001101010000010010000,
00000000001000001111101111010000,
11111111101101110011000101110110,
11111111110000111111111001000001,
11111111110100011100111010001100,
00000000010000100011110100000010,
00000000001001111100110000111100,
00000000000101111110000000101110,
00000000001010010110100001110110,
00000000000011000110001111000101,
00000000001101000010011010110110,
11111111110001010001101111001100,
00000000001110010111101000000111,
00000000001000010110111011110001,
00000000000110000100011101000110,
00000000001011101100010110100011,
11111111111100011011010111001000,
11111111110111010100000011001011,
11111111111011000001101000110000,
11111111110010010010001000111101,
00000000000000000111111110011101,
00000000001001011001111011101101,
00000000000011011001110110101010,
11111111111111010111100011001100,
00000000000110111010101111110011,
11111111101111010100110101001111,
11111111110011111110100100101001,
11111111110000000010011100000011,
00000000010010001011011110011001,
11111111101111011000010001101101,
00000000001000101011111011001010,
00000000001101001001001100111111,
11111111111010110100001110000000,
11111111111101000111100100110111,
00000000001111000001010111000111,
11111111110001000011011011100010,
11111111101101110000101110100011,
11111111111101010100011011010100,
11111111111101101010001001110100,
11111111111000100000111111110100,
00000000000001011011010010110001,
00000000001001101110101100000101,
00000000001001110010001001000010,
00000000000101010100111001100101,
00000000001100111010011111111101,
11111111110111011110011011100111,
00000000000001001110001011000011,
00000000000110001000010101111011,
00000000000101111000010111001000,
11111111111001011100001000100011,
00000000001110110110010110001011,
11111111110010000001101011100011,
11111111110111010100110010001011,
11111111101110011101011001011011,
00000000000010001100000001101010,
11111111110001110010101111111110,
00000000001101000000110011100100,
11111111110011110000011001010100,
00000000000100110100100011011100,
00000000010000001111001001010001,
00000000010000101000110011101101,
00000000000110000100100101010001,
00000000000110101011011001110011,
00000000000011010000000110111010,
00000000001010100010001111111000,
11111111111110101110101100011011,
11111111110010010010100110010100,
00000000010000001001100101001100,
11111111110010001110110101101000,
00000000010001110010001010111111,
00000000000001000000100001111110,
00000000001000011000110101010101,
00000000000000100000011101000001,
00000000000111110010010000101010,
00000000001100011101011101000110,
11111111101110101111100100000111,
00000000001010011001110101011000,
11111111111001110100011010100001,
11111111101111100010100000001111,
11111111110001010101101011001110,
00000000000001101000111100000010,
00000000001110001110110101000110,
11111111101110101100101100110101,
00000000000101010011011000011011,
00000000000111011000010101011001,
11111111101111001001100111011010,
00000000000100000010110011111110,
11111111110111000001101100101101,
00000000000010110110110101100011,
11111111111001000010111011011000,
00000000001110110111011100001111,
11111111101111001101101000010111,
00000000001001100011101111001001,
11111111111001000111110011110101,
00000000000101001001001010001010,
00000000000001110101001100101100,
11111111101110111110000111011110,
11111111110111010011110000110011,
00000000000000110001010110100100,
00000000000000100011111001010000,
11111111110110101111111100111110,
00000000001010011101000111110011,
11111111110111001111000010110100,
11111111110110010011000011110100,
00000000000111111111110110010010,
11111111111110000010011001100111,
00000000000101101101101000000111,
00000000001011010110101000011110,
11111111111000110011100110001011,
00000000000101001100100101101001,
00000000001110100101010001100101,
00000000000010111001111110101110,
00000000001111110111111111011110,
00000000000111111100010110011111,
00000000001101011011001111110000,
00000000001110001111010111111001,
00000000001010111111110110100011,
00000000000100111101101000110100,
00000000001001001011000001101000,
00000000001011001100011011000011,
00000000000001001111000111100110,
00000000000011000111010000110010,
11111111111000111111001100100001,
11111111111111011000001111010010,
00000000001001010111100000110010,
11111111111110100100011010101100,
11111111111010000111110111011011,
00000000000100100001011101110011,
11111111111111011010000101011011,
00000000000001100011000000110111,
11111111111100000100110110011111,
11111111111111110100011010000101,
11111111111011100101110111010110,
00000000001111011000000111101100,
11111111110011100110100001001101,
11111111110010000011101100110011,
11111111111100011100010110111010,
00000000000001010110111101000100,
00000000001100000001101011001000,
00000000000101000011110111010010,
11111111111111101100110010001000,
11111111101110101100101000001111,
11111111110111010111010101011000,
00000000000100110000111010100101,
11111111111010001001001111101011,
11111111110100110011011010011100,
00000000000100100111000101110111,
00000000001101000011001100001000,
00000000000010001111111101011010,
00000000001101101100011111001010,
00000000001111110001011111011000,
00000000000000011101000000100111,
00000000010010010010001001110010,
00000000000110000010100001010010,
00000000000110000010000010000011,
00000000000110101000010000011101,
11111111101111000100011111110010,
00000000000111011100110011000111,
00000000001111010110110011011110,
00000000000011011010010010010010,
00000000000001000110011000101111,
11111111111100111000000100110010,
11111111110001101000110010010000,
00000000000010010100011100110101,
00000000000111010111100010001011,
00000000000110111110010111110110,
00000000010000100110111110000011,
11111111110101000011110011110010,
00000000010000000110011000111000,
11111111111011111001111100001010,
11111111111010101010101010010010,
11111111110110110000001000001001,
11111111110011110001011100000110,
00000000000011111011010100101111,
11111111111100000110011111110011,
00000000000011010111000010100010,
11111111101110001100111001100110,
11111111111010000100101100100011,
00000000001001011001001100111100,
11111111110111000111000100010110,
00000000010000111001001111100011,
11111111110011110111000111010010,
11111111110101011110001100001010,
00000000001100001010010100100010,
00000000001111101111111010001101,
00000000001000000110001010101010,
00000000001001101110010100011001,
11111111110011000010011010010100,
00000000000011011101000100011011,
11111111111110010010101110110001,
11111111110111011001011010100001,
00000000000011111000100110100000,
00000000000111011010101100011001,
11111111110011010110011011001001,
11111111111101110000011101010111,
00000000000100110010100100100011,
00000000010001101100111001110110,
11111111110001010001011011101000,
00000000010000001001000000100010,
11111111111110001110101101111111,
00000000000100000100010111000011,
11111111110000001110010010100000,
11111111101111111010100101001011,
11111111110110101000110011100001,
11111111111110101001110010101000,
00000000000011011110100010110111,
00000000010000010110100111100100,
11111111111100111110010110101100,
00000000001100100110101101100000,
11111111110000101010010011100100,
00000000001010001111001110010101,
11111111110000001100011100001010,
11111111101110101001001111011000,
00000000001010111110010101100000,
11111111110100000100000101001011,
11111111110101111001001011010011,
11111111110101001100111000110000,
11111111111010111100110111100110,
00000000001000111011011110101011,
00000000001001001001110011110111,
11111111110010001111000101100101,
00000000000001011110010101101110,
11111111110000111000001110111011,
11111111110000011110010110111100,
11111111111011010101000100110111,
11111111111110011011100001000111,
00000000001001000111111001010001,
00000000000111111100000001110110,
00000000000100100011111010011110,
00000000001101111100111000001010,
11111111111101111001111101100100,
11111111111110011000001010100111,
00000000010001101010111110000111,
00000000000001010000001000111011,
00000000001100011100111010000100,
11111111110110111000110011101101,
00000000001011101110101111011100,
00000000001010111011001111101010,
00000000001110011000011101101001,
11111111110101001010000011101001,
11111111101110100011100111001101,
00000000000011001111011011110011,
11111111111101101011001111101101,
00000000010001010011100110001101,
11111111111001111000111100000111,
11111111110111111111001101100101,
00000000000010110110101001101011,
11111111110001011001000111001011,
11111111110000111110010101010000,
00000000001011110001100010001010,
00000000000100001011010111010010,
00000000000011100110011111010011,
11111111111101001101100010001010,
00000000001010001101000011010011,
11111111111001000110100110101101,
00000000000101100011000111111000,
00000000000110000110011110101100,
00000000000100101001011101111110,
11111111110011100000101101011110,
11111111101111000100000111010011,
11111111110111010010000001000101,
11111111110000011000111110111101,
11111111110000001001110010101010,
11111111111001101011111011101011,
11111111111110000100001001000111,
00000000000010101100101111100001,
11111111110110100100000110001111,
11111111110100001111000000111100,
11111111111011001010110001110010,
00000000001010101010101100100011,
00000000001001100101110001000010,
00000000010001000001011000110111,
00000000001000011100011101011000,
00000000001101000110000010010110,
00000000000000010010111010110001,
11111111110100101110101111100111,
00000000000101101000000011100101,
00000000001111111010010010111100,
11111111111001100101110110100011,
11111111111111011011100001110001,
11111111101111101110100000100000,
00000000001110000111001100110100,
11111111110001001001011101101101,
11111111110111110101111100101110,
00000000000000001010110111011001,
11111111110111010001011001110000,
00000000000000000100111000100111,
11111111110110000010111011000101,
00000000010001101110001111010000,
11111111110101011000010101000100,
00000000000010111100101101100100,
11111111101110100001011010100101,
00000000000010100101101010001000,
00000000001100001000100001110100,
11111111110100100011001101000100,
11111111111100011000001101001010,
11111111111111010011100010001001,
11111111111111010101011101110101,
00000000000011100011000011101010,
00000000001110110000110010110111,
11111111111010100111110000101000,
00000000000110000100000000101011,
11111111110000111110011010100100,
11111111110101001001110011110010,
11111111110010110100100011100101,
00000000000100001110001100110100,
00000000000011001000000100011110,
00000000010001110111110000010000,
00000000000110011100100100101011,
11111111111110010100111100010001,
11111111111000101101010111011100,
00000000000001110001100101100000,
11111111110111011100001100100101,
00000000000010111000100101100010,
11111111111011111000000110001011,
11111111110100001100101011011000,
00000000000001000001011111000110,
00000000000111000011101111010111,
11111111111100101000011011011001,
00000000000000010101011100001000,
11111111101101110111100011001111,
11111111111001110000100001100111,
11111111101101110011001011100101,
00000000010010001010010101011000,
00000000001111100110010111100011,
11111111110000001001101001011000,
11111111110001111011110110101010,
11111111110000011111100011101001,
00000000001010100010000010110100,
00000000000011110100111111011111,
11111111101111000110110001010100,
11111111111010010101011111110001,
00000000001101101111000101001001,
11111111111111110100010011010000,
11111111101111011110101000100011,
00000000000110010110000001100000,
00000000010010001011011110010100,
00000000010000101011001010011011,
00000000000001100110010010011110,
11111111111010111110010100110000,
00000000000001111010001111000111,
00000000001101011111011000110111,
00000000000111111001001110111100,
11111111110000110101010010100000,
00000000001001101000100101111100,
00000000001011111001111000011110,
11111111110000011101101001001101,
11111111110011001000110001010101,
00000000001100100000010000111000,
00000000001001101100001011000100,
11111111110000000001100001101101,
00000000000101000010101000100011,
00000000001011000010101101010001,
00000000000011101101000001010010,
00000000001001110000001110111001,
00000000000101111001111010000110,
00000000000101010000001110100111,
00000000001010101010001011001000,
11111111111001110001010011001001,
00000000000000000110011010000100,
11111111111011100100101000111101,
11111111111100101011110011000011,
00000000000111000011001110101111,
11111111111000111010101100100101,
11111111111111000010011000011101,
00000000001111100101000000001101,
00000000000110000000011100000000,
00000000010001111010111001010001,
11111111111111001001110001111101,
11111111111001011000011111111001,
00000000010000000101010100000111,
11111111110100100000011110000011,
00000000001000100010000101000010,
00000000001111011101100111101111,
11111111110101101010011000101100,
11111111111100010100001100100110,
00000000010000100000100101100101,
11111111111110100001011110100101,
11111111101111111101010110110010,
11111111110101110111000001110110,
11111111101110110010001000001010,
11111111111100011100010010000101,
00000000001010000111010100111110,
11111111111101100011101010111011,
11111111111100100101100100110100,
00000000000001011111101000001101,
11111111111110100001100101011101,
11111111111100110000000110101101,
11111111111010001101001110010011,
00000000000010010000011100000100,
11111111111110111000110111011000,
11111111111101011000001101101001,
11111111111011010111110101010000,
00000000000100110000111000100000,
11111111111001000001101111110010,
11111111111110111100100110111101,
11111111111101001100110110111100,
00000000001100111000011001010001,
00000000000111101010100100010000,
00000000000111101010010111101101,
11111111111111111000110100110100,
11111111110100011010100010110000,
00000000000001001110010110000101,
11111111110001101000101101010010,
00000000000000011001100100111100,
00000000010001111100011001000100,
11111111111101010111101111111111,
00000000010001011101110100111110,
11111111110100100111001100010010,
00000000001110010111100001011000,
00000000000110110111011001000011,
11111111111000000010001010000011,
11111111101101111100111101101101,
11111111110111110001100100000011,
00000000001000100110111100000111,
00000000010001101010000110111100,
11111111110001010010110000001100,
11111111110111110001101101101111,
00000000000110100000010100011011,
11111111111011011100101000010011,
11111111110000011010100000100111,
11111111111001110110010011011001,
00000000000101110100110110000100,
11111111101110001101100010010110,
11111111111001001101001010111000,
00000000001010101111011110001100,
00000000001000101101100111111010,
11111111111000001011110000111011,
00000000010001000001000000011101,
00000000000010111100001110010001,
00000000001000101111111000111100,
11111111111110011011000111011011,
11111111111001000011010101101001,
00000000001111110110001010111101,
11111111101110111001010000100001,
00000000000110011010001100111110,
11111111110111111110010000110001,
11111111111010001101110110101001,
00000000001101111101010111100010,
11111111101111010101010100101110,
11111111111101100010110000100111,
11111111111001110010101111101000,
00000000001101011001110100100100,
11111111110010001001011001010111,
11111111111100011010100101110001,
11111111111000101101000110011110,
00000000001101100110111101101100,
00000000001110010111000110111100,
00000000000000011000001010000100,
00000000000111010101111000100010,
00000000010010010001001100001110,
11111111110000010010101101111101,
00000000000000010101111100110011,
00000000010000101011100110100011,
11111111111011001110000010100001,
11111111110010011101100000101000,
00000000010000001100011101111101,
00000000010001010100101111011011,
00000000001010110010010000010011,
00000000001101101111101011011100,
11111111111110011011101000101010,
11111111110011010011101111100100,
11111111101111110101000011111110,
00000000000111100110010000010110,
11111111111010111000001100110010,
00000000010001111000010010000110,
00000000000010000010101000011101,
00000000001011110111000001110000,
00000000000001001011011011101111,
11111111111011110011000100010010,
11111111111000111101111110111000,
11111111110000011000110000111001,
11111111101110001110001111100011,
11111111111100010000011001011001,
11111111110000000111100001011001,
11111111101101101110100110010010,
00000000001001000111010101010101,
11111111110111111101011011001111,
00000000000000000001010100100000,
11111111111011010011110100010101,
11111111110010001110110100101110,
11111111111010011010011001110011,
11111111110100010000011100101001,
00000000000011010010111110000111,
00000000010001001011010000000111,
11111111111011101001111011100111,
00000000000010100110110011010010,
00000000001010011011111010011110,
00000000000111111111010101010110,
00000000000001100100000001001001,
11111111111001101110100011110001,
11111111111100011010111101100100,
11111111111101011110111110001110,
00000000010010010000010111100001,
00000000000010100101001111000100,
00000000001011111101111111111011,
00000000001010011011010000110101,
00000000001111000100001100110110,
00000000000011001001111100110000,
00000000000000010100001111101011,
11111111111010101101100001110101,
00000000001011101011111101011001;