memory_initialization_radix=2;
memory_initialization_vector=
11111111110101101011110001100001,
00000000000111101000001100100100,
11111111101110111101100111010000,
11111111110101100100101010000010,
00000000001101101101011001100000,
11111111110110100111110100100001,
11111111111000011000111110101001,
11111111111010110111011010100010,
00000000000111110100001111111101,
11111111110100000000010101000000,
00000000000001110101010101101101,
00000000000111011101111100101010,
11111111111110101011000010111001,
00000000000011010011100111000000,
11111111110010000011010000000010,
00000000001000010001000101011110,
00000000000110110101010111101100,
11111111111101101101001101010111,
11111111110000111000010100110101,
00000000000111010100000101011111,
00000000001011111011101010001111,
11111111111100110011010011101101,
00000000001000100111100110011000,
00000000000110110001110001101111,
11111111111000101011111011001000,
11111111111110101110110000100011,
00000000010010001100111100101000,
00000000000000000101100001100110,
11111111110001011100010100011110,
11111111111110101010101001110011,
00000000001001000110001101010110,
11111111111010000001111111011100,
11111111110110011011001001000000,
00000000001111000100000011100101,
00000000001001101011000110000100,
11111111111100111001001011010100,
00000000000000111011110010011110,
11111111111110000100001110100100,
00000000000100001111101100110011,
00000000000000101001100101110110,
11111111110100111011110100011100,
00000000000011011000110100101110,
00000000000000011110100110111100,
00000000000001001011101010011100,
11111111111001000010000001001011,
00000000000100101011110110101000,
11111111110001001101101001110011,
00000000000101011101110100110101,
00000000001001111010001010111000,
11111111111101111111001101001101,
11111111110001110010111011000000,
11111111111111111011101111101111,
00000000000000000001101010010100,
11111111110000001100101000100011,
11111111110011000100010000110100,
00000000010000111010011100010100,
00000000001101101011001010010110,
00000000001010001000100100110111,
00000000001100101010101110011100,
00000000000111000010100001000100,
00000000001010010010100111111010,
00000000001100000111000110110000,
11111111111011101110100111001100,
11111111111101101011001110110010,
00000000001101000010011101111101,
11111111111111111111100101000010,
11111111110100000110100000101101,
11111111110001110100100011111101,
00000000001010001110100000110001,
00000000001111001001010111101101,
00000000001110001100110110111011,
00000000000011000010110000100000,
00000000001100100111110100110101,
11111111101111001101100001011001,
11111111110010110100110110100100,
11111111101110011001111010100110,
00000000001110101110111000100001,
11111111111111110101011010010010,
11111111110111100101000111111111,
00000000000110001011111111100101,
11111111111001001001111011000111,
11111111110100010001011100011011,
00000000000111000011011000001001,
00000000000011010110010001110010,
11111111110010111001111011111101,
11111111110011111101001011010110,
00000000001000100100101101100010,
00000000001101111001110110111011,
00000000000001011111010001010000,
11111111110110110100001011101110,
00000000001000110101000110011110,
00000000000011001100000110101011,
11111111101111111111011100000110,
11111111110100001001100110100011,
00000000000100000000001001100000,
00000000001011010100001001001001,
11111111111010001000000001111001,
00000000001000110101110111110101,
11111111110100101011001110100010,
00000000010001011111111000101100,
00000000001101000001111000010101,
00000000000011011011001100111111,
00000000001000001000101001101100,
00000000000110010111011100010110,
11111111110101001101011010101111,
11111111111111110101110010111001,
00000000000100111000000100011010,
11111111111011110111110110011001,
00000000010001100010001111010111,
11111111111000111100101100100000,
11111111101111101010110110100111,
11111111110111010010110110101110,
11111111101111000001111000000010,
00000000001111000100010111110011,
11111111110111110010101001011110,
11111111110011001000100111100101,
11111111111110000001011111100110,
11111111110011101011011100111010,
11111111110110011100101011001000,
00000000001001010100100111111010,
11111111110010010001010110101101,
00000000001000100111111001011101,
00000000001101010101011010101110,
11111111111111111101011000000000,
00000000001000000111101001100101,
11111111110101110000011101000101,
00000000001110010000100110111100,
00000000010001110000110111010011,
00000000000100010110000110100101,
00000000010000101010011101000000,
11111111101101110101101101100101,
11111111111101111111100000000111,
00000000000011101000100001110001,
11111111110000000110110011011001,
00000000001000111001011111111000,
11111111111001000001111111001100,
11111111111001011000101110100111,
11111111110001011111011110101000,
00000000000111011110011011110000,
11111111110010101100011101111111,
11111111111100000111101010001011,
00000000001000000111111000001011,
00000000001101110001101000010101,
00000000000100001000101000011001,
11111111111001001011011011110000,
11111111111000000010111101110110,
00000000001010010000110111000111,
00000000000011011001001000011101,
00000000001111011001001001101011,
00000000000110111000101101101001,
00000000001110101110110000101110,
11111111110001010000111110010100,
00000000001110101100110100110101,
11111111110111100110010011101011,
11111111111011000110101110111001,
00000000000000000111000000010011,
11111111111100100100100010001100,
00000000000011100111011111010100,
00000000010000010010110101101000,
11111111110101000100110001011001,
00000000000101101001100110100111,
11111111110001010011011011111100,
00000000000010110111110000001100,
00000000001111000100000110000100,
00000000001100010101000110101010,
00000000001111101010001100000101,
00000000001001111001100000010000,
11111111111110011111001011010011,
00000000000100110001100011101100,
11111111111000010110111111011010,
00000000001111100001010111011000,
00000000001001001001111101111011,
11111111110010100111011100011101,
00000000001111110011111001010010,
11111111111111101110101000100101,
11111111111111001011111110100111,
11111111111010111111101101011101,
11111111111011001011001110110100,
00000000000000111010100100101100,
11111111110111000100101011011100,
11111111101110111111011001000110,
11111111110110100101001011011101,
11111111111100010111000111011101,
00000000001101110011101111000001,
00000000001101011100111011010100,
11111111110101000010110100100001,
11111111111111010011000100000111,
11111111111010101110001111001000,
11111111110110001101111011110010,
11111111111100110010001101010101,
11111111111001101001111100001000,
00000000001010001110001000011100,
11111111110110111011100111000110,
00000000000010110100000011010100,
11111111110101101011100101110101,
11111111111010010010101111111000,
00000000001110011001010001101101,
11111111110111000001011101101111,
11111111111110111001101000010101,
00000000010001011101101011100001,
00000000000110010000100011001111,
11111111110110101100010100110111,
11111111110101000001010110110110,
11111111111001100101100111000111,
11111111111010010001100001101011,
00000000000111111101100001101111,
11111111111011111011110100010000,
00000000001111011011000000100101,
11111111110101111101111000101100,
11111111111010010010000011000010,
00000000000110101010000100111111,
00000000001110100110101001110111,
00000000010001011111011111001011,
00000000000010111011010100000100,
00000000000000110001010101000011,
11111111110111110011101010111011,
00000000001010010101001110111100,
11111111110101011001101001010010,
11111111111011001100011001010100,
11111111110000101101111000010001,
11111111101110011010111101000011,
00000000001010001110001000100010,
00000000000001001111100000011000,
00000000001110100100111011000001,
00000000001110100011001110111000,
00000000001001100110000111000111,
00000000000111010100010101110111,
11111111111011010000010010100111,
00000000001001101101100011010111,
00000000001000110010110000001011,
00000000000110010101001000001001,
11111111111111011110001101111011,
00000000000010101110110011100010,
00000000000000000101001100010100,
11111111110010101110101100011010,
00000000000100001111101010110010,
11111111110010100011101010111000,
00000000001000110111110100110000,
11111111110101000110101110111001,
11111111111010000001101110011100,
11111111110111010100111111010000,
00000000001110011011101110000011,
11111111110011000111110111001111,
00000000001001010101100100000110,
00000000001001001010111011110000,
00000000001100111011011110101010,
00000000000100100101001110000100,
00000000001001111101111110101101,
00000000001110011101000111000110,
00000000000011100110100001001011,
00000000000110001101111010101111,
11111111110001101100111010011111,
11111111111011000110000110000011,
00000000000001101010000111001011,
00000000000010001101110010100011,
11111111111001100010100010010111,
11111111101101110111110110100000,
11111111111011001111101001111100,
00000000000111000000000010001000,
00000000001111101111101100101101,
11111111101111011111001100101010,
00000000001000101110101111000010,
11111111101110101001100010111110,
11111111101110100000110110101001,
11111111110100100011000111010111,
11111111111101100101011011001100,
00000000000101000110110110101000,
11111111110010000101111111000001,
00000000001110000101101000101000,
00000000010000100010010010110100,
00000000000001001000000000001101,
00000000001110111000100110000000,
11111111110111101110001100011001,
11111111111000110001000010101001,
11111111111101101000111110110000,
00000000000001111111110111110010,
11111111110011001111100111111111,
11111111110001010110111010001001,
00000000000111001110010011010100,
00000000000101010001011011001011,
00000000010001111000110110101010,
11111111111000100010110111000000,
00000000000110011101010001100111,
11111111111000100111101111101011,
00000000001001000001101101100000,
11111111111110111111001011000000,
00000000001101100011100010101100,
00000000001010001010001011001001,
00000000001111001110000101011010,
00000000001001011001011001111001,
00000000000000101011111101111011,
00000000001111110000100001010001,
11111111110101010000100110000111,
00000000010001001111110011000001,
00000000010001110111100101101000,
00000000010001011101111011111011,
11111111110111011101010101011101,
11111111110110010011111010100010,
00000000000001001010000010101100,
00000000000101101100011011001010,
00000000001001001011000011000000,
00000000000111011011111101010110,
00000000001111100100011111000110,
11111111111011011010110010111111,
11111111111010000000000011110111,
00000000000110001000010001111011,
00000000000101000110000111101100,
11111111110101010101010101110001,
00000000000001110001001100100000,
11111111110010000111011101100000,
11111111111010101000101011001010,
11111111111000110100101100011100,
00000000010000000001110110100101,
11111111101111100010100010100010,
11111111110101001101000010001100,
11111111101110000110101110010011,
00000000000100100111001001110000,
11111111110001111011001111101000,
00000000000101111010101000101001,
11111111110011010011000110110101,
11111111110100010010010101100110,
11111111110110101010001000010011,
00000000000010101111100111111010,
00000000010000110011010110100110,
00000000010001001000001110001001,
11111111111110100111100101011101,
11111111101110000101101101010111,
11111111111001111101010111011111,
11111111111001000001111111011100,
11111111111100000111000101011101,
00000000000110111111001001110010,
00000000001001001100111011011100,
00000000001000000110111000000000,
00000000000101001110010100000100,
11111111111000100110001111000101,
11111111111111110011100101011110,
00000000000010010100111100000111,
11111111110110101010001110101100,
11111111111110010111010011111000,
11111111111101101101111010100010,
11111111101110101110010011001001,
00000000001100011001010111001111,
11111111111110001001101011100111,
11111111110000001100010101011101,
00000000001110011101111001100011,
11111111110110001010010011001100,
00000000000110011110010101010010,
00000000010010001000100101100100,
00000000000000110110001011001111,
00000000000101010000101100100000,
00000000000111010000111111001111,
00000000001101110100011111011101,
11111111111010011000111011100000,
11111111110101101101011101010100,
11111111111110100100011010101101,
00000000001110010011001110010010,
00000000000001100100100111111001,
00000000001100101101001000001011,
11111111111111110111010011001001,
00000000000101100111000100010011,
00000000000000101000101100011000,
00000000000000011111110001001100,
11111111101110100110010101010101,
11111111110000000000111001010111,
00000000000001100001010010010011,
00000000001001000011001101101100,
00000000001100010010001001000111,
00000000000000110010110001110001,
00000000000111101101010011010000,
00000000000111101001011101001111,
11111111110000001101101111111001,
11111111101111111011011001011001,
11111111110001110100100111111010,
00000000000000010100000111101101,
11111111110100011100000000100101,
11111111111010001001011111100101,
11111111111101010000111010001011,
00000000000111001000100110011100,
00000000000100001111010101110110,
00000000010000111101101001010101,
00000000010000011111100101100100,
11111111110100010101011010001001,
11111111111111111100010100000011,
00000000000011000001010000010011,
00000000001111111101101010000101,
11111111111010010101010011011101,
11111111111000110100000100110100,
11111111110100011010101011001110,
00000000001101011110010101101000,
11111111111010110100011100110000,
11111111111001001001101100101101,
00000000001100010111100010111011,
00000000010000110100110110101011,
11111111111111001110101011101100,
11111111110011000111000011110000,
00000000001110111001100010000000,
11111111111001101111110000011100,
11111111110111100100101101000001,
11111111110011001001010000101110,
11111111110111001101001010110011,
11111111110001101011011110010010,
11111111110101011100011111101001,
11111111101111010101111010110011,
11111111111100010100001000000011,
00000000000111010110100010101111,
11111111110010000111100110110100,
11111111111111111110010111011010,
11111111111001010000011100011000,
00000000001000110110000100001011,
00000000001111110101100111000000,
11111111111101100100110111010001,
11111111110110110010111111101110,
11111111110001111100110010110110,
11111111110101010000011011101000,
00000000000101010001111000110111,
00000000000100001100100000111010,
00000000001001110110001110111100,
11111111111101010010000110111010,
00000000001001011001010101010000,
11111111101111101101010111011010,
00000000000100111010100110000110,
00000000010001110000000110110001,
11111111101101111001110001010010,
11111111110110100000011110010000,
00000000001011101101001011100101,
11111111111101001001000001110000,
11111111110110010000001011111110,
00000000001011001001111100110011,
00000000000001001110011100101100,
00000000000000101101110101100011,
11111111111010011100100010110101,
00000000001101110001101111010101,
00000000001010001001001001110111,
00000000000011010001101001011010,
00000000000010110010100110010101,
00000000001001011101001001011001,
00000000001011011001000110011000,
11111111111000011111111100101000,
11111111111101111111110010000011,
00000000001000000001110010000010,
11111111110111001000111001111001,
00000000010001000110010001101000,
11111111110011011110010110101111,
00000000001000011100000001100110,
11111111110010110111010111101000,
00000000000101110111101111010101,
00000000001100110001011001001111,
00000000000010001101000100111101,
11111111111110001010101101000111,
00000000001011101000001100110110,
11111111110010110111101011111101,
11111111110011101010011100101101,
11111111110000011010100100011101,
11111111110100101111101000011100,
00000000000000011110010111111011,
11111111110111101101010101101100,
00000000000100000100101110001110,
00000000000000100111011111011100,
00000000001111001101111110101001,
11111111111000000100100011100000,
11111111111010111111110110010101,
00000000001100000110000001010010,
11111111111011011000000101101001,
00000000010001100000011011001110,
11111111111000101111001011111001,
11111111111111110011001011101110,
11111111111011101010101110100000,
00000000001000100001111111100011,
00000000000111000000011010100110,
11111111110110010000110010100011,
00000000001100000011001001100110,
11111111111110110101101000110011,
11111111111011011000000011111010,
11111111111111101000011001001100,
00000000001100101110011101001001,
00000000010001111011111110110100,
00000000001000111001011100110011,
00000000000011001100110001111001,
00000000001011111011110001001100,
11111111111000010110100111111101,
11111111110110011100011001111100,
11111111111010101110000010011100,
11111111110100001010100100000010,
00000000000111110111001011111011,
00000000000001101111001010100100,
11111111111001101111100110101111,
11111111111110001001001100001010,
11111111111111101000110010111100,
00000000001111101011011100000101,
00000000010000010100101011001011,
11111111110001111011000011101101,
00000000000110101100111001111111,
00000000000111000011111001110011,
00000000000110111111011110101011,
11111111111101100000011101000000,
00000000000100100100101011001011,
00000000000100100110011111001001,
00000000010001110011000010011010,
11111111101110011110010111011010,
11111111111001000011111001111011,
11111111110011101100101000010010,
11111111110111001000010101000101,
00000000000011100101110001011001,
00000000001011001001101111001111,
11111111110010001011000000111000,
00000000001011111001001010101111,
00000000001111010001100010101100,
11111111110110111111001010000111,
00000000000011001100010000101001,
11111111110110100111001100111010,
00000000000011111010101010001110,
11111111110111100001011011011101,
11111111111000111000000111000001,
11111111110011110000100101110110,
11111111110000110000000110010100,
00000000001110100101111001111001,
11111111111101101100001101100101,
11111111111111011111100010001011,
11111111110110111001100101011010,
00000000001100101111101100010101,
11111111110101100010001010001110,
11111111111000100110101010011111,
11111111110001101110011101010100,
11111111110000100111111011100000,
00000000010000001110111110001101,
11111111110001111000010011111000,
11111111111101011110011011101011,
11111111111010101101001111111100,
00000000000110101100101010010100,
00000000000100111001000000111110,
11111111110001111110110111101010,
00000000010000011011000000001111,
11111111101101110010001111011001,
00000000000001110011101111111000,
11111111111110011110001110101101,
11111111111011110000110011000010,
00000000001100011101100000101100,
00000000001111011100000101111000,
00000000000010011000011100100000,
11111111111001100010101010000000,
00000000001101100110000011000110,
00000000001011011111010000010100,
00000000000011010010001100010110,
11111111111010111111111010011110,
00000000000000110001010101101101,
00000000010000010011000100011001,
00000000000001111110111010010100,
11111111111100011001011000001011,
11111111110000100001001010111110,
11111111110110001100110111010100,
00000000001101001101001110001010,
11111111111111010110110010100100,
11111111111110110010000100010011,
00000000000111000111101010011100,
11111111110011111110000010011001,
11111111111110110000111100011011,
11111111111010110110110110100010,
00000000001001100100010100010110,
00000000001110111000011010000001,
00000000001011011110110101001101,
00000000001101101000100000110110,
11111111101111101010000111010001,
11111111111001100000100001110111,
00000000000010001010100101001001,
11111111110000011110000000110010,
00000000000100111101011101110111,
11111111110100000000111001100011,
00000000000111110101011110110110,
00000000001110110011001011000110,
11111111110000010110111000010101,
00000000001111010100101000011100,
00000000001000100010000011101001,
11111111110011111011101101000000,
00000000010001100000001010111101,
11111111110000001010011011011110,
11111111110011101100001001000000,
11111111110110111001110110001011,
11111111111111000100101111010001,
00000000000011010010001001100000,
11111111111010101000100011100100,
11111111101110101010101111110111,
11111111111101111000111010011000,
00000000001101110111111010100001,
00000000001110000101000010111111,
00000000001001001001110101011111,
00000000000010101001111010011001,
00000000000100100010110010010100,
11111111110001111001110100001101,
00000000000111011001111001010010,
11111111101101110011010010100011,
11111111111000011100101101010001,
11111111111011001100011100111101,
00000000001101011011011000001110,
11111111111111011101111000101011,
11111111110111101010111011001001,
00000000000011001100011101011000,
11111111110000110100111011101000,
11111111111011001010001010001000,
00000000000101000100000111001111,
11111111111110110010011111100111,
11111111111110000101000110001101,
00000000001011001011001111111110,
11111111110010000111000001001010,
11111111110110110001000101111100,
00000000010001101100110011011001,
00000000000011101000110111111011,
11111111111101000010100001001001,
00000000001001011110001100010010,
00000000001011000000000001101001,
11111111111100111100011100011011,
11111111111000011000100001110001,
11111111111101000000101101010100,
00000000000110101000111100001100,
11111111111101101010100110010001,
00000000001010101001000110110110,
11111111110001000101101001100100,
11111111110111000001110100100010,
00000000001101111100001001111100,
00000000000010011001100001110101,
00000000000011101011101010011001,
00000000000110000000111001101100,
11111111111011101011011110000011,
11111111111000101011111111100111,
00000000000101001111101111001000,
11111111111011001001110101101001,
11111111111000011100100011101100,
00000000000010011010100111011000,
00000000000100011011000100100000,
11111111111110010110010101010100,
11111111110011101000100010101001,
11111111111101001111000011001110,
11111111110101101000110001000101,
00000000001001100111111100001110,
11111111110011111000100100011011,
00000000001110100101000111000111,
00000000000111010010000111000111,
11111111110000010101110111010101,
00000000001101100100011110000110,
11111111101101111010101010011000,
11111111111110111011111101010101,
11111111110100100101010100101110,
11111111110000010001001110110111,
00000000000001110011111100111011,
11111111110111001000100100111011,
00000000001101001101111011001010,
11111111110001101000000001101110,
00000000001111001011010111010010,
00000000001011000010000001111010,
00000000010000000001000000011001,
11111111111010101001010011011000,
11111111110100110010101010101110,
11111111110011110110100000001101,
00000000001111001101001011001101,
11111111110110111001111011011011,
11111111111101101111111001111110,
11111111111101001011100111011100,
00000000000011001001010101010101,
11111111110000111111101100000001,
00000000001110101111101001011011,
11111111110010011110000011111000,
00000000010001111111000010111010,
11111111111000110110000101011111,
11111111110111110101100011110000,
11111111111101011111001001000011,
00000000000101011010010110100111,
11111111111100100111001010100000,
11111111101101101111111111111001,
00000000001100110111001010001111,
00000000010010000111001001111000,
00000000001001001110011100010110,
00000000010001111001001001111100,
00000000000100111110111101100011,
11111111111110100100010011000000,
11111111110001011011110111111000,
11111111110000000001001010100010,
11111111110011011010010000110001,
11111111111011010111000100100101,
00000000001010101001011101110011,
11111111111000011101001010001011,
11111111111111010010100011000001,
11111111111111101111011110111101,
11111111110100000011000000100101,
11111111111111100000010100100000,
00000000010001101001111110010100,
00000000001110100111010110110011,
00000000001101111011010011111110,
11111111111110001100100101000100,
00000000000000010100110000010100,
00000000001001111111110001111001,
11111111111001111010101110110110,
11111111111000100101101101111001,
00000000001111101001010010001000,
00000000000001000010110100000011,
11111111110011101001110100001100,
00000000001111011010000101101100,
00000000000011000010001111011010,
00000000001001110010001010111001,
11111111110000000111100110000101,
00000000000011011001001011000000,
00000000001011001011110011100100,
11111111111101010111001010110011,
11111111110101100110110011011110,
00000000001110101000010011001001,
00000000001000100000010100110001,
00000000000101001101010011011101,
00000000000100010100110001001110,
00000000000000011001110101001000,
00000000001010011111000111101011,
11111111111100000000001010101010,
11111111110101001111000111100001,
00000000000110111110110111110001,
00000000000100111000001110100010,
00000000000110111101100101011011,
11111111111101111110000000111110,
11111111111101100100101100101011,
11111111111110100010111111001011,
00000000000100110100100101011000,
11111111110001111101111110001010,
11111111101110111101001110010110,
00000000000110110101111010101000,
11111111110101111111010000111011,
11111111111110011101100011010111,
00000000000101000100011011111100,
00000000000010100100001001001100,
00000000001011110010011100000101,
00000000000010011001011001111011,
00000000000100100001101110111110,
11111111111110010111001111110011,
00000000000010101100101111101110,
00000000000110101101000111011000,
00000000001100011110011000101100,
11111111101110101011001000111110,
11111111111000011000100000001001,
11111111101111100101110110111001,
11111111111000101101011010011111,
00000000001011001001011000011110,
11111111101110101011001001101111,
11111111101111100111011001110010,
00000000001010100101100111110101,
11111111110101001100111001110010,
00000000001101010111010100100111,
00000000000101101100101001011111,
00000000000100100101110000101101,
00000000001110100001101100001000,
11111111101111000011111110000101,
00000000001101011000111111101010,
00000000000101111011100001010110,
11111111110011101111110001111100,
00000000000100011100101111101010,
11111111111010111001110101111001,
11111111111000101010010000100100,
11111111111110000001010000010001,
11111111110111011000010000000101,
00000000001111111111010101110100,
00000000001111101111010001000111,
11111111111110000011001010000010,
11111111101111110010001101111101,
11111111111110111000011010000100,
00000000000001001101010100100100,
00000000001100001110001111100110,
00000000000000100101101001110010,
00000000000101010100100110110110,
00000000000100110110100001001010,
11111111110101100111111110100110,
11111111110100101010000101100110,
11111111101111101010000010001010,
11111111111111110110110011110110,
00000000000101101010011110001101,
11111111111110101100110010011000,
00000000010001101111111101001111,
11111111111100100000110000001110,
11111111110100000100010110110110,
00000000000011000011000011001000,
11111111111010110110011011110100,
11111111111101011111100100010000,
00000000010001101101111100101100,
11111111111111011110011010111111,
00000000001111111110010010110001,
00000000000010011100010010010101,
11111111111001001100101000001101,
00000000001101011010000000011000,
11111111110101100101010111110010,
00000000000000100110101110001001,
00000000000100000111000011001100;