memory_initialization_radix=2;
memory_initialization_vector=
00000000000101010000110001111100,
11111111111111111001110001101100,
11111111111100001101011001011011,
00000000000100110110111111011111,
11111111110111110110100111101010,
00000000010010000000011101001111,
00000000001111110011101010011100,
00000000001000100010101101111111,
11111111111001001100000110000000,
11111111101110110101001001111001,
11111111110101011110010011000110,
00000000010001110001110111001101,
11111111101111001101110100011110,
11111111101110100010100110001010,
11111111111110101011101001110100,
00000000000101110100010100111010,
11111111101101110011001110010101,
11111111101111000001011110110100,
00000000000000000110010111001101,
11111111111001110111011100100100,
00000000001100101111010100001000,
00000000000101010000000000000111,
11111111110000001000001010100110,
11111111101111100001001101011111,
00000000001100100011101100100010,
11111111111100110000011110111101,
11111111111000000000000011001101,
00000000000101110000100111100010,
11111111111100011001111111110111,
00000000001000101111101011111010,
00000000000100101000110001011110,
11111111111000000101010011000001,
11111111110001010110000001110100,
00000000001001111001100001100110,
11111111110101000000111000010100,
11111111111101111110100011111101,
00000000000010100000000000101101,
11111111110101010110111011101100,
00000000001001111101011110111100,
11111111110011001000110101011110,
00000000000100011111011011100000,
00000000000001111101001010011100,
00000000000110101101011001000000,
11111111101110000011011101100010,
00000000000001000011100110100010,
00000000001000111010100001010111,
11111111110100010010110000110110,
00000000000100100001100101101011,
00000000000000000100100101011110,
00000000001111100000110011111101,
11111111111100001000001100100010,
00000000000000000111111111101100,
11111111111000000010111111111100,
11111111111011011111100101000111,
00000000000101001111000001101010,
11111111101110010111010100101111,
00000000001101110111110010011001,
00000000001101001001100011011100,
00000000000111101111100111000110,
00000000001101101100000100101010,
11111111111010010011101101001011,
00000000000100001010100011111110,
00000000000000111011100010011011,
11111111110011010110110000010000,
11111111111000111110000101101100,
11111111111001100000100010010110,
11111111111011011110101001001001,
11111111101111110000110110111011,
11111111110011001000111100110011,
11111111111110010000110111011101,
11111111111101001101111110010000,
11111111101111011001101011010111,
00000000000011111010000011010100,
00000000001001111101001101101101,
00000000001111001110101000010100,
00000000001111011000111010101011,
11111111110011001110001111101000,
11111111111010001000111100011100,
11111111110111010100110100011111,
00000000000011010110101001001000,
00000000000100111001100110010111,
00000000000100000100010111110110,
00000000001010101011111000010110,
00000000001001101001011010101010,
11111111110110001011110110100101,
00000000001100100011011000010100,
00000000001100010101011100000010,
00000000000010011010110111101011,
11111111110000000101110100101100,
11111111110100110010001110111110,
00000000000101000110001000010111,
00000000000110010100100111100000,
00000000010001000011001110111010,
00000000001001010011100111101100,
00000000000110101000001010011001,
11111111111111011000000101011101,
00000000001100011101111110111000,
11111111111001010110000010000101,
00000000000111011100100000001001,
11111111110111010010100110111010,
11111111111111110101000100111100,
00000000001010110011101000011111,
00000000001000011000111111000111,
11111111111011111001011000011111,
11111111111111110001001011101000,
11111111110101110110010101011111,
00000000001000011110000100110010,
00000000001100010011011101101011,
00000000000110010010110101101010,
11111111101110010011100011110000,
11111111110010111010001111110100,
00000000001100001111011101000110,
11111111111101011000011011101111,
00000000001011001110101101001100,
00000000001101011110101000000011,
11111111111010101001001100001110,
11111111110101010001010111100010,
11111111101110110011000000001010,
00000000000110111111101001111111,
00000000001001011000001110001001,
11111111111100110101000111001100,
11111111101110001111110110110111,
11111111110100001110001101001111,
11111111111111000000111100011100,
00000000001000010110000111110100,
11111111111001110111110110111001,
11111111110100001100100000110110,
11111111110011010001010001101100,
00000000010000010111000101101101,
00000000000110100111110010011000,
11111111110001001001110100110101,
11111111110100101101010000111000,
11111111110000011110100011001110,
00000000000010101001010100011011,
11111111111000100100110010011010,
11111111111111111100000010011101,
11111111111101000110110111001111,
11111111101111111111100110011001,
11111111101111101010001100111110,
11111111110001110100010010110000,
11111111111000010101110111110100,
00000000000010110110000001010010,
11111111110111011001101001000101,
11111111111111010110010010010001,
11111111111101110011110100011101,
00000000010000101110010001011110,
11111111110111101010100000001000,
00000000010001001011100001011101,
11111111110001111101100101100110,
11111111110000101111100101110000,
00000000000101111100100100011100,
11111111110101010110111001100100,
00000000001001011000010001001001,
11111111110101111000100010101111,
00000000001110011001100011110000,
00000000010001101101001011011010,
00000000000001001010111010111101,
00000000000011111010000111010000,
00000000010001000011000101001100,
00000000001010110101110000111011,
11111111110000000010010110101101,
11111111111111011010100010011100,
11111111101111011111100111000000,
00000000001101111101111101110011,
11111111111100101001101001001100,
11111111111111110111110101111011,
11111111110100110000111111010010,
11111111110110000011101001110000,
00000000000010010111111000010101,
00000000001111000101100100011011,
11111111110110110011110000001011,
00000000000001101110100101011010,
00000000010000100011010110011011,
00000000010000011000110100110110,
11111111111100011011001100111101,
00000000010001001000110111010001,
00000000000110101010001011100111,
00000000010000101001110110100101,
00000000000000100010101110001101,
11111111110000100000001100000110,
11111111111011000001011100011001,
00000000000101011111000000010010,
00000000001001110000000101010100,
11111111101101110010001001101111,
00000000001110001110010011100110,
11111111101111100110001010100100,
00000000001010101101101100011100,
00000000010010000010101011100110,
00000000000100100000011001011111,
11111111111100100011001000010111,
00000000001010000100010111011010,
11111111111010100100101010000001,
11111111110010011101001000011001,
11111111110011000001011101100111,
00000000001000100110001111110100,
00000000001101111101110001101000,
00000000000000101111011000110101,
11111111101110010001010011011000,
11111111101110000010000100010110,
11111111111011110111101111011011,
00000000001001110111101111100010,
11111111110011110100001000001001,
00000000000100111011011100001001,
11111111110110000000010110110110,
00000000001110111000001010010101,
11111111111011001101010110010101,
11111111111100001100000111010001,
11111111101111111101100100001011,
11111111101111100111110010001111,
00000000000001001111000101111111,
00000000000010111101001110011001,
00000000001001111000010001000110,
11111111110000000000101010110001,
00000000000011001101000011101110,
11111111111101010110111100001111,
00000000001010101110011111000001,
11111111110111101011111000000100,
00000000000101011100101010001110,
00000000000111010111100101101111,
00000000001001001011111000001111,
11111111111001101110100110101101,
00000000000101111000100111000101,
11111111111100011010101001010001,
00000000000100111011001000100100,
11111111110100110000011000110100,
11111111110001011110000101001000,
11111111110001000010101110001110,
11111111110100100000010100111010,
11111111111000010000101100111111,
00000000000010101110001100110000,
11111111111100000000000000111101,
11111111110101100101110010001110,
00000000000000001001110101001100,
11111111111010001110011011011000,
00000000001011010001011001100101,
11111111110000111100001001011000,
11111111111001010000000010011001,
11111111110100001111111011111001,
00000000000010010000011001110001,
00000000000000111111110110001000,
11111111111110111100101011011010,
00000000010010001001001001110011,
11111111111001000001100011100001,
11111111111101010111110010111100,
00000000000100101110010110100001,
00000000001111010000101111000000,
00000000001101110111000011001000,
00000000000010000101101100010001,
11111111111001000101001111111111,
00000000000110000000011101011110,
00000000001011100000010100111010,
11111111111111100111000001100101,
00000000001010000010100001101011,
00000000001110111101110010010101,
11111111110110001100111111110111,
11111111111011111101010001110001,
11111111101111100010010111111011,
00000000000100001100101001001010,
00000000001101000010000011010010,
11111111111100011100101111011011,
00000000000010111010101111011100,
00000000000101110101111100100011,
11111111111111100111000010011111,
00000000001110001101110100111111,
00000000000010101010100010010010,
11111111101110000001101011000011,
11111111110000111001100110000010,
11111111101101111000100001011000,
00000000000000110000001111000010,
00000000001001111000100111100111,
11111111111101100101100110101001,
00000000010000011100001110000001,
11111111111100101101011101100101,
00000000000011101111010000111111,
00000000010000011111010010110101,
00000000001001010000010001011010,
11111111111111011010101010100010,
00000000010001100111001111110000,
11111111110101000100110010111100,
00000000000110110011111001110010,
00000000001011100011000101000010,
11111111110100101011010111100111,
11111111101110110100101100110010,
00000000000101110110010101001000,
11111111111001000100000000011100,
11111111110110110001011011001101,
00000000000011101000110001101011,
11111111110010101111000010101011,
00000000010000011100100011110011,
11111111111110010110111100101100,
11111111111010001001001101101001,
00000000001111010010010101100100,
00000000000101000101110110110011,
00000000000011011110111101110011,
11111111110111010000011100110100,
00000000010001011011010111101010,
11111111111010011011100100010101,
00000000001111001101010111001010,
11111111111110101001111110010110,
00000000001001001011000011110011,
00000000001100110110110110101100,
11111111110010011000101110000011,
11111111110011110100000000000100,
11111111101101111010110000100001,
00000000001101001100000101010101,
00000000001111101110011011011101,
11111111111001010100010010111101,
11111111110111000010110100011000,
00000000000011000011111001001111,
00000000001001110110000011101100,
00000000000100100000110111100011,
11111111111100001100000110011101,
11111111110100010111100111000110,
00000000001111101000111010000110,
11111111110100001010000110110110,
11111111101110010101001001110111,
11111111111000101100101111001011,
00000000000011101001010111010100,
00000000000110110010111111000000,
00000000000111000100100000101110,
11111111110101011010000011100001,
11111111111000111110110110110011,
11111111110111110111100110010000,
11111111110111001001010001110011,
11111111110000100110010011001011,
00000000000011101111100011101010,
11111111111010101011101010010010,
11111111101110011001100101111101,
11111111110101010100101001100110,
11111111110101000001001100001001,
11111111111000000111001011101011,
11111111110100101100111000000010,
11111111111100110101000011001101,
00000000000110100011011000110000,
11111111110001001100110111110010,
11111111111110011011101111111000,
11111111111010101111001101000011,
11111111110110101001101011101001,
11111111111011111100001000111110,
11111111111000001111111111110001,
00000000000000100101100111110100,
11111111110010110011001110101011,
00000000000011011101111011101000,
00000000010000110010011110100010,
00000000001111001001101101100011,
11111111110111110011010010101011,
00000000000101101000101101110001,
11111111101110101101110101110101,
00000000001111011001010100000111,
11111111101101110001101111000001,
11111111101111101010001100111011,
11111111101111100101100001000111,
11111111101111000001001101011010,
00000000000010011110011111011101,
11111111111011001010100010011101,
00000000000100011000000110101110,
11111111111110110111100101101111,
11111111111111100110110111000111,
11111111111001011001001100101001,
11111111110101001001101011010000,
11111111110000101100001011000000,
00000000001001001110100000011101,
11111111110110100100100110100000,
11111111111100010001111111010010,
00000000001000111000011001101101,
11111111111011011110001010100100,
11111111111011011000111011100011,
11111111110011110011110101011001,
11111111110000010110101100111111,
00000000001000110001101100101100,
11111111111011110111111101100110,
00000000001011011111111000011010,
00000000000001001101000001100011,
11111111111111111110100000111000,
11111111101111011111011101110000,
00000000000000011001110101100111,
11111111111011110111100001001111,
11111111110101100100001100011110,
11111111111011110001001001101101,
00000000000000111101001011100101,
11111111110010001110001101011110,
00000000000011000010100110010111,
00000000001100101110010011010110,
00000000000011100111001011111100,
00000000010001011101000110010111,
00000000001000100010000110101100,
11111111110001100101000011100011,
11111111111000110011010110111110,
11111111111011100110011000010001,
00000000000101011110000101010001,
11111111111111011110100111110011,
00000000001110101101101110011001,
00000000000010000111111100101001,
11111111110100011010110110001000,
11111111111001010010111101000111,
11111111110000110010010111100010,
11111111111010111101010100010101,
00000000001000111111011000010000,
00000000000000001011010011010000,
11111111101110100100000000101011,
11111111110000001011010110101100,
00000000000110101000010010000101,
11111111101111111100110101100101,
11111111110001011010100011101001,
11111111110101000110010000100010,
00000000010001011011011010111011,
11111111111010110011001111000000,
11111111111000011101011111010110,
11111111110011101001110011101110,
00000000001011101100101000111110,
11111111111101000011000010010001,
00000000000011100001101011000000,
00000000000100010111100100011100,
00000000000101001010000011010100,
00000000001011101101000101100010,
00000000000000111100101110101111,
00000000000001111001000011010011,
11111111111110110100000000000111,
11111111110001110010100111000000,
11111111111011110100001011101010,
00000000010001011001110100110000,
11111111110011000010100101111010,
11111111110100011101011011000001,
11111111101101110110101101011001,
00000000000001000110111101101010,
11111111101110111001011001111101,
11111111110110101000100101100011,
00000000010000110110010110010111,
00000000000111100100101100001111,
00000000001001101111011111101011,
00000000000011001000011000111011,
11111111110000011101100000111101,
11111111110111011111011100010111,
11111111110001001100100101011101,
11111111110100101100010101111111,
00000000000110001110100010001011,
11111111111010111011011010101010,
00000000010001110111101011010101,
11111111110010101010111010011000,
11111111110000011001010001000100,
00000000010010000011100010110000,
11111111110000001101000010101011,
00000000001111100011110101010011,
00000000000100111011001000011100,
11111111101111010101010101110111,
00000000001111111011010010110111,
11111111111011000001011001011000,
11111111111000011101011100101001,
11111111110001101111000011111010,
11111111110000100010000111100110,
00000000000100000100100011111100,
11111111101110000010011110011001,
00000000000111100000111001101010,
11111111111011011110110011111101,
00000000000110011010101101010000,
11111111111011100001011101110101,
00000000000110010100101101001110,
11111111111111100000000010000101,
00000000000101010111111101111000,
11111111111000100011111000001010,
11111111110011011011000001100001,
00000000000010010101000010101011,
11111111110100010101000010000001,
11111111110100101010100001110100,
11111111101110011010101100001101,
11111111111010001010111110010110,
11111111110011110010000001110110,
00000000001110001111010111010001,
00000000001101001011010111010110,
00000000000100010101101010101111,
00000000001110110110110111001111,
00000000001000110011100000100101,
11111111101110110001100100001000,
11111111111110001010111010000011,
11111111111101000010000010010110,
11111111110100111001011100100001,
00000000000101001101010011110110,
11111111111010010010101111010000,
11111111110111010000011001001111,
11111111111111110010010110111001,
11111111110011110101111010011000,
00000000001111001000100101101011,
00000000001011100100100010001011,
00000000010001010011110010001111,
11111111111100110000101110000001,
00000000000101111110001101011010,
11111111111111010000111011011100,
11111111110000110111100111001101,
00000000001000010001011101010001,
11111111110011001110100100001001,
11111111111001011001100011001000,
11111111110111110011111010101111,
11111111101110001010010011100011,
00000000000000101001111110011111,
00000000000010111111101110001000,
11111111111110101000111111110000,
00000000001101011100101100001101,
00000000000000111000000111001100,
11111111111100101010110101011010,
11111111110110000001101011010001,
11111111110101001000111101100001,
11111111111101011001100111101011,
11111111110101010001001001111000,
11111111110011111011111111101000,
11111111111101100101001101110001,
11111111111100110001010111100001,
11111111110100110101101000011001,
00000000001010101011110010010011,
00000000001111100000011111100000,
11111111110011100010000100001111,
00000000001000000000100110001001,
11111111110111100000111110011011,
11111111111110000110011111000001,
00000000010001000100011101111000,
00000000000010010101101111111111,
11111111101110100100001010011101,
00000000010000110011110101001001,
11111111111111001110011111000111,
11111111110110110101111111111001,
11111111110110010101111101011110,
00000000001111101011100011101111,
00000000000000010011110000000101,
00000000001010000110011000111100,
00000000001100000001001001010000,
11111111111000111001110001101000,
00000000000001100011010101001100,
11111111110100001010111111101001,
00000000001111010001010000000101,
11111111110110010101001010001111,
00000000001100001001010100111101,
00000000000100101000100000111010,
00000000001011010001111010010101,
11111111110011000111011100111100,
11111111111111011011100110110000,
00000000001001011110011001010010,
11111111111111010001010010011011,
11111111111111101111001101010101,
00000000001000111010010010010010,
11111111110010010101010100111001,
11111111111100010101010111101111,
00000000001000010101000011100011,
00000000001000111101111101110001,
00000000010000111110111100001101,
11111111111100011000011111111011,
00000000000100010101010010010100,
11111111110111000000001100000011,
11111111111100111011100101011111,
11111111110110110100011111110011,
00000000001101100011010000110110,
00000000000000000111001000001111,
00000000000111011100000101100110,
00000000001010000011101101100000,
00000000000011011010000101001011,
00000000000001111100100010100101,
11111111111110101010010110000101,
11111111110000100000101011100011,
00000000000010111100100011011011,
11111111111011111100101110101111,
11111111110000101000010101111000,
00000000010001000010010101100001,
11111111111110000011001111001110,
11111111110110110111111011010001,
11111111101110001100101101001111,
11111111101111001010000111001101,
00000000000110111101101001100001,
11111111110111101001110000100111,
11111111111000000110011101111101,
11111111110101011010110110010000,
00000000001110110000101010011011,
11111111111011100110101011010100,
00000000001011110110100011101111,
00000000001110100001000100010100,
11111111110001110100101011001111,
00000000001101101001000101011111,
11111111111100100000100001100110,
00000000010001100000110111010000,
00000000001001010101110000110000,
11111111101110010010010111010101,
00000000000011011001011010100000,
00000000000110011011011000101011,
11111111111001010111011100111110,
00000000001101110111011100001001,
11111111110000110110110110110110,
11111111111010001100101010010101,
00000000010001011011000101010100,
00000000010001110110111101001101,
00000000001001001000100110110110,
11111111110101000101011001110000,
11111111110000010001000101011011,
11111111110001001000011110100011,
11111111111011011011011100011000,
00000000001010010110111101100110,
00000000000101110010100000110100,
11111111111101110001111000010011,
00000000010000011100011111110100,
00000000001110010110111111001110,
11111111110111011101000001111000,
11111111111000000101001100110101,
11111111111111110010010001010001,
00000000000011110010110110101111,
11111111111111110111100111110101,
00000000000111000011110011100000,
00000000001100100111011011111010,
11111111111100101100111110111100,
00000000001000111110101101111100,
00000000000010011111001010100101,
00000000000111000001001101110111,
00000000000111100001110010001010,
11111111111011000111001101000000,
11111111110111110110001101110111,
00000000000111110100001110001010,
11111111110100010010101110010001,
00000000001001100110011001110010,
11111111110100010001000111101101,
00000000001100100010110110110110,
00000000000111010101100100001001,
11111111111011100001010011000100,
00000000001010011100111011011000,
11111111111001111110100110000011,
00000000000011111001010100101010,
00000000000101011000100011110110,
00000000000001110111100001010000,
00000000000011101011000000110010,
11111111111111101000110001001000,
11111111111010101101111010001100,
00000000001010001100111010011111,
00000000000111001101100110001110,
00000000000110110100100000101100,
00000000001100010110000100111110,
11111111110110011011101011101111,
11111111111011110000000110010001,
11111111111111011110101001001100,
00000000001110110000011001110000,
11111111110001011100000101101100,
11111111110101100000101110011001,
11111111111011101001001111001111,
11111111110000011000010101110101,
11111111110001100011011001001001,
00000000001100100001101010111010,
00000000000000110110100101111010,
11111111110001010010100010000101,
11111111111100111110110000111000,
11111111111111011001100001100101,
11111111111001011111111100011101,
11111111110000101101000111011100,
00000000001001111100111010011000,
11111111111101101111011101001101,
00000000010001110110100101101010,
11111111110001111111101101110111,
11111111110101111101100001110010,
11111111111111000011001100110100,
11111111110011010001000010101000,
00000000001101010100110111110100,
00000000001110001001000000110000,
00000000010000100100001100111100,
11111111110100011101001111100110,
00000000001101000000101010001011,
00000000001100101100100100011000,
11111111111000101110010110010110,
00000000000010000000011010101000,
00000000001000101101101010100110,
00000000001101000101011100011100,
11111111101110111010111101001111,
00000000010010001101000110110110,
11111111111011011001110000111011,
00000000000111011100110100111011,
11111111110100101001001001100000,
11111111110001111011011010100010,
11111111110011100111011100010001,
00000000001010110001101101101011,
11111111110110111110101111001100,
00000000001010101000010011001010,
00000000000101100001110010110100,
00000000000111010001100000110011,
11111111111011111011101100110100,
11111111111010001101110011111100,
11111111110111011100011100100100,
11111111110101110001110110001111,
00000000010000110111000010100100,
11111111111111000000011001100101,
11111111111000001010001000111101,
11111111101110111111001010010001,
00000000000000110010111010010100,
11111111101101110110010101001001,
11111111111111110010001110000011,
00000000001011100010111011010110,
11111111110101011101111100111011,
00000000001010000011000000000111,
11111111111010001010101100001100,
11111111110001111011111010111101,
11111111101101111000111001110101,
00000000001001000101010111111011,
11111111110010000000100111111000,
00000000001000111011011011000110,
00000000000010100111100011110110,
00000000001001111100000010110011,
11111111110010010000010011101000,
00000000001111111111011010000111,
11111111101101110010010110111110,
11111111110010000111101101100100,
00000000001010111101110011100101,
00000000000000100111110001011111,
11111111110101101110110110000000,
11111111111100001010100001000000,
11111111101111101110100001011010,
11111111110000000101011111010110,
11111111111100000100111010111000,
00000000001101111100110000010101,
00000000000101011101100000000000,
00000000000011011100101011101000,
11111111111011001001110101110101,
00000000010000101001001010010111,
00000000000000001011001101010100,
00000000000110001011001001100111,
00000000000000010010100110011100,
00000000000010110110100111100100,
00000000000110000110010000000111,
00000000001110000010000011100000,
00000000001010100001101000000011,
00000000000010010101110001011000,
00000000000111010011111000010101,
11111111111010100000000011110000,
00000000001100011111111011110010,
00000000000101001000100001011000,
00000000001101110011001100010001,
11111111111101001001010001110101,
11111111110001000100011111011000,
00000000000011100111001011110101,
00000000000111011011111110011011,
00000000001110110001100111011000,
00000000000111000101100101111011,
00000000000110110000011001001000,
00000000001110100011010100011100,
11111111111001101101110100011000,
00000000010000001001010001110010,
00000000001001010111111111111011,
00000000001100001101100100011111,
00000000001101000010101000101110,
11111111110001000011111001000011,
00000000001001100001100011011010,
00000000010001000001111011100101,
11111111110011001001110110011000,
11111111111110011011101100101101,
11111111110100110101110010000100,
11111111111011100101011010010001,
00000000000010101110011001111011,
00000000001001110001111111110000,
11111111111010101100001111110111,
11111111101110101011110101001001,
00000000001001110111111010010100,
00000000001010010000100100001111,
11111111111100101011110101111001,
00000000001111101001110110101101,
00000000001110000110001010101101,
11111111111011111110000011111111,
00000000000000101101001100010011,
00000000000011001110001001010111,
11111111111100011010101011000001,
11111111111011011111101011110011,
11111111110111101111101110111100,
11111111110101100110011110010111,
00000000001001001000011101001101,
11111111111010100100011111101100,
11111111110111001110100100011011,
00000000010000000110111001100000,
00000000000010111011000111000001,
00000000001101001100011000110001,
00000000010000101010011110010100,
11111111111101011011001001000100,
00000000000010101110100100001000,
00000000010000111101000001001000,
11111111110011011010110011010110,
11111111111010100001000111011101,
00000000000010100110100001111011,
11111111111110110000100110101011,
00000000000100110111100100110010,
00000000001001100111010111100111,
11111111111000011110100001011101,
00000000000001011011000111111100,
00000000010000100010110001100011,
11111111110101101001110010100101,
11111111110011100110011001011101,
11111111110001111110100000011000,
00000000001010111011100011000111;