memory_initialization_radix=2;
memory_initialization_vector=
11111111111011010100000001011100,
00000000001110001100111101111110,
11111111111010010110110000110001,
11111111101110110101100101001010,
11111111110001100011010010101000,
11111111111001110110011111000101,
00000000010001010010111000101110,
00000000000111101011110010111110,
00000000001111110001000100000101,
00000000001001010001000110101010,
11111111111111101111010111000101,
11111111110011111010101110000011,
11111111101111011000011001010001,
11111111111001111000001000010001,
11111111110111111011001100011011,
00000000010000011101010001001101,
11111111111011100101010101000110,
11111111111101110010100011101011,
00000000000011010100010001011001,
00000000001111000000101100001100,
11111111111110000111100101001100,
00000000001001100101101101001011,
11111111110011011000100111000101,
11111111101110100101000010000100,
11111111111101001100011100110100,
00000000001000011000001011011000,
00000000001011011101000101110011,
00000000000110101010101101000110,
00000000001101110110111110101001,
11111111110101001111111001000010,
00000000000100000111001010110010,
00000000001111001101101100000100,
11111111110100101011101001111001,
00000000001100101001111010011000,
11111111110001001100000001110001,
00000000001011111001001100010000,
00000000001001100010000111110101,
00000000001111111110010100100101,
11111111111110000001011100111011,
11111111111110111111101001101010,
11111111110101000000111001000110,
00000000010000110000111111000110,
11111111111111010111011111001001,
11111111111011001111110110000010,
00000000000001001100011100101011,
00000000001001100000100010110111,
11111111110110101110011001001001,
11111111110001011100000101111011,
11111111111011100011000101110001,
00000000000101100001011000011111,
00000000000001110101101111011011,
11111111111011001000101011110000,
00000000000010011000001100100100,
11111111111110100000110110111101,
00000000001110001010110011101100,
11111111110101010000010101001001,
00000000010001101000100100001001,
00000000000000001011000111010010,
00000000001100110101111111110010,
00000000000111010111001011000001,
11111111110010001111110010110100,
00000000001101000111011100011110,
11111111111001100110010011110111,
11111111110011101100110110010001,
00000000001000000000001010011000,
00000000000011011101010011100110,
11111111110110110011011000111010,
11111111110111011010001001110101,
00000000001111111111001010110011,
11111111101101101101111111011101,
00000000000010100111010111001011,
00000000000000010111101001001011,
11111111110001011001101000010100,
00000000000111111100101101001101,
11111111101111100100111101101000,
11111111111111011101000111100001,
11111111111100001001000000110000,
00000000001010010010000111101011,
11111111111100000011010111100000,
11111111101111000101010010010111,
11111111111110100110111011000001,
00000000001110011001011011000000,
11111111110101011101111010010000,
00000000001111011010001111011110,
00000000001010001011011011001000,
11111111111101111010011101011010,
11111111111111011011101101000111,
00000000001111001001001111100100,
00000000000000010010111010110011,
00000000000010011110110001000010,
00000000000001100000000111101000,
00000000000001011000000110100110,
11111111110000001000001110001010,
11111111110101011100000111110000,
00000000010000111000000101010010,
00000000001010111001001010001100,
00000000000000111100111010100001,
00000000010001010010000101011011,
11111111111000110111000010101101,
00000000000111110100101000100110,
11111111110110011011011011100010,
00000000001110001000101110011100,
00000000001010000101001011000100,
00000000000110010011010111000100,
11111111111110111010000001001001,
00000000001100011101001110101100,
00000000001001111100011111011001,
00000000001001011101010100000100,
11111111111001001100010011000100,
00000000000000100000101001001001,
11111111111011101000101111111101,
11111111110101010100100111101100,
00000000000100011100000000011011,
00000000001111101110110011001100,
00000000001010110000111000111010,
11111111111010111001010100011001,
00000000001010011100111111111000,
11111111111110101001001101000001,
00000000010001010011100100001001,
11111111101101111010000001111001,
00000000000100111011001010010000,
11111111101111110110100001111100,
00000000001000101101101010010001,
00000000001101001000101101001100,
00000000001110000001001101101011,
11111111111010000000000110101101,
00000000000001100111000111100111,
00000000000100110010010111001010,
11111111111001101110110010000001,
00000000010001001000011001011111,
00000000001100100001011001000001,
00000000001001000011010001001000,
11111111111000100011010110100010,
00000000001100110010010101100000,
11111111110110101011110110101000,
11111111110001000110111110001010,
11111111111010010001011111111110,
11111111111110010100010001001100,
00000000001011100010010100001011,
00000000000111100010101011111000,
00000000000110100101110100110111,
11111111111010011101010000110001,
00000000001110001100011100100111,
00000000010001011101000011111000,
11111111110000001111101011000101,
00000000010000011100111110110101,
00000000000011100101011101100110,
00000000000110011000000000101000,
00000000000111001001010110001110,
00000000001010101001111100100011,
00000000000000010001111110000010,
11111111111011010010101001100111,
11111111111001101100100110100100,
11111111110100010000110111011010,
11111111111111010010111101001000,
11111111110101101111000011010010,
00000000001010111010011000100110,
11111111110010111010001000100001,
00000000001111111001010011101001,
11111111101111110110100011100010,
00000000001111001110100010001011,
00000000000010000100100011111110,
11111111101110110000110101101010,
00000000000101011110111010010000,
11111111110100001110100011011110,
11111111110001100000111100111001,
00000000000000111101100110100011,
11111111111010110011000010001100,
00000000000100100000110011111001,
00000000001110011101100001001110,
11111111101111001110101110001010,
00000000010010001011111111111000,
11111111110101110111000100001010,
11111111111100011000101111010111,
00000000001011110110100101111110,
11111111111000010111001010111101,
11111111110110110010001010110101,
11111111111011101110001100111000,
00000000000111001001011011001111,
11111111111111001101010100100000,
00000000010000101010000111111100,
00000000000111111001010001100010,
11111111101111010100000111001010,
11111111110010110101100011011000,
00000000000001011100001101101100,
11111111111111010011001010100011,
11111111111010011100010111000100,
00000000000110000000110111101010,
00000000000111101011001000110100,
11111111110101011000101101111000,
11111111111100010110100010010010,
00000000000110100011000000010011,
00000000000110101000000101011100,
11111111111110010110111111111001,
00000000001001001100010111101010,
00000000000110100010001101010100,
11111111101110110101100111111101,
11111111101110100001110110111011,
00000000000000100111001010110111,
00000000000110010000100110111110,
11111111110010111101101111111000,
11111111110110100101010101001101,
11111111101110100001101100111110,
00000000000011011101101001111011,
00000000001101010000001110000011,
00000000010000001100110110111000,
11111111110001000111001000100010,
00000000001110000111101001110011,
11111111111000101011010001011011,
11111111101111111001010011111111,
00000000001011101111000010101111,
00000000001111010111011000001111,
11111111111111000011111011100011,
11111111111010101111110101111000,
00000000000010010010001101011111,
00000000001000100101000110101110,
00000000001000011101001100110101,
11111111110110110010100110001111,
00000000000000100110111111110101,
00000000000101000010001000010110,
00000000000010101001100010001101,
00000000000011110011010101001100,
00000000000100001010010010111000,
00000000000100110110001110110100,
00000000001001111001011110001010,
11111111110110101110001101010001,
00000000001111001000010100100000,
11111111111011010011011000011101,
11111111110001000110010010010010,
00000000001100001000110101010010,
11111111110100010111101011101101,
11111111101101111011011000000101,
11111111111110011100101100011000,
00000000010001100110111110101000,
11111111110010001001011000010010,
00000000000011111101101100110011,
11111111110001110011100100101111,
00000000000111011110100100001011,
00000000001100011000101100010000,
11111111111101000001100010111000,
11111111101111101110010110001110,
11111111110010010101011110100001,
11111111110100110001000001000010,
11111111111001001010111010100100,
11111111110111010000000011101000,
00000000001000000010111110110000,
00000000000100000111110101001111,
11111111110001010111010100111001,
00000000000010010100110110100101,
11111111101111000011000101101100,
00000000001101000110001010110001,
11111111111110101110111110010011,
00000000010001000110011001000101,
00000000001110010010000101001000,
11111111110101100000111101010111,
00000000001110001001101111010001,
11111111110000011000000101011100,
11111111101111000011101111001110,
00000000001100001111111011111100,
11111111110110100111011110010101,
11111111110010100110110001011010,
11111111110100000111010010110000,
11111111110101011101010010110001,
11111111101111110101101110001110,
00000000000010010110010010001011,
11111111110000010100100011000001,
11111111111010111001000101000011,
00000000001011100001010011001100,
11111111110001111001101000111011,
00000000001100011011101110010011,
00000000010010000110011010001011,
11111111111101001101110010100101,
11111111111101110010111111101010,
11111111101110100111010001011001,
00000000010000111110000111110101,
00000000001110101001101000110001,
11111111111110000010100010101011,
00000000001010111000110101100101,
11111111101111111001010010010110,
11111111110011100111110110001100,
00000000010001001011101001111110,
11111111101101110110000000010010,
11111111111110000100100011001101,
11111111110110001111111010100000,
11111111101110101111001010100111,
00000000000011000000001110111100,
11111111111000000001111110111100,
00000000000011100110100111011100,
11111111111001001010111110010011,
00000000000110000100101001001011,
00000000000010011010101010100000,
11111111101101110101011101000111,
00000000001011101001111100010111,
00000000001011010011100001110100,
11111111110010000000000001110000,
00000000000101011100110100010011,
11111111110111010101101111101011,
00000000001100100011110111010011,
11111111110111001101001101101111,
00000000001011011110000110111011,
11111111110100011001101110101000,
11111111110110001001101110100101,
00000000000111011100010101100010,
00000000000100111110110111101101,
11111111110111101001001111001000,
00000000001101011100100000011011,
00000000000011011110011101000111,
00000000001000101111011001000111,
11111111110101001010000011010001,
00000000000100011011001010111110,
00000000000100011010110110011010,
00000000001010101001000101111110,
00000000010000110111110111100100,
00000000001011100101111101011101,
00000000010001111110010011000100,
11111111110111111111001011110101,
11111111110000111011111010010110,
00000000000011001111001011100110,
11111111111111101011000010110011,
11111111111101010001110011101111,
11111111110001010001101101101100,
11111111111111010111001101110011,
00000000000000100010011001110101,
00000000001011001101010011100110,
00000000001000110001011111110011,
00000000000011000101110011111101,
00000000001100110111010111001101,
11111111111110000010100001010111,
00000000001110101101011010011001,
11111111101111010111000100101010,
11111111111111011101101001000000,
11111111110111110011111010000001,
00000000001011101110111001001000,
11111111111010111000111010101111,
11111111110011101000110000111000,
11111111111100111010101001100110,
00000000000000000000101011000100,
00000000001100010011101000001000,
00000000001010000100101111110110,
11111111101111011101100110000100,
11111111111000010001011110010110,
11111111110111001000011001101100,
11111111111111000010010101111000,
00000000001000000111111110111011,
11111111111101010101101110101101,
00000000010000101001010110010011,
00000000000010000000111100101000,
00000000001010000111110000001011,
11111111111011100110101010101001,
00000000001010100110011100000100,
00000000000111001011000011010100,
00000000000000101011010011011011,
11111111111111011000111110110010,
00000000001000000110100000010111,
00000000000010100101010001001010,
11111111110100011110001001011100,
11111111111010010100111011000100,
11111111110100000000010101101100,
00000000000100010111100000000110,
00000000001101101101111111101100,
11111111110101100000001000000101,
00000000000110001000011011100111,
11111111110001111000100001000100,
00000000000111100010000101000101,
11111111101110110110101001100011,
11111111111000110100010101001011,
11111111111111110010100110010101,
11111111111100111001011101111101,
00000000001010010010100110100001,
11111111111000101101010101110101,
00000000000110000011111001101110,
00000000001000000010000000000010,
00000000000100111111110110010000,
11111111101110010001111010101011,
11111111110101110111000101011100,
11111111111011100000111011110011,
11111111111111101100011011100111,
00000000000111000001011001010001,
00000000001100110111010111000100,
00000000000011110001100010111000,
11111111110011011110011110000000,
11111111101101110101000010111100,
00000000010000011000001100000011,
00000000000000000100000000100110,
11111111101111101111111110001111,
11111111111010111110001100110101,
00000000000111000000110010010100,
11111111111111011011001101010010,
00000000001100000011010100010010,
11111111111100110111101000010110,
00000000000010010010111100011001,
00000000010001001000110101011001,
11111111101111110000101101100111,
00000000000001110100011001000001,
11111111110001000111011000101000,
11111111110011101011011011011100,
11111111101110111000001010011100,
00000000001000111110100110010001,
11111111111100011010010110001001,
00000000000110101000111001001110,
00000000000010000100011110010111,
00000000000101111101110001100111,
11111111110000101000110101110101,
11111111111001100000111110101110,
11111111111010111111100000011000,
11111111110010101110000000001110,
00000000000111110010000101001000,
00000000001010011000010001110000,
11111111111001011000101110010111,
11111111110011100000001001110001,
11111111110110011110110011001101,
11111111101110111100111100110000,
11111111110100000110010000100110,
11111111111010111101101000100101,
00000000000011000001000001110011,
11111111110111001110010101011000,
11111111110001000001011001101110,
00000000001001001111001010101001,
00000000001110100111011110101101,
00000000000000110111011110101000,
11111111111101011001100011110110,
11111111110111111010010101111010,
00000000000101111101100111100010,
00000000000001011101011100000011,
11111111110111101000111010100101,
00000000001100100010111010101010,
00000000001010110001011001111001,
00000000001101100000100001110100,
00000000001100100111010101010110,
11111111110101001001100100110000,
00000000010000101111011100011001,
11111111111111101000110110000001,
11111111101111001011011010100101,
00000000001011100101110100101010,
11111111110100001111010011111101,
11111111110111011010010111110000,
00000000000011100011111111111111,
00000000001100111110101110111000,
00000000000010111011100010000101,
11111111110000010111010111011011,
11111111110011100011001001101101,
00000000000110110010000011100000,
11111111111010111111001011101100,
00000000000100111111100110101111,
00000000001111111100011011100011,
11111111110100000101010110100000,
11111111110000001101011001110010,
11111111111001110111011110110110,
11111111111110100101010110110111,
11111111111001110110000101100111,
00000000010001110110000011100010,
11111111110101000100010001001010,
00000000001010100101111101011110,
00000000000111000101101110101100,
00000000010000110100010111100011,
11111111101110011001100111000100,
00000000001101010110101100100011,
11111111111010001011001011001101,
11111111111001100011100110010000,
00000000000000100111000010001110,
00000000001100011001011100011111,
00000000001001011000010100000101,
11111111110101011001001011001101,
00000000000100010111101100100011,
11111111111111010000010000101101,
00000000000110000001001001001111,
11111111111111111111001001001111,
11111111111011011101101011111111,
00000000001000011101100000100101,
00000000001111100110111000110011,
00000000001001101111000011100010,
11111111111001111110101100010010,
00000000000000001111111110001001,
00000000000011011110110000100001,
11111111110101010111101110011001,
00000000001111100000100101101110,
00000000001001101001110111111100,
00000000000111111011001000101001,
00000000010000111011110101111100,
11111111111101100101111111111100,
00000000001101110011001011101100,
11111111111101110110110001011100,
00000000001110101111010100011001,
11111111110101000000001001111011,
11111111101110000111100010011110,
00000000001001011100000111010011,
00000000000110010010111110111011,
11111111101110101001110000100101,
00000000000111111100010001011100,
11111111111100000101111100110110,
00000000000111011100010000111010,
00000000010000100110110001111001,
00000000001110110000100110000011,
00000000000000101001111101111010,
00000000001001000000010111011010,
11111111101111000011001011110011,
00000000000001010110011110001001,
00000000000101111010110110011111,
00000000001001010110010011001110,
00000000000110100110100100110000,
00000000001100010000110110000110,
00000000000001010001101000000100,
00000000000101111100111101001010,
11111111101110000011100101101001,
11111111110111001110111010101100,
00000000001000010110010111001000,
00000000000110010100100001010000,
00000000000111110011101000100111,
00000000000111011000110101000100,
11111111110000100011001010011110,
00000000000110000011001010111010,
11111111111010100001100100101110,
11111111111101000010100000011001,
11111111111110100011100111111111,
00000000001111011011100000001101,
00000000010000011000001010101001,
00000000001001000100100100100011,
11111111111000110111111010101000,
00000000000101011011000011010010,
00000000000110010010100011110111,
00000000001110000000011001011111,
00000000000001011100001110101001,
11111111101110110000111110000011,
00000000000111010110001100111101,
11111111110001011100011011011000,
00000000000010010111111101000000,
00000000001011111100011010010010,
00000000000111100011001010010111,
00000000010001010011100010010000,
00000000010001101000010001010001,
11111111101111010001101000011110,
00000000000000011100110100011001,
00000000000101010001110111010101,
11111111111100011000101011011011,
11111111110110100100010101110000,
00000000010001100111000101111101,
11111111110101000001101001000001,
11111111101111000101100100111001,
11111111101111010010110010011110,
11111111110110000010110000000100,
00000000000001111011000100111100,
00000000001100010101110101111111,
11111111111110110111000001111100,
11111111110001101000111110011100,
00000000001101100100001000100111,
11111111111110101001011101100100,
11111111111001011001101000001000,
11111111111111011101011010100101,
00000000000111111101010011100101,
11111111111101101101101110101101,
00000000000111001100110010110111,
00000000000111101001001110100000,
11111111110011111100110010101101,
00000000010000011100010101010101,
00000000001100000111100000011000,
11111111111111001000010011101000,
00000000001011110001111111100101,
11111111111010111100110101001011,
11111111111100000101111000001011,
00000000000111101000111110001000,
11111111110010011011111001011010,
11111111111011100100101011010110,
11111111110011110101010101001100,
11111111111110011011101000110000,
11111111111000110001110000111111,
11111111111001111100111111001000,
11111111111100000000001111010000,
00000000001110000100110001110110,
00000000000100011111110110000000,
11111111101110010101101101101011,
11111111110011010101101011011110,
11111111111110100100110110011101,
00000000000110000010101100111010,
00000000001011011000010010110000,
00000000010000101101111001101101,
11111111110011101010100000001010,
00000000010001010001110011100101,
00000000001100010001111111110111,
11111111110001011100110001100000,
11111111110000111101001110101001,
11111111110001101110011101111000,
00000000000000010110110001001100,
11111111111100000010010000111000,
11111111101110001000100011011101,
11111111111010110011100111011000,
00000000001011011101000100100100,
11111111111110101100010111111011,
11111111110001011010000100111001,
11111111110011111111001011101010,
00000000000110110100111001111001,
00000000000101101110001110100011,
11111111111000000100000100000001,
11111111110001000001101100101101,
00000000000111110001000100111110,
11111111110110001110111101011111,
11111111101111111110111001001011,
00000000010000110001000110010101,
00000000000111010110100001010011,
11111111111100111001011101011010,
00000000000010101011110001101100,
00000000001110110110100010110010,
11111111101111101111111110110111,
11111111111100010111001011100101,
11111111111001100001100110010100,
11111111101110001111001110011010,
00000000001111100000011110101010,
11111111101110101101110011110111,
11111111111000101001001001010111,
00000000001001010010000111011110,
00000000010000100011000111111100,
11111111111011001010111010011111,
00000000001111001001010110111011,
11111111111111101000000110010111,
11111111101111000110011110000001,
11111111101110111101001001110001,
11111111110111100000001110100101,
11111111111111111000110110110001,
00000000001110110101001011011011,
11111111111000001100000111010000,
11111111111101001010100111111001,
00000000001100100000000010010110,
11111111111011011111011110111111,
00000000000111111011000001011110,
11111111111110011100110000110101,
11111111111000110111111011000000,
11111111110100001001110000011110,
00000000010001111100101101111110,
11111111110110001011011011010101,
00000000000001111000100100001010,
00000000000110010110011001111110,
00000000000011011001000101101001,
11111111111110100001011100100001,
11111111111100011101110100010101,
11111111111000010011011100100111,
00000000000110010100011011001111,
11111111111010101010101110011000,
00000000000110110100001011110011,
00000000001001011010110001011111,
00000000000110011110110111101110,
11111111110111011001001100110111,
11111111110011011011010011101100,
11111111111011000000010100101101,
00000000000101110110001101011011,
00000000000001111110000111101111,
00000000010001110111111110010001,
00000000001100010110100010110101,
11111111110111011100011110101000,
00000000001101001000101111101111,
11111111110101100100110101001011,
11111111111001110100111110111111,
00000000001101100011011010011100,
11111111110010100011110000101110,
11111111111010111010110000100011,
11111111110000111110001011101111,
00000000001000011111000101011100,
00000000001101000110100111100110,
00000000010000000100110010001010,
11111111111001101000000100000011,
11111111110010011110101001110100,
00000000001001101001100011100111,
11111111110100001011001010010100,
11111111111001111010000001000001,
11111111110000111101001001011101,
00000000001110010000111000101111,
11111111111110001010011001111101,
00000000000010011011101010111011,
00000000000001000100010110101001,
00000000000010100111010110011010,
11111111110111111111010001011101,
00000000010001111010101010111101,
11111111101111011010110001110111,
11111111111101100110110111110100,
11111111110101010110100100001101,
11111111110011100011011111100101,
00000000001001110100101111101110,
00000000001101011010111000011100,
00000000001000101001110010011000,
00000000000101011110100000111011,
00000000001100001100100111011100,
00000000001001110011011001000000,
11111111111010101011100010011111,
11111111111000010000111000100111,
00000000000101011010110000010111,
00000000001011011110100010101010,
00000000001100001101010001010010,
00000000000000000100111000100001,
00000000010010010001111001101011,
11111111110010110111111001111000,
00000000000111100101100011001101,
00000000001111101010010100000111,
00000000000001001001000101011011,
00000000001011000010110101011101,
00000000010000000100011010010000,
11111111110001110101101100011100,
00000000001011111000110010010100,
00000000001000011110011111111100,
00000000001001100110111111010000,
00000000001001001011011000001110,
00000000001010111100000010101111,
00000000000101110101111111000111,
00000000001010001001011110011100,
11111111101111011010100101100010,
11111111101101110010000110100100,
00000000001001101101110101111011,
00000000010010001101010111110101,
11111111111010100010110000000110,
00000000001110000011101100101100,
11111111111110000000100010111111,
00000000001001001011000100101100,
11111111111110100000110110011101,
00000000001000111001000111011100,
11111111111000000011110110111001,
11111111110000111101111000000111,
00000000001001110001000000000100,
11111111111000010100110110110000,
00000000001101101001000110111100,
00000000000010011110000111111110,
11111111111000100010111101110001,
00000000010001100110000111010100,
00000000010001011101111010100100,
11111111110110100001010001000100,
00000000001000001000011110000110,
00000000000101001111101101011011,
11111111110100110001001111000011,
00000000000010010100100110111110,
11111111101111111110110000101001,
00000000000001011001010100111110,
11111111110000001001001101111110,
00000000001111101000110000101111,
00000000001001001011011010100011,
00000000001110011111000010110101,
00000000000011100010111010100001,
11111111111000001101110000011101,
00000000001001010101111011100100,
00000000001000000011011010101100,
00000000001010000010000111011100,
11111111111101001100101110101100,
00000000010010001101011000011101,
11111111110100010101100010100001,
11111111101111101100001101111000,
00000000000100111000111111111010,
00000000010000100001100000010110,
00000000000010110100100001100100,
11111111111010101111111110001000,
11111111110000011001110101111010,
00000000001100010001110010100010,
11111111101110000001000100000110,
11111111111000011101100100111110,
00000000001010001001100001011111,
11111111110101101010001011010011,
11111111110100000010000000000000,
11111111110110110001111100101010,
00000000001000101110111011101000,
11111111111000001101000111011111,
11111111111011110101010111111111,
11111111111011100110100011101001,
00000000001001111011010000101000,
00000000010000000011111110011111,
00000000000001001000111111101000,
00000000000000000101000111011100,
11111111111110001000010001101001,
00000000001000101101011101000100,
00000000001101001100011010100001,
00000000000100010101001111001000,
00000000001011010011001000001011,
11111111111010010000001000100011,
11111111111111000110010100110011,
11111111110000110001011011001110,
00000000000111111100111110010110,
11111111110110100101101001010000,
11111111111101001100010101101011,
11111111101110000111000001101010,
00000000000001100100000101000100,
00000000000101110000011001010011,
00000000001011000011101101000011,
11111111111011111110011100010111,
00000000000000111000011101101101,
00000000010001001100010000000110,
00000000000000001110110010100111,
00000000001101001010101011001011,
00000000010001111010011101010000,
00000000001111100011110100100010,
00000000001000010010111001001110,
00000000001011101011011110010010;