memory_initialization_radix=2;
memory_initialization_vector=
00000000001100000111111000000100,
00000000000101010001010100111100,
11111111110100110001001110101101,
11111111111000101001001100101110,
00000000000001110000101111010011,
11111111101111000011010000010110,
11111111111111001010100100111001,
00000000000011101101111110101010,
00000000010000100010000010100010,
11111111111011001100110011010101,
00000000010001111100101110011100,
00000000000001011000010010100111,
11111111110011010100000100100101,
00000000010001010010000100001001,
00000000001111110110100111001000,
11111111110001100011010010100110,
11111111110101011001000111111001,
00000000001000101111100100100110,
11111111110100101111111010100101,
00000000001100011011101111001111,
11111111110111010001100111101010,
11111111111010010100110010010011,
11111111111010110000000011001011,
00000000010001011100011111010111,
11111111111001110100010000011100,
11111111111100011100011100010111,
00000000001011000100000111001110,
11111111110011011111010011000001,
11111111111111111010010111001111,
11111111110001111000000010110001,
11111111101111000111110110011110,
11111111111011110100110011110111,
00000000000010000001010111101011,
00000000001111100101111110110110,
11111111101110011101101101001010,
11111111111010101111010000011000,
00000000000100110011111110000011,
00000000000110111001111010011001,
00000000001010101011101111100100,
11111111110001010010111111000111,
11111111111011100001111001011000,
00000000000100001110100110110100,
11111111110001010101111001000001,
00000000001001001101101110001100,
11111111101110100011010110011111,
00000000001011011010001111011011,
00000000000101111100011110100010,
11111111111010110011100101010001,
00000000000101111011101010100101,
00000000001111011111001101010001,
00000000001101011100111010001100,
00000000001011000101110101110010,
11111111110101010110101111011110,
00000000000101010000010010101100,
00000000001101101110001110110001,
00000000000011001110011001111010,
00000000001100000110110011110101,
11111111110100101010001101011001,
00000000001100110110100010011111,
11111111111111011001001011100100,
11111111101111100110000010010010,
11111111111011010000101000011101,
00000000010000001010010110100111,
11111111111001100111001010110001,
11111111111100110101010011111000,
11111111111000101011110101110011,
11111111110110000011101011101111,
00000000000011001010101111111001,
00000000001011000101111011110010,
00000000000010001010011000010111,
11111111111110110111110100011101,
00000000000001000011101100101000,
11111111110010010010011010100001,
11111111110110010111011000010001,
00000000000000111010100011111000,
11111111110001011000100110001110,
00000000001001000011101001010011,
00000000000010110010010111111111,
00000000000000001100010100101010,
11111111111110110100111001100010,
00000000001111011100011010110101,
00000000010000101100000010000000,
00000000001000111011011010110111,
00000000001001000101001111110001,
11111111110111001000100011011010,
00000000000111011110011001010100,
11111111110011101000011101011010,
00000000000111111001110001001100,
11111111110011000001000000000011,
11111111111111111001100110010101,
00000000001101010000001101001010,
00000000001100001001000110110010,
00000000010000001010110001100000,
00000000000110001111001101100000,
00000000000111000110010001110111,
00000000000100111001110101001101,
00000000001101010110100011110010,
00000000001001100110000111000100,
00000000000101011001010100001101,
11111111111001100111101010110000,
11111111110111001001100111111101,
11111111111011011110101010011111,
00000000001000101110100000010111,
11111111110110000010111101110001,
00000000000100111111101110110010,
00000000001111111111111000101100,
00000000001111011110111011111000,
11111111110010100010011000010110,
00000000000101001101100100100100,
00000000001011111101001101111011,
11111111101111011001000000010010,
00000000001011101011111100110000,
11111111110100100110110011100110,
11111111110010110001110100111001,
11111111111000001111111011001001,
11111111111001000111110100001100,
11111111111000011100001001111100,
00000000000101010000111011001001,
00000000000111000101010111101011,
00000000000111000110110100111110,
00000000001100100111111111111100,
11111111110100011011100011001100,
11111111101110101000110001111000,
11111111110001010101001010011111,
11111111110101111100110010000001,
11111111110111101000101100110111,
00000000001000000010001111010011,
11111111110010110001000111000001,
11111111110010101000010110110101,
00000000001001110010101110011010,
11111111110100010111010110111011,
00000000000011011011100000000110,
11111111110010000011101010110110,
00000000000110111110100001110011,
00000000001011011011010001101010,
11111111110000100111100111011000,
00000000000110001110000100111010,
11111111110110011010011100111100,
00000000001011100110101101010110,
00000000010000011100100100000000,
11111111110000100100101110000001,
00000000000110110101101111100101,
00000000001100010110010110000110,
00000000010000100111111111010100,
00000000001101110011110111011111,
00000000000011100110001010010100,
00000000000001000100011010101001,
00000000000011110001000111111101,
11111111110101000110010011000110,
11111111111100011010101101010000,
11111111111111101101111100111011,
11111111110100011011011101010101,
11111111111111001100000111000101,
11111111111101100100100010010011,
11111111111001100110010011010000,
11111111111010011000100011101111,
11111111101101110010011110110101,
00000000010001011011010001101110,
00000000001001000000110101100100,
00000000001101001110000100111101,
11111111110000011011110011110001,
11111111101110000110010010001000,
00000000001101100110010011001111,
11111111111100110010011111101010,
00000000000010110110011011000100,
00000000001001001010110100111100,
00000000000001001010110010001011,
11111111111111011001001111011110,
00000000001010110111011000011110,
00000000001110100110111010111011,
11111111111010111001110111101100,
11111111110000011000110110111000,
11111111110101111110010010100000,
00000000001101000100010100001101,
00000000000001100101110000110010,
00000000001111101010000011000101,
11111111111001100110100111011111,
11111111101110101011001000001101,
00000000000101101011011011010011,
11111111111000001101010011000000,
11111111110101000100010101011011,
00000000001011011001100110101110,
00000000000001010001011000100100,
11111111111110011100000100011101,
00000000010001110011101101001011,
00000000001111111011011110100101,
11111111110001000011111110000000,
11111111101111001100001101001101,
11111111110110111101010010110000,
11111111110001110011010111011100,
11111111110110011000110100101001,
00000000001100010101100010100000,
11111111110011110101010010111010,
00000000010000110001010101001111,
00000000000101101101001000100111,
00000000000000110010110101001000,
00000000000011001000001011010101,
00000000000011110111000000111010,
00000000000101111000100010111011,
11111111110001001000001101101001,
11111111111111101011101001011000,
00000000001100001000010110001011,
00000000010010001010101011110011,
11111111111111000010000101110001,
11111111110010111011111111001100,
00000000001000011001110101110000,
11111111101111010001001111111110,
00000000010000010011000110110110,
00000000001011001111010001101100,
00000000001000001111000111001111,
00000000000010011111110110110011,
00000000001101010010101101110100,
11111111111000100111010000001001,
11111111110000101111111000100001,
11111111110101111001000101001100,
00000000001101100110110110111110,
11111111110110110111000110111101,
11111111110001011010110110011111,
00000000000100000000010101100001,
11111111110100101001000010101001,
11111111111111001110011101101110,
11111111110100011001001100110010,
00000000000011110111010001000000,
11111111111101000000111100110100,
00000000000010011010011010001101,
00000000001000011100111100110110,
11111111110100001110011101010111,
11111111111001110000111111101100,
11111111110011110011101000001110,
00000000001111001110100010010001,
11111111111001011100111110110110,
00000000000110111000101110100011,
00000000000100001110000101101010,
11111111101101111101011010110000,
11111111110011000001001100011010,
11111111111011010011001111001001,
11111111110001111110110110010001,
00000000001001101100100010110101,
00000000001011011111101000111111,
11111111111111111101110110100111,
00000000000010001111010011000011,
00000000000100110100011001100100,
00000000000110000101001110111011,
11111111111100011101101001001011,
11111111111000110011100000111001,
11111111110100101100011000011110,
00000000000000101110100110011010,
00000000001110011101011001101011,
11111111111101101110100010000011,
00000000001111101110111110001111,
00000000000110011001010110011100,
11111111110110100101110110010000,
00000000000111000110100100001011,
00000000000111010100110000110010,
11111111110111110111001001111100,
11111111111100110010110111110000,
11111111111110000110011101100110,
00000000000110011101000111011100,
00000000001110010001001010111101,
11111111111011111110100111100111,
00000000001011111001000000000100,
00000000001001110111000000110001,
11111111110000001001111110000111,
00000000001101010111100010001110,
11111111111111010000100110011011,
00000000001110000111010010100100,
00000000001110001111100100110111,
11111111101110010010110000101100,
11111111110000110001011000000001,
11111111111101111010110010010100,
00000000000101111000000011110010,
11111111111101000101101111111100,
11111111101110011001010110010001,
00000000001001111100100101001000,
11111111110101100010110011001100,
00000000001000010011010010000011,
00000000001100111010100111000110,
11111111111001110101010001101011,
00000000001011000000110011001010,
00000000000010011011100111110101,
11111111111010010000100110101000,
00000000000001001011111010101101,
00000000000110100100110101111100,
00000000001001010111000011000000,
11111111110101100000011101100101,
00000000001101101010101110101111,
11111111110111010110100000000000,
11111111110000001111111000101010,
11111111111000000110000101111100,
11111111101111110011111010110111,
00000000000101000111101011100100,
00000000000001001110110010001100,
11111111111111000111000000101110,
11111111110011100111111101100001,
00000000001001101000111011011010,
00000000000010111111101010000010,
11111111111011011010010010010111,
00000000000011001111010101111011,
00000000000110011100101111110111,
11111111110101000000111001100000,
11111111111010101110111011110001,
11111111110111101100100011010001,
00000000010000001011110010100111,
00000000000100100001010111110111,
11111111110010001100110011001100,
00000000001100111010011111011110,
11111111111101000110001011001011,
00000000000001010000100011000011,
00000000000010010111011010110100,
11111111111101110111010100100001,
00000000010001010011111001100101,
00000000000111111010111011101100,
00000000000011111011111101101011,
11111111111001010110100010000001,
00000000000100001101010110100010,
11111111110010101011111001110010,
11111111111001101011011000101100,
00000000001001010001011000110011,
11111111101110000000001100111010,
11111111111111100010100011101101,
11111111111001010000101011001100,
00000000001001010101111001000110,
11111111110100100100111111010011,
00000000000011001010100011110110,
11111111111010101110100111010101,
00000000001111010101110011001101,
11111111111101010001011000000101,
11111111110010101001011001010100,
11111111111010010100011011000011,
00000000001100111001000000001110,
00000000000111000000000011110010,
00000000000011111010100100010000,
00000000001011011001110000000001,
00000000000111000011111011001110,
11111111111101101001111101000001,
11111111110110010100001011000001,
11111111101110100000000101100000,
00000000001000110010110011001101,
00000000001110010000101010000000,
11111111111001000000101101110000,
11111111110111110010000000001111,
00000000000011001001110001100111,
11111111111110010011110111110111,
00000000001110000010100100001101,
11111111111111101011101111011011,
11111111111111011100110000000000,
11111111101110111111111111111111,
00000000000101100101001100011100,
00000000000000000100000100010001,
00000000000100010100000101100110,
00000000001011001011011111010111,
00000000000111110001110111011100,
00000000000000000010001110101010,
11111111111110100101110101010100,
11111111110110110000111001110010,
00000000010000100000110011110100,
00000000001111001110000101001100,
11111111111111111011010000100001,
00000000010010010000111010101001,
00000000010000000011101010000011,
00000000001010100000110011100110,
00000000001001011001100100111000,
00000000000111001111010100001100,
11111111111100110010101101011110,
00000000000001110100010011000100,
00000000001110111000000101011010,
11111111111100111010110100000001,
00000000000101101101001110110111,
11111111111010000110010100001110,
00000000000011000000000011010000,
00000000001010100111101011110110,
00000000001011010111110101101001,
00000000001000111100101001001011,
00000000001000101100110111011011,
11111111111011100111000011110000,
00000000010000101001101001101011,
00000000001100110110001111010011,
00000000010001010011111000011111,
11111111110001001101110001111001,
11111111110111101101101100000011,
11111111110000110100010000000011,
00000000000001100111101010110101,
00000000001101111110001101010001,
11111111110011100000001001010110,
00000000000100110010010001110110,
11111111111111101000100101010100,
11111111101110111110011001110101,
11111111111111010010000010110101,
11111111111101110110100110000100,
11111111110111001000011001011100,
11111111110100100101101010110011,
00000000001010110011110111001000,
11111111111110000111111001111001,
11111111111100011000000011100111,
11111111111010111010101000100001,
11111111111101101010010111011111,
11111111111010111101001101001111,
11111111110101000010111001111100,
00000000000111110011010100000110,
11111111111111101110101100110001,
11111111101111101001011101101011,
11111111110110110100010101001101,
11111111111100010001001111011100,
11111111111001000001101000011110,
00000000000100010100000100101100,
00000000010001000110110101010001,
11111111110010110011010111110110,
11111111111111101110110100111101,
00000000001111111000110110011110,
11111111110101010101110101001011,
11111111110001101110100110100011,
00000000000100111000001001001110,
11111111111111110010010111010110,
11111111111111110000101100001110,
00000000001011011111001111010110,
11111111110000010110101000111001,
11111111110101000011110110110101,
00000000001100101100001110110011,
11111111110011001010011001101001,
11111111111101100010111000100000,
00000000001000011111010101000000,
11111111110110000000111001010101,
11111111110001110100011111001100,
11111111110101000101001000011110,
11111111110010011001000111011010,
11111111110000010101001000111111,
11111111111101000000001101010100,
11111111101111000001101011110010,
11111111110100111000001100100100,
00000000000001010110010111011101,
00000000010001000001110000010101,
00000000010010000001111100100110,
00000000001111010010001101010100,
00000000000010000001100011110001,
00000000001011011000101011001000,
11111111111010010010000111001010,
11111111110100001111100101011000,
00000000001001001011010011110011,
00000000000111001101101011010000,
00000000000110011011111011010110,
00000000001000100000100100110001,
11111111111011011001111011001100,
00000000001101011100111001101111,
00000000001001111101110010110011,
11111111111000000010110011101011,
00000000001101011100000100011010,
00000000000110100101101111111000,
00000000000000100111111000111001,
00000000000000010001100101000101,
00000000001111101101110111111011,
00000000000000100110000001011001,
00000000000110011011100011111110,
00000000001101010110000010000010,
00000000000000111111010000011011,
00000000010000100100001011101110,
11111111110101001011010001011000,
11111111111110001101101010001101,
00000000000001011110101000101010,
00000000000000111111011101011111,
11111111110010101101010110010111,
00000000010001011100110001110111,
11111111110101101111010100001111,
00000000001101001100101011011111,
11111111111000101101001000011101,
00000000000111010001010100110101,
11111111110101111011001010101001,
11111111111000000010010110000101,
00000000000100110100100010011110,
00000000001100100100110000010011,
11111111111110100001111100011100,
00000000000110110110110111111011,
11111111110101111010011101101100,
00000000000101110001111011100001,
11111111111101111100100000101100,
11111111111011110101010111010010,
00000000001001000000001100100110,
11111111111001111011100010000000,
11111111110100110101010001111100,
11111111111010110100000010110001,
00000000001001000111100111011110,
00000000010001100000010101111000,
00000000010000100001111010010010,
00000000001100110001011111000000,
11111111110100101101110001111011,
00000000010000010101000101100011,
00000000000111011100011011000010,
00000000000011010000000000100001,
11111111110101011001100100010101,
11111111110110010010001111001100,
00000000000100101101111010011001,
11111111111110011000001111010000,
11111111111010110101011000111001,
11111111110010000010101100001001,
00000000001111100101011111001100,
00000000000101101010010011010110,
00000000000010011001110001010111,
00000000000001101101111100111110,
00000000001001110101101111010100,
11111111110100111110010000110000,
11111111111111010001010001000110,
00000000010000001000111101000111,
11111111111101001010010101110010,
11111111110000010101111110101101,
11111111110101000101110111000100,
00000000001011010101100010011110,
00000000001001101000010010111010,
00000000001100100111110000000100,
11111111111001100010011001011110,
11111111110111011111110111110111,
11111111101111110101011000000101,
00000000000001010000101111011110,
11111111111100000011000010100001,
00000000010001010110010111001001,
11111111110111110000110001111001,
11111111110100011000010111011100,
00000000000111011010100110000000,
11111111111001010101000000110000,
11111111111110010011010110011000,
00000000010010001111011101101111,
00000000001011011001111011100100,
11111111101101110001100101101101,
00000000000000111000011100001101,
00000000000000100100110101000111,
00000000010001111000100010110011,
11111111110000001100001110101111,
00000000001011010000011011101010,
11111111101110000010110111111101,
11111111101110000001100011110011,
11111111110110101000000110011100,
11111111101110100000101100101110,
11111111111110111000000000010111,
00000000001110110001000010110100,
11111111111010111011010101010011,
11111111110010001000011111111101,
11111111111110011011010100100011,
11111111110001000111011111111000,
00000000001100011001111101011110,
00000000000010101001001100111100,
00000000010000001101111010101000,
00000000000111110000011101010000,
00000000000110100010011101001100,
00000000000110001010010101100100,
00000000010000111111000010100000,
11111111110100100011111001011100,
11111111110100110100010110011010,
00000000001110000100000001110000,
00000000000110101000101101110011,
00000000010000110001001001011110,
00000000000100010000110000111010,
00000000000110100111101100101011,
00000000001011010001010001010111,
00000000001011111010100010011011,
00000000001010000010001001111000,
11111111110001101010010000100011,
00000000000101010010110001000110,
11111111110011011111001000001101,
00000000000010010111000011111000,
00000000001010000000101010001110,
11111111111001111000110101100101,
00000000001111110111010110111100,
00000000010000010001111110000101,
00000000000101010000111010101010,
11111111110010110001011000111100,
00000000000000011000011011001101,
00000000001110001110100100110011,
00000000000011010010001100011111,
00000000001111111011100001000011,
00000000000001010100101011110011,
11111111110111100010000000100100,
00000000001011111011101011100010,
00000000000110000011010001110010,
00000000001010000110001000110100,
11111111110101000100101111001001,
11111111110010001000101010010001,
00000000001100001111110100110110,
00000000000110011001011001111010,
00000000001101011000001011101100,
11111111110000110000010010100101,
11111111110111100101011111011101,
11111111111111011010111010011111,
11111111110110100000001010101101,
00000000001011011011001001100000,
00000000001110100001011101100100,
00000000001111110110010101111011,
00000000000010100100010101101000,
11111111101111011001010010001011,
11111111111001011100001110111111,
00000000000100001111100000000001,
11111111111011000100001010111001,
00000000000111110011110010100101,
11111111111011000111010000011000,
00000000001111000111000010100111,
00000000001111110101101110110111,
00000000010010000111100011101001,
00000000000110000011100101000001,
11111111110011100111110000010110,
11111111111011010001000111010111,
11111111110110001111011101110101,
00000000001000001110010111111110,
11111111111110011001010100101101,
00000000000111010100100100110011,
00000000000101010011101100110010,
11111111111010011000110011111100,
00000000000010100010001000110101,
11111111111101001100010000001001,
00000000000011001010100111100110,
11111111110011111001010001100011,
00000000000000010101101010100101,
00000000001101111100000010001100,
00000000001001011101011110111000,
11111111110100101001000101000110,
00000000001111010000011010000011,
11111111111001000000100101001101,
00000000010000010110000000100000,
11111111111100010001011000001100,
00000000010001101000111010001001,
00000000001010110000001101010111,
11111111111110011111010000100110,
00000000001100010100011111111111,
00000000001111100010000000100010,
11111111110001101100101001001111,
00000000000011010010010111010100,
00000000001100100001000111101111,
11111111111110000110110100001110,
00000000001011100100110000000000,
00000000001110010000110111011111,
11111111110001011111110100101100,
00000000001001111110000110101000,
11111111101111001100101101111100,
00000000001011011100101110100010,
11111111110101111000111001100100,
11111111111010010011110000101000,
00000000000100011110001101100011,
11111111110000010000010010010001,
11111111111111010111101010000101,
11111111111001100110100100110010,
00000000000101110010010001100110,
11111111111110111010101000011111,
11111111101111011000011101111011,
11111111111011011111000100001000,
00000000000010110110100010011110,
00000000001010000000110010011010,
11111111110101100011110111011101,
11111111110100111000011111111100,
00000000001000001111001111001110,
11111111110101000001100001001010,
11111111111000110001011011111101,
11111111101101101110010010000111,
11111111111011100110000101000011,
11111111110001011010110101101110,
00000000000010110111010110001110,
00000000001110110011101100100011,
00000000001000000111101101101011,
11111111110000110000010110111111,
00000000010000011001000011001011,
11111111101111101010001010010110,
11111111111000111110111110001001,
00000000001010010000100101001110,
00000000001000101011010011010000,
00000000001010000100111011110111,
11111111111011101001100000000011,
11111111101111111111001001010010,
11111111101110000110001010011011,
00000000000001011111111001000101,
11111111101110010011110101001001,
11111111110011111100100011100101,
00000000001011111100110001101111,
11111111111101001011110101100000,
00000000000110011000011101000011,
11111111110001100111010100100110,
00000000000010111001100000010010,
00000000010000011110100001101001,
00000000000011010100110000101000,
00000000000011001110011011000011,
11111111110100101101110011101100,
11111111110010110001110100110001,
00000000001010101010001111000110,
11111111101111101000010001000101,
11111111111110111000010011111000,
11111111110001010110010001001000,
00000000000001010010010000000010,
11111111101110000101010000000010,
00000000000110000011011011001000,
00000000000000000001111111011100,
11111111110011111110011101011000,
11111111111001001100001111101101,
11111111111000101100010101010000,
11111111110111110010101010111101,
11111111111011011100001010111000,
00000000000011010111100111100010,
11111111110101011110101001110101,
00000000000100100111010110011110,
11111111110000111011101010011000,
00000000010001001110000110110011,
11111111110101000010100100111001,
00000000000111110001101000011101,
11111111110011011110111100101000,
11111111110011100001001101101101,
11111111111101010100001110000000,
11111111110101100101010100110100,
11111111111010111000100100101011,
11111111111000000010111101000000,
11111111111010111000101101001110,
11111111110001110111010100001110,
00000000010001110101010111110000,
00000000001010010100000010111111,
11111111111001011101111011101011,
00000000001101010001110101001100,
11111111110111110110100110011101,
11111111110001000011111111011100,
00000000000101110110110110000010,
11111111111001101101010010100101,
00000000001101110000001001011110,
11111111111011000101000101010100,
11111111110001000111001001110101,
00000000001111011010110100001011,
00000000000100000110101100000001,
00000000000101100011001011010010,
11111111111110001110110100100001,
11111111110001011101011100111100,
00000000000101111000101111110011,
00000000000000000011001010010010,
11111111110011111001001010101000,
00000000001010011010111001101110,
11111111101110111000001000000101,
11111111110100101001101011111111,
11111111111011101111001000011100,
11111111101110110111000100100110,
11111111101111100010011100100111,
11111111111010100000011001111000,
11111111111100100011011001000111,
00000000001101011010011101111000,
00000000001000100010000111010000,
00000000010001000000000110011000,
00000000000101101011100000100100,
00000000000010011100100001000011,
11111111111100011110011110000100,
11111111111000010010010011010000,
11111111101111100111100110000101,
11111111101111010011000100101110,
00000000000111110001111100111110,
11111111110100011011001111000001,
11111111111000011111111010110111,
00000000001000100010111010010110,
11111111110100101100100100001001,
00000000000110110000101011111010,
11111111111110111111001111011001,
00000000000011110001011111001101,
11111111110111101010111010010011,
00000000001101010101010100111010,
11111111110001000010110010100111,
11111111101110111011011100101001,
00000000001110010001000100111110,
11111111110011101001010110110110,
00000000010001100011011010011000,
00000000001000000111110011011110,
00000000000111000011101010111010,
11111111111101101111000100111011,
00000000000011011100000111111110,
00000000000100101100000111001110,
11111111110111011001101011111111,
00000000001101011101011001110001,
00000000001011001111010001110111,
00000000000001000100110011101111,
00000000000101001111100011000000,
11111111111101110001111101011100,
11111111111001011001010010001110,
11111111110001111001111010100010,
11111111111000111110011011001100,
11111111101110011111010001011011,
11111111111010001111111110001010,
00000000001001100100010010001001,
00000000010001101111011101110010,
11111111101111010001000111000011,
11111111110000110011001001100110,
00000000001111000101111010100000,
11111111111001100010111010011100,
00000000000000000001100101010101,
00000000001011011110010100101010,
00000000010000001100100110000000,
00000000000110111011001100101001,
00000000000100100001111000100010,
11111111111111100011110010000011,
00000000000000011101011111011111;