memory_initialization_radix=2;
memory_initialization_vector=
00000000000111011000001101011000,
11111111101110110011001010000110,
11111111101110010011000110100010,
00000000001100010101000110110011,
11111111101110000110011011110101,
00000000001001100110111111101010,
00000000001101001111000101111001,
00000000001100001000000100001011,
00000000000101100100111101010000,
00000000000010000010000001011100,
00000000001000011100011101110000,
00000000001010111001010111010010,
00000000000000100100110110011010,
11111111110010110101111011101001,
00000000001011011000000110010011,
00000000000010000010010111110001,
00000000001011000000111110000110,
11111111110011101111101111100011,
11111111111011011011011101011110,
11111111110100010000001101011100,
00000000000001000011000001110100,
00000000001111100010100000001001,
00000000000011011110011011111100,
00000000001111100010110010010101,
00000000001101011011110110100101,
11111111110011011011000011011001,
00000000010001100011011000110110,
00000000000001000001000000000100,
00000000001111010011110111001001,
00000000000011100010100111010110,
11111111111100111000001100000000,
00000000001111100001011111001001,
11111111110010011110000100010010,
00000000000000011010010000000001,
11111111111101011100000100011000,
00000000000000110100111000001111,
11111111111010110000001111100101,
00000000001110100001001001111011,
11111111111111000010110101001011,
00000000000111100011100100000100,
00000000000111110111111101011110,
00000000010000101010010010101100,
00000000000110100100110011100111,
11111111101101110001011000100101,
11111111110000110101110011100000,
11111111101110101110010110100001,
11111111101110000100101011101001,
11111111110000110010010100000001,
11111111111111101110111100010100,
00000000010001010011100111011010,
11111111110100001010100101011010,
00000000000111101100010110000001,
11111111110111101010000001111110,
00000000001110001010100110100101,
00000000001011111001001000001100,
00000000001000011111110000110010,
00000000010000000110111111000000,
11111111110010001101010101001100,
11111111110000011110010001001001,
11111111110110101010000110111001,
00000000000011101101001100001110,
00000000010000001010100101111001,
00000000001100000100101010110100,
00000000000101101101110011011111,
11111111111100110000001111011010,
11111111110101100111100001111001,
00000000010010001011110111000011,
11111111101111111111101001010110,
11111111110011011000101110011110,
00000000001010110000101110011001,
00000000001110010000111100110001,
00000000000100110011100101000111,
11111111111111101011100011100001,
11111111111101110100111101010001,
00000000000010011000011011010000,
11111111110110110011001010110011,
00000000010010000101000000010111,
00000000010010010000110010111001,
11111111111000111011000110000100,
00000000001100101100100010001100,
11111111111011101001110101100111,
11111111110010101111000100000110,
00000000000011001000111010110101,
11111111111100100000010101011000,
00000000001111001101001100110011,
00000000000001010001000110011101,
11111111111011111111010011110110,
11111111110001011110010111111001,
00000000001011111101100101110111,
00000000001100001101000101101110,
00000000000010100100100110011101,
11111111111110011001011110011011,
11111111111001110111111011100001,
00000000000100001111010000100100,
00000000010001100011000100011001,
11111111111100111111001100000000,
00000000000001101010110001101011,
11111111101110100101000001011101,
00000000000100101010110000111000,
11111111111000001010100101110011,
11111111111011101010100001111101,
11111111110110010011010111010111,
00000000010000111011110001000001,
00000000001100011100111010000100,
11111111111000001000000001100011,
11111111111011100000111110011010,
00000000000101100100011101000111,
00000000000110111000011000110011,
11111111110111011001000010101100,
00000000000111011011010001100111,
00000000000010111010000100101100,
00000000001010100000011111110111,
11111111110110000111100101110101,
11111111110100001100010111011000,
00000000001000100000001000000011,
11111111111111010010010101100010,
11111111111000000010000010010000,
00000000001110010110100000101001,
11111111111101111101110100010110,
11111111110011110010011011111001,
11111111111101011000111101110110,
11111111110111100001110011010001,
11111111111001101011110100110101,
11111111110000111100100101111110,
00000000001110100110001011001000,
00000000010000000101101110100011,
11111111110000100100110000000101,
00000000001011011100000101100010,
00000000000101010110000100000001,
11111111111000100101011011111100,
11111111111010101000110000101101,
00000000000011000111011111010111,
00000000000011111000010001101001,
00000000001111100001100100010000,
00000000010001011110010000111000,
00000000000001000011100010100111,
00000000010001001100110011110011,
11111111110101001011110111110001,
00000000000000001001111010000011,
11111111110000111001011101010111,
00000000001000110000100110111010,
00000000000011101001011010011010,
11111111110100111011000110001110,
11111111110010000011000010000001,
11111111111100010111101000000111,
11111111111001000101111111000000,
11111111111000100011000110000000,
11111111110000000100101111111000,
11111111110100010110010111100010,
00000000001111001011010011111100,
11111111110111000000011010110100,
00000000000111011100010110010010,
00000000000001001111101101000111,
11111111111101100000010000111000,
00000000000101111110110110110011,
00000000001101110001001110010010,
00000000000101101100101010001110,
00000000000001111110110111010111,
00000000001110110101111100101101,
00000000000001100000110101101101,
00000000000100000001001110111001,
00000000010001110101000011001011,
11111111110010110000110010010100,
00000000001101010010001100100111,
11111111110111001101110100010001,
11111111111111000011111001000111,
11111111110101011010101110001010,
00000000001100000100001100100100,
11111111110001010010101111001111,
11111111110111111001100001111001,
00000000000011001010001101000000,
11111111111001000000000111010001,
00000000000001111101110000001000,
00000000010000110010100110100111,
11111111101111110100111000111100,
11111111110100000111100101101000,
11111111110001110001111101011001,
00000000010001011111000101011000,
00000000000100011100000001101000,
11111111110010110010011101000110,
11111111110000000110001101101011,
00000000001101100011010110101100,
00000000010000110010101111010110,
11111111110100111011110101101100,
00000000000100101011100001011100,
11111111111011011101011101110100,
00000000001010110110000101101101,
11111111110101110001001000110100,
00000000001100011111010000010011,
00000000010010010000011111101001,
00000000001011000100110000000111,
11111111111100110111110001001101,
00000000000010011001000011101001,
00000000000111111000111101001010,
11111111110101011101010011001011,
11111111110111011110110011000001,
11111111101110000111001100011010,
00000000001100111010100111001110,
11111111110111100000001111010111,
00000000001111101101100000100101,
11111111111100011010011101100001,
11111111111001001111100111000111,
00000000001001010011110101110110,
11111111111110001110001010011011,
11111111110011100110100111001110,
00000000000001111101101101010000,
11111111110111011111000100101000,
11111111110010110001000101101101,
11111111110100011101100110110100,
00000000000110010110001011001001,
00000000000001100010011111101011,
11111111111000100101101011111100,
00000000000110100001101111010100,
11111111111010010001101010010110,
11111111110001111000110000101101,
00000000000110010001111010100100,
11111111111001110001011110111011,
11111111111010100101001110000001,
00000000001101001001001100100100,
00000000001101101010101111011000,
11111111101110000110100010001111,
00000000001111101011101100100011,
00000000010000010110100100111111,
11111111110010110100000101101101,
11111111101101110001001101111101,
11111111110001101110011011111001,
11111111111011001001010011101110,
11111111111111001011011000100011,
00000000000101000010100010001111,
00000000000100010111000111010001,
00000000000011100010101110100100,
11111111110001101110011000000100,
00000000010001100110011000011100,
00000000001111110000000111001101,
00000000001000111010001010110111,
00000000000011111111100110111010,
11111111110101110010100000111010,
00000000000001010101100001011000,
11111111110010111100110110000100,
00000000010000110011101001100011,
11111111101111110000101010011111,
00000000001111100100000010011001,
00000000010001001101110011100000,
11111111110111001001011100110101,
11111111101111101011101111000111,
00000000000110011100110110111110,
11111111110001111101110011000100,
11111111101111001000010000001110,
11111111110100111110111100101010,
00000000001100111011010010111001,
11111111110100100010011111001100,
11111111111000101011101000100000,
11111111111000100101011000101011,
00000000001100111111110000110001,
00000000000111000101011101000111,
00000000001010011110110011101001,
11111111111100100101010111110001,
11111111110101001100000000111100,
00000000000110100101110010000100,
00000000000111011000001010110000,
00000000001111001000101001100111,
11111111101110110111011010000001,
11111111110010100101010001100100,
00000000001011111111110011101110,
00000000000100101110101101101010,
00000000001100001000111100101100,
11111111111011011000000100010011,
00000000010010001110111010111011,
00000000000111001001010110111110,
11111111111000111011000001110011,
11111111110111001010101000011011,
00000000000100110011011101111110,
11111111111111100011001011100011,
11111111110111001000110011111011,
11111111110110001100101110001001,
00000000000110001010010100011111,
00000000001001000001101011101111,
00000000010001011010100100111000,
11111111111000010010001001101011,
11111111110101001101000110010000,
11111111110100011110001110111000,
11111111110011100111001111000001,
00000000010010000100000001100001,
11111111110111000011101011010011,
11111111110111011001011111010111,
00000000001101011010100100101010,
00000000001110100010101000011111,
11111111101111010000111101101010,
11111111111101111110111111111111,
00000000000101011111101010011011,
00000000000010110010111110010100,
11111111110101100110101010101010,
11111111110001010000111011000100,
11111111110010110011100010101101,
00000000000110000101110100001011,
11111111110111011111001001111100,
11111111101111010111111000110111,
00000000010010000001110010001111,
00000000001000011000010000100001,
11111111111010100010110110011110,
00000000000010111010101111100111,
11111111111001100000000111001100,
11111111110011111100100010000111,
11111111101111000110110000000111,
00000000001011111010110111000110,
11111111101111000111010010010011,
11111111110010001101010010001111,
00000000001111010000100010001111,
11111111110100011110111101111010,
11111111111001110111000100111111,
00000000000000000101011001111000,
11111111101101111100010100100001,
11111111101111011001011011100110,
11111111110001001010101110000001,
11111111111101001111100101011011,
11111111111001011000011101001011,
00000000001101100101001001001001,
00000000001011110000110011101011,
00000000010001110010100101000000,
11111111110000001011010110101101,
11111111110111010010011000110001,
00000000001100011101001101100111,
00000000000110010101101100100110,
11111111110100000101101011011001,
00000000001101101101011011001001,
11111111110110101010010010011001,
00000000010001010111001110101101,
11111111110001011001111101010111,
00000000001001011110100101111110,
11111111111110111101011110000101,
11111111110000001011000001110011,
00000000001001011101100010010011,
11111111111001010010011111100100,
00000000000000010100010111011000,
11111111111010011010101101100111,
11111111111011111010011001001111,
11111111111011010100011110111001,
00000000001000001101011000101010,
11111111111110100001011110101100,
00000000001100011111100101101101,
00000000000111011000101110100001,
11111111111111111001000101100010,
00000000000111010101001011011010,
11111111111001110110010100101001,
11111111110001111010001011110001,
11111111110011111101001000111100,
11111111110011011110100110100110,
11111111110001001111010010000111,
00000000000010111011001111111010,
11111111111110010111110111110001,
11111111101111100011101100001111,
00000000001001011111001111110111,
00000000001011010101001101000110,
00000000001111100010001000100001,
00000000000000101111111111010011,
11111111111110101010010100011111,
00000000001010110000010100101111,
11111111110000001001000111001011,
00000000000001001000010110000010,
00000000001011111101110011011001,
00000000001100101001111001110011,
00000000000010001001111001100101,
11111111111110011110111100101111,
00000000000110100010001011011110,
00000000000011111000110001111011,
11111111111111011000101101010010,
00000000001110011110111110001001,
00000000001111100110111111101100,
11111111110101100111001011100011,
00000000010000011101001101000001,
11111111111011001110011111000000,
00000000000011111011110001101000,
00000000010000010010010011001101,
11111111110111010110111111110101,
00000000001000100010001111100010,
11111111111101100000011011111111,
11111111110101101001110000111000,
11111111111110111000110000001010,
00000000001111101000011000101000,
00000000001010001101000100110010,
11111111110110100010110011001000,
00000000010000100011010100010000,
00000000000011101110000101001010,
00000000001111100110111000101011,
00000000010001011001001001000101,
11111111111010101011010010101101,
00000000001110100110010011110010,
11111111111101010010100001111000,
00000000000010111000101111001101,
00000000000000100110000100100100,
00000000000000010000000110111100,
11111111111110100101001100011001,
11111111101111001111010100110011,
00000000000001100101110100110000,
00000000010000110001110110001110,
00000000000101111111110110010100,
11111111101111000110101010000110,
00000000000011011010011110010011,
11111111111101000010011011111001,
00000000000101011000111110000100,
11111111101111001101010000101111,
00000000000011000011101000100100,
11111111110010111011100111111001,
00000000000010100110100001001101,
00000000001011000000010111001000,
00000000001100110011010011001001,
11111111111100111110100110010101,
00000000010000001111100100011101,
11111111111110111011001010100010,
11111111110101011110011100110010,
00000000001000100010111111110011,
00000000000000110010101011111011,
11111111110001100100101010010111,
00000000001011101000000100111110,
00000000010001100111110101000011,
00000000001010000000110100001111,
11111111111101000101101001011111,
11111111110000101010001010100010,
00000000001111101010100110100101,
11111111110110010000101110000111,
00000000000010110000010001110100,
11111111101111011101000110101101,
00000000001011010001111011100000,
00000000000011101010111100111011,
00000000010001011010000101101001,
00000000001000110111111011010000,
11111111101110100010010100110111,
00000000001110011100110001101101,
11111111110001001110010010001001,
11111111110111010000101011000001,
00000000001001011100001111100010,
11111111110110000011000100101110,
00000000000100110010110111111010,
00000000000001111000100010001101,
00000000000001010010111001110100,
11111111110110000100010111100100,
00000000001100110011000001111110,
00000000000010101000001110001011,
00000000000110110010011111011011,
00000000000010001000010000111111,
11111111110110111001110100010000,
11111111111001001000001000010101,
00000000001100001011000000100010,
11111111110000000001101001010100,
11111111111001101011100001111000,
11111111101111010000101111000101,
11111111110101000100010111001110,
00000000000010011101010001010111,
11111111111011110101011001001100,
00000000000110000101111110111100,
00000000001101111011101110100101,
00000000000011110110001001111010,
00000000010001010111011101011100,
11111111111111111100111010001000,
00000000010001101001000001111000,
00000000000010111100110011101111,
11111111111111100001111101100101,
00000000000101000111000101010100,
11111111110001100101010001001100,
00000000001110111010010101000101,
00000000010000101110110011001011,
11111111101111111010110001100100,
11111111110101000111011111100011,
00000000001110011100111011001101,
00000000000100100110001010000100,
11111111111001011000111010100100,
11111111110110111000111010011001,
11111111111011110011110110111100,
11111111111100100011101110110011,
00000000010000110111100100110011,
11111111110100111000011100010111,
00000000000010100100100101011011,
00000000000101001011101101011000,
11111111110110111011100000011101,
11111111111110110111000010000011,
11111111111100101100011011100111,
00000000001101111100111010110001,
00000000001101000101010100100010,
11111111111111000111100010100100,
11111111110110101000010001110001,
11111111110101100000001000011101,
11111111111000001101110000010101,
00000000001111110111001110111101,
00000000001110110111010101010001,
00000000000011101000101100111110,
11111111101110111101100111010101,
00000000000101110101101110111001,
11111111111100100110011111110000,
00000000001010001110010100011100,
00000000001001100000010001010011,
00000000001111010101110010000111,
00000000000001010101001101111100,
00000000000001011001100011111010,
00000000000000001000011110110011,
00000000001100101000100000101011,
00000000001101110011101011011011,
00000000001000100111011010000000,
11111111111100010101111111011111,
11111111111010101100001111110000,
00000000010000111100011111001110,
11111111110110100010100111110011,
00000000000011001001010011000010,
00000000000101101111111100100010,
00000000001001011110000000111000,
11111111110100111010001100010001,
11111111111100011110000100011000,
11111111111111011101110100001101,
11111111111110010101010000001111,
11111111110000010011100110011110,
00000000000111111000111110110100,
11111111110010000001001100111110,
11111111111011011000011110010111,
00000000000101100110101110000011,
00000000001110011000001101010101,
11111111111100110100011101100000,
11111111110101111000000010101111,
11111111110111110110001001000011,
11111111111111110101001111000000,
11111111110110000000001101101101,
00000000000100100001001000000010,
00000000001000010001000110011000,
00000000010001010000011101111100,
00000000001111011000001001110100,
11111111111100010000110100110100,
00000000000111110001011010111110,
00000000000010011001100010100010,
00000000001000101010110101101110,
11111111110111101100000010111010,
00000000010001001011001001101001,
00000000000000000111110010000011,
00000000001011100101001101110101,
00000000001101100011111101111010,
11111111111100001000000110110100,
00000000001110000000101111111101,
11111111111011010001001000110011,
00000000001001000110001011111110,
11111111111101001010010111101011,
11111111110001100010100000100100,
11111111111011010101101010010101,
00000000000110111100011001111000,
00000000001110100110110100111101,
11111111110001000101000011010001,
11111111110101011000111000110101,
00000000001001100001111100000010,
11111111110110101010001001010111,
00000000000000111100111110111100,
11111111110011001111101000011101,
00000000000001001001111011011110,
11111111110111001001101111101011,
00000000000100000101010111001010,
00000000000111001101011100100101,
00000000000011100000011011111111,
11111111110001100111101000110111,
00000000001101101101011100001011,
00000000001111011001000100100000,
11111111101111100110101010110101,
00000000001110111110011111110110,
11111111110000001111010101011001,
00000000001000100110000110101010,
11111111111110111010111000101100,
11111111111110100010011110000000,
11111111110111000110001011010001,
00000000001110011001101000110100,
00000000000010111101001000100001,
11111111111110101110101000000010,
11111111111111010110100110110000,
00000000001101010000001110011110,
00000000010010000111101000000101,
11111111110101100101010011111001,
11111111101111110010000000101010,
11111111110011101000010001110001,
11111111110110000100100101110101,
11111111110001000011111001101100,
11111111111001011001101010000101,
11111111111000111011010000101111,
11111111111111110111101000100001,
00000000000101001101110000011010,
00000000001011101111101111000101,
11111111110011111011110101110000,
11111111110010111001011111011100,
11111111111000000010001111111011,
11111111110010100001100001110110,
00000000000000111111000010001011,
11111111110010001000100010011010,
11111111111111001010000001111011,
11111111111101011111110110010110,
11111111110001110101110000001001,
11111111110111101111101001001100,
00000000000111111111100010110001,
11111111111010110000100000000000,
11111111101111110111000110101001,
00000000001110111000000110010110,
11111111111010010011001000100011,
00000000000010001101000011000000,
00000000001110101101000111001001,
00000000001001000110101110001111,
11111111110001001110000100110101,
00000000010000001001101100110110,
11111111111010111001110001110111,
00000000000100101010100001110100,
00000000001000001000111111110100,
00000000000110011000011111001000,
00000000001100011111111001010011,
11111111110111101111110111110100,
00000000001101100101101110101000,
00000000001011100111111011000011,
11111111101111111101100111011111,
11111111111001001011101011010101,
00000000001111110011010110100110,
11111111110010011011011000100100,
11111111101111011101000100101111,
00000000001011010010110000100111,
00000000000110011100011000011100,
00000000000010000000010100000000,
00000000001110100101001101100001,
00000000000000111001101000000000,
00000000010001110101000111010011,
11111111110011110111011000011110,
11111111110000010010001110010000,
11111111111100000001100000100001,
00000000010001110001101101010001,
11111111110000010111011010001100,
00000000000111100010110011111100,
00000000000100101011101010011100,
11111111111000010000011100111100,
11111111110001000000010000000100,
00000000000111101010000010000010,
00000000000110110110111000011000,
11111111111111100001011001000001,
00000000000111001110011010100100,
00000000001001111111111110011000,
11111111110011000111101111101001,
11111111110000001100010111111101,
11111111111100111101011001010111,
11111111111101010111100101000001,
11111111111000111110011110111100,
00000000000100110100000001000011,
11111111110001111101111100001011,
00000000010001110001001011011100,
11111111111100010100011111111000,
11111111110101110010010010100011,
11111111111101000101000000010110,
11111111110001100001010100100000,
11111111110000001011010110001000,
00000000000101010010101011110100,
11111111111010111110110101011100,
11111111110110000110010001000011,
00000000001000011011101101110101,
00000000001110010010001011110101,
00000000000010000011001110000000,
11111111110110111000110100101011,
00000000001001111100110101100110,
11111111111001101100111110100000,
11111111110111100010010001001000,
11111111111100011011110101010001,
11111111111011100011100111111001,
00000000010001101001110010001000,
11111111111100101101111101111111,
11111111101111100010010010110111,
11111111111010001100010101100010,
00000000000110101101010100000100,
00000000000111111010000010111000,
11111111110011101110111100100100,
11111111110011000111100111110110,
11111111111010110011000001001001,
00000000000001001010110101011011,
11111111110000111100111010010111,
00000000001000011010110000100110,
11111111111100100100010110111101,
00000000001010101000110001010110,
00000000000101011100110010011110,
11111111111101000101010000000001,
11111111111110010110011000101000,
00000000000101100111101111110110,
11111111110110011111110110110101,
11111111111011010000100111011110,
00000000001000010111100110000110,
11111111101111101011011110100110,
11111111111100010111000001000111,
00000000000011110011100110101101,
11111111110110100100011101111011,
00000000001000101010000001011010,
00000000001001000011101110000011,
11111111111101010110010101010000,
11111111111010000111111110001100,
00000000001000110110011010000001,
00000000000001000001111011010110,
11111111110001110111000110010100,
00000000001010100010011110101110,
00000000010010000000000100011000,
00000000001111101001100110010010,
11111111110101111010011011011111,
00000000010000111110100000010011,
11111111111000011000010010010001,
11111111110010001001001011101100,
00000000001101000110000011000011,
11111111110011000110101101110110,
00000000010000110011101011111001,
00000000010001111010111100001100,
11111111110011101101011100010000,
00000000001100000111000001101111,
11111111111100100000110101100101,
11111111111011001111101101101101,
00000000000010110001100011001000,
00000000000110111010000000111011,
11111111110011100011011111010001,
00000000010001111011100111101000,
00000000001100110100000000001110,
11111111110101011011111000111101,
00000000001000101000101000000111,
00000000000011001111110001011011,
00000000001010000011001001011011,
11111111111111100100101111111000,
00000000000110001011111010001100,
00000000000101000111000100011100,
00000000010001000101101011101001,
00000000000010100100111110010111,
00000000001110111001111010000011,
00000000000011000001100111110100,
00000000000101111000111100101110,
11111111111101111101101010100000,
11111111111110000000111001011101,
11111111110010010000011011011001,
00000000010001100100111010001110,
11111111110110000110110100111001,
00000000001001100100100001011100,
00000000000100001110000000110000,
00000000001011110110111010111010,
11111111101110101100011001010101,
11111111111110010010110100101000,
11111111101110011110011010010111,
11111111110001100110110100100101,
00000000000110011101010000100011,
11111111111011101011100010000111,
00000000001100001101101001111100,
00000000001101101001000011001100,
00000000000000000010110111011111,
11111111111010100100011111100001,
00000000001100101011110001000110,
00000000010001011011110100101000,
00000000000010001101011101011001,
11111111110000101111010110010101,
00000000000111101001010001011110,
11111111111100111100101010100011,
11111111110010100001101110101001,
00000000000011111011111011100110,
00000000000000011011010111010001,
00000000000000010001010101111010,
00000000010010001100010010111000,
00000000001001010010000001001101,
00000000001011100010110010110010,
00000000000000001001101110100011,
11111111111100011000100110011110,
00000000000110110110110101001110,
11111111110010010100011000001010,
00000000010001010001111010011111,
00000000000010010001011100110001,
11111111101111000000001101010101,
11111111110101011100001110001000,
00000000001000110100010100111011,
00000000000100001110000101000100,
00000000001001000010000001011100,
11111111101101111101111011111110,
11111111111111111010001110100110,
00000000001010111001010010010010,
00000000001010000110011111100100,
00000000000000111111100011100011,
11111111101101111010111011101011,
00000000001111111110101111111011,
00000000000111000001100000100010,
00000000000111001001001001010000,
00000000001011000001010110000000,
00000000001010110011101010001111,
11111111111101111011110011101011,
00000000001100000111001001110101,
00000000001100011011010001101010,
00000000000100100001110111111110,
11111111110001111010001110011000,
00000000001100110001101001000110,
11111111110111000010101001111011,
00000000001111100110000001111001,
11111111110100100111000101011001,
11111111111110101111010110101100,
11111111111000111011100000100000;