memory_initialization_radix=2;
memory_initialization_vector=
11111111111111110111001111010000,
00000000001001110011110010101101,
11111111110000111100110011010101,
11111111110010100010101111011100,
11111111111000111101010000100111,
00000000000100111001110100100010,
11111111111111101000110100000010,
00000000001110011111111010000100,
11111111111110011000001001001111,
00000000000100110101101011000010,
11111111111010011110010100110001,
11111111111100011001111101100110,
11111111101110100001111110000010,
11111111110011111000111100001101,
11111111111000011101100101001101,
00000000000000101011010110100000,
00000000000111001110101001111011,
00000000001010111110001100101011,
11111111110011100110100111011000,
11111111111000000010011000100101,
00000000000110101001000100010110,
00000000001111001011110010101000,
11111111111100001111001001111011,
00000000001101101011101111010001,
11111111111101000011010111101001,
00000000000001111011110101010011,
00000000010000100011101010100111,
11111111101111000010010111000101,
11111111110100011111010000101100,
11111111111011010111101110010111,
11111111111000110111110100101010,
00000000001111110011001000001011,
11111111110100001001011100011101,
11111111110111100101010001110111,
11111111110011001110011001000010,
11111111101110110111111101001100,
11111111110101010100110110110110,
00000000001111101101111110011011,
00000000001000001010001100111111,
00000000001000110111001101001001,
00000000000000111101100011000001,
11111111110110101000000000111001,
00000000000011000101111111101001,
11111111101110111011010011110111,
11111111110010110010011001000010,
11111111110110100100101011101100,
00000000001011100010011000001011,
00000000001010101110001010011101,
11111111110111111000111110111111,
11111111111111010101110001100000,
00000000001011101100011110000000,
00000000010010001011011010110111,
00000000000111010000011101110011,
00000000000010011110000110001110,
00000000001100010000101010010010,
11111111110101001110111011101110,
00000000000011011010000100110110,
11111111110001110100101010111101,
11111111110011010100111001000010,
11111111110110100011011100110010,
00000000001000010001100001011101,
00000000000111010110101001001000,
11111111110101001010110001110100,
00000000000101100001100011010011,
00000000001010000010011101000100,
11111111111101101100010010100011,
00000000000000101100101011101111,
00000000000100001111001010010010,
00000000001011010110000001001001,
00000000010001100011101100111001,
11111111110001111010001001101000,
11111111111001010011001000000011,
00000000000111001011111011110001,
00000000001111001001101000111011,
00000000001111111010011001000010,
00000000010000001000100111000000,
00000000000011101000111001110110,
11111111110000000110010101110000,
00000000000001101011101010000101,
11111111110100100011110111001111,
11111111101110111101010110001111,
00000000010000001111110010100100,
00000000001101111001110101101001,
11111111101101110000100110110111,
00000000000011011011000010110111,
11111111111100111010110110101001,
11111111111100111111011010101010,
11111111110111101000010010110011,
00000000000111000010000010100110,
11111111110101001010110101011111,
00000000000110101101000001000100,
00000000001001001111110100101011,
00000000001101000101110001100011,
00000000000110110101100101010011,
11111111101101111001101110100010,
11111111110100001000110101101110,
00000000001001001000010101110110,
00000000000011110100111100010100,
11111111110001101111000101000011,
11111111110101011110001000000111,
00000000010001001100111100100000,
00000000001100010100100011110011,
11111111111000000001101110011110,
11111111111011011001011101010000,
11111111101110100101001100000010,
11111111111111101010111101110001,
11111111110010001110101101001100,
11111111110001111001010010101101,
11111111111110111111100001001001,
00000000000010101111101101100111,
11111111111000100000101110111001,
00000000001010110110011010111110,
11111111110100110111110101011110,
00000000010000100101111000011101,
00000000001100100001111111110010,
11111111110000100101000111100100,
11111111111011011100101111000000,
00000000000000110100110011100111,
00000000000010101010101111101111,
00000000000100010101100011111100,
00000000000111001011010000001101,
00000000000001000110000110011011,
11111111110111000100111110111111,
00000000001000101001110001000011,
11111111101110011101011001111010,
11111111110101001010010111010010,
11111111111011011011000010101111,
11111111110111000101111100000011,
11111111111001100110100110000101,
11111111110001000000110011110000,
11111111111100000111000100000000,
00000000000011111010001001111111,
11111111110100000101100110010101,
11111111111111000011111100010001,
00000000001101000101110000000000,
11111111111110000111101100011100,
00000000000000100000100001100101,
11111111111110011011000010100111,
00000000000011101100110110000001,
00000000001011101000000111010010,
00000000010001010100100011000111,
00000000001011100111001100100110,
00000000010001010111000101011100,
11111111111110101011010111001111,
11111111101111100100101101010001,
11111111110111010101001100011100,
00000000001100011100110110101000,
11111111111111111000011010011111,
11111111110110111010010100000101,
11111111110001111111001100100100,
11111111101110111000110010010010,
11111111110000100100010001001111,
11111111111100010010100111111000,
00000000001010000001110010101011,
00000000001001111000101101000110,
11111111101110010111010101101101,
00000000001011011010000000001101,
11111111110001101100001111011001,
11111111111100001000100101101111,
11111111111000100101011110110011,
11111111111100011110100101011101,
11111111111100011010001110010001,
11111111101111100101110110000010,
11111111110000001101100001111111,
11111111111101001000110111111101,
00000000000000001111001000100110,
11111111110111101100010111100110,
00000000000110111000110110001000,
11111111101111100010101011001011,
11111111111110110001000001010101,
00000000010000000101001011000000,
11111111111000100010101001100110,
00000000010000100000110001011000,
00000000000110100111110100101100,
11111111101111011111110111001110,
00000000001011100100011011111100,
11111111111101111000111101001010,
11111111110111110101100100111001,
00000000001110100111110100101010,
11111111110001001110010011000100,
00000000000001111101100100111101,
11111111111100001010111110101001,
00000000001101000011101101110100,
00000000000101000110101011011100,
00000000001000110010010101000010,
00000000000110011101010011000000,
11111111111011100110100100110111,
11111111111100001001111000011111,
11111111110000111011100101101110,
00000000001001111010000111001100,
00000000001110100001001011100110,
00000000001100100000101111010001,
11111111110011000110100000011000,
00000000000000110100001100011101,
11111111110011000111000001101001,
11111111110101111011110001101100,
11111111110101010110000100010111,
00000000000110001111111100000111,
11111111110101000110100111001000,
11111111111111100110011101111100,
00000000000000110001001110110101,
00000000001011110010011001001010,
11111111110010001011010110111001,
11111111110011011100100101011010,
11111111110101011000011101011101,
00000000001100110011000111110100,
11111111111001011011010100101100,
00000000001111011011000111110111,
00000000000110100111001011110010,
00000000000010010100001100000100,
11111111111111110111010010011101,
11111111111100011000101010000000,
00000000000010010010110101001101,
11111111111011110100110001011000,
11111111111111110111110001101111,
00000000000010010101010100100000,
11111111110001101100100110001100,
11111111110110011010100111011101,
00000000001110110000111111110100,
11111111110001001010010000100011,
11111111111110101011111101110110,
00000000010010000101101100010010,
00000000000110100110110000000010,
00000000000000100001001000100110,
11111111110000001001110100011010,
00000000001001000011101110111101,
11111111110010111110011011011001,
11111111111010110011110011000100,
11111111111001110111010110011010,
11111111111101010010101100100001,
00000000000000001100110011010000,
00000000001111000101010000101011,
00000000000010010010000110001101,
00000000010000011000001101110111,
00000000001011001011111000001110,
11111111110100011100001000010001,
00000000001000001100111000001100,
11111111110011000100101110101101,
11111111111000010000000000001111,
00000000000101011000001101010010,
00000000000110000010011010110100,
00000000001101101101111110110011,
11111111111010000111010001000100,
00000000000000000001110111111001,
00000000001001011010011111011010,
11111111101110010100001110011101,
00000000001101001110000110000000,
11111111110000111000010000111100,
00000000000000010000001000010010,
11111111111100111001000010000011,
11111111110110010111101001000111,
00000000000010011010101011011000,
00000000001111000111101110110011,
11111111111010101001111001110001,
11111111110101001001001101010101,
11111111111001001111001011101101,
11111111101101111000000100101100,
00000000001000010000010000101000,
11111111110111001101111101000101,
11111111110011110011000001010111,
11111111110101011101110011000000,
00000000001010100000110111001110,
00000000001001101011110000001010,
00000000001110000010001110000100,
00000000000110101000011111010110,
11111111111001111001001011000000,
11111111111010111000111101110100,
00000000000101011001101111001100,
00000000001111000010000000111111,
00000000000100111110001100010000,
11111111110111010110010010001111,
11111111110111011001111000000001,
11111111101110101101100001111111,
00000000000011111100110101101000,
11111111110101101111010000011001,
11111111101111101100100110100000,
00000000010000000010001100100011,
11111111110100001000000000001110,
11111111111101111010110111011101,
00000000000101001111010001111000,
00000000000000100101010010001000,
11111111110011101100100010010100,
11111111110001001110000010000110,
00000000001110100100110100000111,
00000000000010111110100100010101,
00000000001111001010111001011101,
11111111111001110111101011000100,
00000000000101011000101101101100,
11111111111011110100011000100011,
11111111111111001011111101001100,
11111111110100110111001111101001,
00000000000110001011110010101011,
00000000000101110010000000010010,
11111111111111100111110110111101,
11111111111011111000110011001110,
11111111110100101110100110011110,
00000000001100101001010011100001,
11111111110010011000110011111010,
00000000000111011111011011001111,
11111111111001110110011111001100,
11111111110111001011010111111111,
00000000000011010010001111000111,
11111111110110100000000101100100,
00000000000100001101101000111011,
00000000000011100101110100100110,
11111111110010011011000100110100,
00000000000011000010110110011101,
00000000000111110010011101010111,
00000000000111001111001111000100,
11111111111101101100101011111010,
11111111110001000000100111010100,
11111111111101001011100110001000,
00000000000110010110011100110000,
11111111111001010100111111010101,
00000000000110111100001101111110,
00000000001100001011010111011101,
11111111110110011100111011110000,
00000000000000001011100010101000,
00000000000111100011111010010111,
00000000000001011011101110010111,
00000000000001100001110000010111,
00000000000010010010001000001101,
11111111110001100111111110111001,
00000000000001011011111110001000,
00000000001100101010011000110011,
00000000010000011110100011111000,
00000000001010101111110101100010,
00000000000010011100110100100110,
00000000001000100010100010100100,
11111111110111000110101011100001,
11111111110000110110001100101010,
11111111110000010001101001011001,
00000000010010001111011111010000,
00000000001011100110111000101000,
11111111110011010111000011110010,
00000000000111001001110111011010,
00000000001101110011110000110000,
00000000010010010001110101011100,
00000000001111111111010010101011,
00000000001110001010101011101111,
11111111111011110011101100111000,
11111111111001100101010011000101,
00000000001111000000110111001001,
00000000001010001111110011011110,
11111111110100111111101111110010,
00000000010000011100000110110110,
00000000001000110101011011110000,
00000000001001111101111101101110,
11111111110100100010011111100010,
00000000000101001111110000010011,
11111111111001100101101111011111,
00000000001110010010011010010001,
11111111111100101101011010110001,
00000000000111000111100110110110,
00000000000011001111110111100100,
00000000000111110001111010110110,
11111111111001110010010011100000,
00000000001000111010100110010000,
11111111110011001110100101101110,
00000000000100001000010100001010,
11111111110011101000001100011100,
11111111101101111101011110000010,
11111111110001010100001100100000,
00000000001110011011111001111101,
00000000001001111001001010101001,
00000000010001001001111110110000,
00000000001110101001100010100111,
11111111101111101010111000011011,
11111111110011100001010111000101,
11111111111101000010111001110000,
11111111110100000111111110101001,
00000000001100101100101001000111,
11111111110010001011010000010100,
11111111110111000101000001000001,
11111111101110010101011001011010,
11111111110101100111100100110101,
00000000001111000010100010001001,
00000000001110111110001011101110,
00000000001101000101101111000001,
00000000001110000111100111000000,
00000000010000010000100110100011,
11111111111011010100010101010101,
00000000001000000010111011011010,
00000000010000010010101001001010,
00000000000110000011001001110000,
00000000010010010001111010000011,
00000000001001011110111110111110,
00000000001011010111100000011001,
11111111111001100110011010001100,
00000000001000110001100010010000,
00000000000010000110011110010011,
11111111111011101000100001000000,
11111111110101101100010011000110,
11111111110101101111010101010101,
11111111110001111011011111001101,
00000000001100010001101001011111,
00000000001100111111111111100010,
11111111111101111010110011101000,
11111111110101011010110001011010,
00000000001110001000100001010011,
00000000001011101100011000101000,
00000000000001010110111111011111,
11111111110111010111011101111000,
00000000010000110011100011000111,
00000000000111011110100100111101,
11111111110010000111100101010100,
00000000010001100000000011110111,
00000000001101111000101011110011,
11111111111001010101011100010001,
00000000001010010001111000011010,
11111111110101100111000011101000,
11111111111101001000100110011000,
00000000001111100001101100001110,
00000000000000110000010110101111,
11111111110011000100010110100101,
11111111111001111000110110100010,
11111111111011000010010101001111,
11111111111100011110001101111110,
00000000000001101111111111110100,
00000000010000111010010100001001,
00000000000000111110101010000101,
11111111110100101101011010110100,
00000000000000111011111110110111,
00000000001000110001001000110001,
00000000001001000100100000100100,
11111111101111010010011011100101,
11111111111100101110100101100001,
11111111110010011010010011110000,
11111111111000001100101001111111,
00000000000110100101101001010111,
11111111110011000000111100011110,
00000000000110110011000001101101,
00000000001111100001010100000001,
00000000000001001100110000011101,
11111111110011110100000001001110,
11111111111001011100101101000101,
00000000000011111111100011000110,
11111111110010000011110111101100,
00000000001001000101011010001111,
11111111101111011001100010001000,
11111111101110011011000000110010,
11111111101110001110111000010010,
11111111111100010010100101111001,
00000000001100010010111100000100,
11111111101110101100010110010110,
00000000001111001100101110011111,
11111111111000101011110110111111,
00000000000101010110110000100001,
00000000000000110101010111100101,
11111111101111100000101110110010,
00000000001111001010100011010100,
00000000001001110110001000011111,
00000000010010001011010000100100,
00000000001001001111001111100010,
11111111110011111011100001111110,
00000000001111010000101100111001,
00000000000000111110111001010111,
00000000001000101010111110000000,
11111111110001010101101000011000,
11111111111010101111011001010001,
11111111101110000010111011000011,
11111111111000111000001011101100,
00000000000011111100011101111001,
11111111110001101001001000101111,
00000000000101110101000010111001,
00000000001001110100001101111010,
00000000000010100011000010000001,
11111111110011110000111110110100,
11111111110001110100101001111001,
11111111111010010110111100101001,
00000000001000000001101101001110,
00000000010010000010010111011001,
00000000001010100000111100101100,
11111111111101111100001101110001,
00000000000110011010010100100100,
11111111101110000011111000000101,
11111111110000011000011101010010,
00000000001000100010000100001000,
11111111110101101001001000011110,
00000000001000110011000001001111,
11111111110011000101110110111001,
11111111110110111100010110000100,
11111111110000111100000011000111,
00000000001001100010101100111110,
11111111111110001000110000001111,
00000000001110000100101001110011,
00000000001011010100010000011110,
00000000001010000111100100011010,
00000000000000100101101000011100,
11111111111010010110001011000111,
11111111111100000001100010110000,
00000000000010011011100010000001,
00000000001001000100000111110011,
11111111110011001100000111000001,
00000000001111010110001100011110,
11111111111110000000110000010100,
11111111110000101011010111010100,
11111111110110000110110011101101,
00000000010000001011011111010101,
00000000010000101110010000100001,
11111111101111000011111111001111,
00000000001100111001011001101000,
00000000001001001010011111111110,
00000000001010110100101101101011,
00000000001111011110101011100101,
11111111110110001001010001100011,
00000000000101110001100011000100,
00000000000111011110111010110111,
11111111111010100110001100000100,
00000000000110000111101000111100,
11111111111010101111010010110001,
00000000001011010011100010101110,
11111111111010111011010011001000,
11111111111001001011101110010000,
00000000000100100110100111100100,
00000000000110011111000101111100,
11111111110111000100001110110101,
00000000000001100111011100111000,
00000000001010100110001110001111,
11111111111110001011100011111000,
00000000000101100100001010000110,
11111111111011100101101111100001,
00000000000110011010001011110100,
11111111110010110000010000001000,
11111111110101001111110101101010,
11111111110110101101111110010110,
00000000010000110011100000010101,
11111111111011000101000110000100,
11111111111111111100110011100000,
11111111110111001001000000001000,
00000000010010010000010010001101,
00000000010001110110111110111011,
11111111110010001101011000101110,
11111111110001001011010010001110,
11111111110010001000111011101000,
11111111111111111010010110110011,
11111111111011010101101100001001,
11111111110100000001111111101010,
11111111111001011100010000000101,
00000000000011011101000110100110,
11111111110110011100100010010110,
00000000000100000011010100001010,
11111111111011110011101000101001,
11111111110111001000111011000011,
00000000000010100000110001111100,
00000000001111000010010001101111,
11111111110011101000110010110101,
00000000000000110110010101110111,
11111111111001010000011011111100,
00000000010001111100011010001010,
11111111101110101001101011010001,
11111111101110011110000101111011,
00000000010010000001001011101001,
11111111110100011011100100100111,
00000000000011100000010111110000,
11111111111110011010111111110101,
11111111111100001001011110001010,
11111111111011111010100111101001,
00000000001011100111101001011010,
00000000000000110111111011111010,
11111111101110001100100101111100,
11111111110101001101000111000010,
11111111111001110001000011001010,
00000000001001001100111010000011,
11111111110100001010101010110011,
00000000010001001111011111000100,
11111111111011111011010101111101,
11111111111100101101110111001000,
00000000001110010100111111001001,
00000000001001001100001100011101,
00000000001111100000100010110000,
00000000001010100100111100011111,
11111111111010011100111111010100,
11111111110011110111100011000100,
11111111111110101000111011010110,
00000000001111001000100100101000,
11111111111001110111001110101010,
11111111101111000010101101100101,
00000000000111011111101110111100,
00000000010001110011001111010101,
11111111111010110010110101101110,
11111111110000110110111110011101,
11111111101111011010011110110010,
00000000000100100101010001011110,
11111111111110100111011000101111,
11111111110110110001000001010101,
00000000000011101100100011010101,
00000000000110111100011011010010,
00000000001110100010110000000001,
00000000001110001100100101101100,
11111111111101010000110100111101,
11111111101111111000000101001010,
11111111101111011110100000001011,
00000000010001000100101011110000,
00000000001000000101010101001011,
00000000000111111110001000101110,
11111111110000001011011100011100,
00000000010000111011101100111111,
00000000010001010100101010011000,
00000000010000100000100110101100,
11111111110000100100110000111100,
11111111111001000110011011001000,
11111111110011011011000111101011,
00000000010001010100001110000110,
11111111111000001001001001101101,
11111111110111101001101100110111,
00000000001001100101001000001011,
11111111110111100010101000101000,
11111111110110111111100110111100,
11111111111110011001101000100011,
11111111111110001111100000110100,
11111111110001110000010111110110,
00000000001111001111101000010100,
11111111110111111011110000110000,
00000000000110011111000111100010,
00000000001111111001111001010011,
00000000001001001110001100011100,
00000000000010100101101100000101,
00000000001111100011101111101111,
00000000000010011101010100010011,
11111111110111100010100011110100,
00000000010001010011000101101111,
00000000000100010100111110111110,
11111111101110001010001011001011,
11111111111010110010110101000110,
11111111110011100010110101101110,
00000000010000000010000011010011,
11111111111100111110101110110111,
11111111101111010101010000010110,
11111111111110110110011011101001,
00000000001011011110111101000110,
00000000000100110000000010100111,
00000000000101110010000011001011,
00000000000001101100101100000011,
00000000000110110100010011011111,
11111111111011100010110110111001,
11111111111000101110011101011101,
11111111101110111010000111111100,
11111111110010001110011000010111,
00000000000111111011001101000111,
11111111110101001011000011101110,
00000000000010100111111001011001,
00000000000101110101100010111001,
00000000000001010010110111000101,
11111111110100001001001111101110,
00000000010001011111001011010111,
11111111110101010111011110101100,
00000000001111000010100011111000,
11111111110001011101000001110011,
11111111111011100110011111010101,
00000000001001111100100110010101,
11111111111000100001110110000001,
00000000001111010111000101110001,
11111111110011011010101010010001,
11111111110000101001001110100100,
11111111110111110000010010111100,
00000000000010111101001011010101,
00000000010000110101100011000010,
11111111110111010001010011100000,
00000000000110100010100001101111,
11111111111011011010100110011111,
11111111111100000010001101011001,
00000000001101011100100000111110,
11111111110001110101000010111001,
00000000000001111100010011001100,
00000000010001001100100011000010,
11111111111101011111001100000100,
00000000001110001100101001111000,
11111111111010010111100110100100,
00000000001110101110000010010010,
11111111101110010011111100100111,
11111111111101010111010101011001,
11111111111100110010011100011001,
00000000000101111011010001011010,
00000000000111001011001000101010,
00000000001110000010100100001011,
11111111111101010001101001001101,
11111111111111010001100101111010,
00000000001100100001011011001100,
11111111111011000011010110100011,
00000000010000000001111010010111,
11111111110011110100110011110100,
11111111111110000001010111010001,
11111111111111000001001001001001,
00000000001000001010001100010111,
00000000001100100000000110001011,
11111111111101000110100000010110,
11111111110000110110011100001110,
00000000001001000011110111100001,
00000000000101011110000100011101,
00000000000111010110000110100110,
11111111110100101110000101101011,
00000000001011110001001100001101,
00000000010001010100011100010010,
00000000000001100101100011000001,
11111111101110111010111001011000,
00000000001100110101100001110110,
11111111110010011100010010100101,
00000000000100001101000001000010,
00000000000010101010000100000011,
11111111110111011100010000111000,
00000000000110010111011111010000,
11111111101111101001010000100010,
00000000000100001010100010110011,
11111111110100011010000110001010,
11111111111110000001011100111111,
00000000000010010110100010000101,
00000000001111100101000001001011,
11111111110111010001101000100001,
00000000001011101101101110100011,
11111111111101101011010101011001,
11111111110111010100001100101111,
11111111110000000100111010100110,
11111111101111001110001111011101,
00000000010001110110111010011101,
11111111111011011100001000011010,
00000000000000111010011101000101,
00000000000100111101010001110110,
00000000001100011011011110110010,
00000000001111100110110011110000,
00000000001110110101000111110011,
11111111110010011100111101001000,
11111111111101000100100000000011,
11111111110101001011011111111000,
11111111110101100011010110101111,
00000000000100010101100110011010,
00000000010001001010011111001000,
11111111110001010110011110101100,
00000000001011000100010000110010,
11111111110110100001001111101111,
11111111111100011100000011110000,
00000000001110100000111100000101,
11111111111011110111010100001111,
00000000000001101010100011111011,
11111111110011001101111011101010,
00000000001111100100001100011111,
11111111111101101000101101111011,
11111111110010101000000100000111,
00000000000101010110101010111111,
11111111110010111111111010000001,
11111111110001011111010111101010,
00000000000001000111010010101111,
00000000001110011111110110101000,
11111111111010110100110100111111,
00000000001000100110110100001001,
00000000001111101101101001101100,
00000000001100001000001101000111,
11111111110110011010000111010010,
11111111111101111111101101101011,
11111111111010001111101110101001,
11111111110001010010111100100101,
00000000000000000000011110111100,
00000000001101110000100100000110,
00000000001111011001111110111110,
00000000000001101101001100000100,
00000000000100001001110011001000,
11111111111000000101010110111011,
00000000001101110011011000011001,
11111111111000011001000010001100,
11111111110011010011000011101101,
00000000000010110100001101110110,
00000000001010111101011100111100,
11111111101111100000111000010110,
00000000010000100001111001100111,
00000000000110100100111111001111,
11111111110011001100000101010100,
11111111111100000011111010010111,
00000000001111110111010100010000,
11111111110001111110000111011100,
11111111111010101001111100111100,
00000000000101111111110101001010,
11111111101111111110101110101111,
00000000001010000001100011000111,
00000000001001100001001100001000,
00000000001011010101110100010101,
11111111110100010101111000110100,
00000000010010001101100110110001,
11111111110101001010010011001100,
00000000010010010000010101111111,
11111111101110011100111000110101,
11111111101111101101010011111000,
00000000001011001110110010010000,
00000000000001111010010011110101,
00000000000001000011100000110101;