00000000001101100111111011001110
00000000001110001101011110010011
11111111101111110000111100010010
00000000000001010011001000011111
11111111110100110101001110111101
11111111110011111100111101011001
11111111110000000010100101000000
11111111111001000001000111110100
00000000010000010110001000111001
00000000001010001111010000001100
11111111110011010111000110011001
11111111111100001101101001000010
00000000001000000001001010010100
00000000001010101110100100100010
00000000001101001111011111110001
11111111110110011000011100100010
11111111111000100111101110101100
00000000001001111001010100001000
00000000000011111111110001100111
11111111110110100100010110100111
11111111110010001001101001000101
11111111111110111011111101000100
00000000001111100010011011001101
11111111111000110000101000011000
11111111111101011101011001000101
00000000000110111010101001111111
11111111110000101111010111010000
11111111111000100110011110010111
00000000000010100101111101101011
11111111110111101001110101111011
00000000001110010011001110000100
11111111111101011010010001100000
00000000000111110000000000010011
11111111111100100111011110000010
11111111111101111000111011010101
00000000010000101100001000111001
11111111110001011100001101000010
11111111110011010001101111101101
11111111111001001100111101101101
00000000000011011110100001101011
11111111111010101000011111001100
00000000000101101111110010101110
11111111110111100100000100101111
00000000000110110010001101000011
11111111101110111100011110111110
00000000000000101100010101000011
00000000001001101100100110110001
00000000000011001011011101001000
11111111110111111100110011111100
11111111111001001011100101000000
00000000000011111110110101110100
11111111110011011000011000111101
11111111110001110011001011010100
11111111111111110000110110011111
11111111110000011001011000100101
00000000000100000110000111111111
11111111110011111010101010001111
00000000001010000110100001100000
00000000001010101010101010011100
00000000001110110001000001010011
11111111110100010111011001001000
00000000000000110110101000010011
00000000010000111110001001100000
11111111111011011011011101011101
00000000000110100001110001011101
00000000001001111010110000010011
00000000000000101000011001111101
11111111111001100101011111110000
00000000000100110001100101100110
00000000000100111111010111001001
11111111110001110110110011101001
11111111111001010101000101101011
11111111110000100110100100101010
11111111110000100010101001111101
00000000001101011101001000011010
00000000001100110110101100110011
11111111110011100010100000001000
11111111101110010100101111001011
11111111110001001001100111001111
00000000001000101011011001000111
00000000001111001111000010100000
11111111111101010000101011110111
11111111111001101100110000011101
11111111110001010001110110100010
11111111111111010101000100011100
00000000001010001001001101101001
00000000001000110100011111101111
11111111111000100001011100110111
11111111111000100011100001011100
00000000000011010001010011110100
00000000001000110111001110100001
00000000001110111110001010010111
00000000000011110111100100101110
00000000001011011010100000111111
00000000001110111010000101111010
11111111111111100101110001011010
11111111111011111001111101101110
00000000001010111011111011010001
00000000000001110100111011011111
00000000010001100000000001110110
00000000001001111001001010011110
00000000000100001001110011000001
11111111101111001011010001101111
00000000001011001111010011010101
11111111111001100110101110110000
11111111111100101110101001010111
00000000001000001011110000100001
00000000000101000011101110111101
11111111111011000001100101000100
11111111111110111110001100000000
11111111110010000010010100010101
11111111111000010100101101111100
11111111111011011010010001110000
00000000000000000111010010101001
11111111111011011001001011101111
00000000001010000111001010111000
11111111111111000011001010010111
11111111110100100010001000010100
00000000000101000001001000111100
11111111111001111110011000000011
00000000001101000100000001101111
11111111111111011110101000010101
00000000001111110101010111011100
00000000001111110110001000000111
00000000010010000010000111011011
00000000000001111101011110100000
00000000001101111001111100100010
11111111111111110001111101111100
00000000000101111101101001011100
11111111110111011100110110001001
11111111110001011101011111010010
11111111110001111101110000011001
11111111101110100110100100010100
11111111111011110101010000100000
11111111110000010001110100010100
00000000001110001101011110111100
11111111110000101110010011110110
00000000001101111101110101110000
00000000000011111110001100000110
11111111110010110101111010000101
00000000001111100101110111000101
00000000000110000100101011100000
11111111111110100001111110100001
00000000001110011110110111111101
11111111110000101000010000101010
00000000001101001010110001011001
11111111111110011001101110100001
00000000000000100001101011010000
00000000000110101011110000100111
11111111111000100000101001011011
11111111111111110000100000011011
00000000001101001011101000010011
00000000000111010010010011010101
00000000001000110101101001111110
00000000001111100111101011000111
11111111110100001100011111100111
11111111111100101010000010110001
00000000001111111100011001000100
11111111111001011111111101101001
00000000000101001101001100001001
00000000000111001111110101011011
11111111101111011011010110000011
00000000000000001111011101001001
00000000010000111001010101001001
11111111111100111010011111110101
11111111101110000110100001011010
11111111101111010110000111001110
00000000000010110001111111111111
11111111111010001100100100011110
11111111110011110100010011110001
00000000001110110110100111001111
11111111110101101010110010010011
11111111110010110100000110010001
00000000001100011010110110111010
00000000001101111000101010011010
00000000000110010000111000000101
00000000010010010000110110011110
00000000000000011101101001101111
00000000001101101110000000010001
11111111110101001001111100110010
11111111110001000110111001111000
00000000000010000010111000000101
11111111110011110101110010101101
11111111111111011110111111111111
11111111111110001010011111010111
00000000000010110100000110001001
11111111111011100000111010010110
11111111111110101100011110010110
11111111101111011001011011100111
11111111111000010010101000010100
00000000001000011001011101100010
00000000001111111001010100110100
00000000010000000011100011100100
00000000000011011101011001011111
11111111111100011101010011110000
00000000001101111111111001001101
00000000000000110100101101110101
11111111111111101010010111001100
00000000000000101010100100000010
11111111110100101010111001011011
11111111111010101000101001110011
11111111101111100000101000010100
11111111111110010010010101001101
11111111101110010110010011000100
00000000000010110010010101000101
11111111111111111101111111010111
00000000000110011110001110010100
11111111110100100101110101100010
11111111111111111000001101010011
11111111111010111001110101100000
11111111110101000101010001000111
00000000001110010000100111010101
11111111101101111101101100110100
00000000001100111100010100111001
11111111111011011110010010000011
11111111110101110001000001111000
11111111101110001111101010100101
11111111101110101001110110000101
11111111111001101100010101100011
00000000001011110011000011110010
00000000000011101000000110011101
11111111110010101001001011101101
00000000001111011011000111111000
00000000001110111110110011000011
00000000000111100110010110111000
00000000010001111001100111110100
00000000001100001011100000000000
00000000000010100110000111001001
00000000001100101000110101110000
11111111110101100101001011001110
11111111111101101000011001001101
11111111110110011110000001110001
11111111111100110010000001010010
11111111110001100001110011010001
00000000001100011011100100001110
11111111111000110001101011001111
00000000000101101000100000101011
00000000010000110001010001101101
00000000000110001011001011011000
00000000000000111101111001011100
00000000010010001010010110000001
11111111101101111010000100110111
00000000010000111011111001101100
11111111110000001001011001100100
00000000010010001000000001101001
00000000000001011101000010111000
11111111110100110001110000100000
11111111111001110000010010100100
11111111110110100111000101010011
00000000001010111101101111011111
00000000001111101101010110111100
00000000001011000011101011101000
00000000001101010111101111010110
00000000010001101000010011100011
11111111101111111000100110000010
00000000000111101100000001100111
00000000000001011111110010111000
00000000001011000001010111110011
00000000000101001010010000011011
00000000000000100000101000011101
00000000001100001010101111110001
11111111111000100110101100011000
11111111110010000100010111011000
11111111110010111001001101010110
00000000001101000111111000011010
00000000000000011000101001100011
11111111110001001000101011010110
00000000000110010100101011001100
11111111111111011001111110110011
11111111110101001001110001110111
00000000010000000001011010000000
00000000001010100111101010011110
00000000001111011110111011011010
11111111111101000001011010101001
11111111110100101100100000111000
11111111110000100010000001100001
00000000000010001000110001101100
11111111110011001011110101000100
00000000001010111010000111101110
11111111101111011011000101011100
11111111110010111111000100011100
00000000000010101001111110001001
00000000000100011110011000011100
11111111111101100101110110100100
11111111111100001100010101010101
11111111110110101110101110110111
11111111111010101101100000001101
00000000000010010111110010110110
11111111101111100101100011000001
11111111111100110101001000100101
11111111111101000111000010101000
00000000000000011001101010010000
00000000001101100101110010101100
11111111110000101010111011010110
00000000000110010100010010101101
00000000000110110001110110111011
00000000000101000100110110110001
11111111111010110000101000011100
00000000001010100111101110000101
11111111110011000011110110000001
11111111111000101000011101101001
11111111111111100000100101010101
11111111111101010011110111110001
11111111101101111010100000110111
00000000001001110011111011000000
00000000001010110011011011100101
11111111101111110000111011101010
00000000000000000010010000000011
11111111110000100110111111010000
11111111111100101011010001010110
00000000000010001011000110010100
00000000001111111001111001101001
00000000001100110111000101001110
00000000001001011011010100001100
00000000000010011010000111001111
11111111101111001000001000001100
11111111111010000110011110010010
00000000010000010011010001101001
00000000000001100000011000001110
11111111111011111000010001010010
11111111111001101100010001011100
00000000001000110101000001000001
00000000001011100000001101010111
11111111111110011001111000101000
00000000000101010110110000100011
00000000001101011101110100000011
00000000001100001111100001101000
00000000001001011111000001010000
00000000001100011111001000110100
00000000000110101001111001010000
00000000000101000000101110111000
11111111101110000000010111100111
11111111111100011010001001101101
11111111111010100010110100011111
00000000000100000110011001001001
11111111111010110000010010011101
11111111101111010100011000010100
00000000001111010011010000110001
11111111111000000100110010011101
11111111101110101000101011010111
11111111111000011001010111111101
00000000000011110101001100100101
11111111111001110010001101111111
11111111101101101111000100011111
00000000000110000101011000111110
00000000000111000011001000111000
00000000010001000001011010110100
11111111101101111011010100000111
11111111111100100010010001000010
11111111111001000010000010001011
11111111111001101010100001101101
00000000000000011001010010100000
00000000010001000011000111010011
11111111111110000101101001010011
00000000001111101001111001110111
00000000000010100010000010011011
11111111110110011110011011010110
11111111111110001111011001011000
00000000001001011010010010111111
00000000001010110011111110001110
11111111111001111011101101101101
11111111111101110000110110000101
11111111110000101101011101111101
11111111110100010110110000000110
11111111111011001010110000000101
00000000001010111001011001000000
00000000000001001000001111101001
00000000001001101010010110110110
11111111110000101111011000001100
00000000000011101111011101100010
11111111110001001110001111100100
11111111111010101001101111101101
00000000001110111011010011111000
00000000000000110000110101010111
11111111110010010011110010000010
11111111101101111111100000100000
11111111111010011110001111111111
11111111111000110101000101110011
11111111101111000001100011010001
00000000001010000000011001111111
00000000000000010111011100111000
11111111111101001100010110011000
00000000001110000111111010010111
11111111101110101011011001010010
00000000000101110101100101011111
00000000001101100010101011100011
00000000000011111100100100010011
00000000001001110011100011010010
11111111111001100000101001100000
11111111101110110010000011001010
00000000010001000101010111110110
11111111101101110110010110001100
11111111111000100010100101100010
00000000010000100100100011110101
11111111110111001111110101111001
11111111111100011000100011011000
11111111110110100111110011100011
00000000000011101110101101110011
11111111111001011010100100111100
00000000000110110100111001010010
00000000010001110101001001011101
11111111110010010000111001110001
00000000001011111110001000111010
11111111111011011001100011101111
11111111101101110001101001011101
00000000000111111100110001110000
11111111110011110001001101011000
00000000001010110000100101011010
11111111111100110100001011111000
11111111110100111101011110000000
11111111110000000100111101101011
00000000000011111011110001100011
11111111101110011000001100000111
00000000001010000011001100111000
00000000000110111111010111110100
11111111110000011110111110001000
00000000001001100011110100100111
11111111110001100101100011011001
00000000000001110110110010000101
11111111111010101110011001001100
00000000001100001110100011110011
11111111110000100010011110100001
11111111111010001111101100001111
11111111111001100000111000011111
11111111111110011011001001101000
00000000000001110110100100100110
11111111110100100011111011110101
00000000000010011111010111000110
00000000000000110101000011000101
11111111110110101110000010101100
00000000000100010101110001100101
00000000001101011011101010101010
00000000001001011010011011000001
00000000000101111001010001110011
11111111110111111100100011111101
11111111110010110000110011000110
00000000001010111011011100001011
00000000000010110100100010000000
00000000000001011010110110111101
00000000001001010100001100001010
11111111110111100100111100010001
11111111101101110110000010111100
11111111110011011100100100000011
11111111101110111000000001101111
00000000001011011000011000100101
00000000001011001000100001101001
11111111110111100111110111110000
11111111111011111001111101111001
11111111111100001011011101100000
11111111111000100100000001010101
11111111110011011101001110110110
00000000000101110000011110000011
11111111111001100001011011010110
11111111110100000101110000000110
00000000000011011011011000001010
11111111111000101010000101101001
00000000000011100111011001011100
11111111111111010011101110001101
00000000000101111001011000001110
00000000001100000010101001111000
11111111101111111011011110101010
11111111110111010100001111010000
00000000010001111011011010101100
00000000000000110011111111010010
11111111111100111111101010011000
00000000001110011100100010001011
00000000001111111011010111000110
00000000000110011011000010011111
11111111110001100101111101101110
00000000010001011100010001101000
11111111101111011100100011100110
11111111101101110110001100100001
00000000000010110001010000000011
11111111111010101001001001011001
11111111101110111111010011000111
00000000001110001101101000110101
00000000000010001101110111101101
11111111110110001011111110011100
00000000000110011010000010101110
00000000001101010100000011001100
11111111111110000011111100011011
00000000001101011111101010000100
00000000001011010100110111110000
00000000000011000110101111001111
11111111110110010011000000010010
11111111110010000000101110010011
11111111111111101111001011011000
11111111111011000111110101111100
11111111101111100010000000010011
11111111101110111000010101101100
11111111110100011001001010000010
00000000000000010110011110000101
11111111110111101110111000101011
11111111110000101000101111101011
11111111111100110110000010001010
11111111110111111100001101011011
11111111111011100101101010101001
00000000001011000011111001001001
00000000001010100110101010111000
00000000001011111011010101001010
00000000010010001111100101001010
00000000000001010000110000011001
11111111110110010001101111100101
11111111111110000101110100101100
00000000000010111010111111111001
11111111111001011110011110101001
00000000001110100100111011001110
00000000001001100110110000110010
11111111110010101111001011011111
00000000000001101110110111101000
00000000000001101110011001101011
00000000000101101011000101101101
11111111110011110011101110001011
00000000010001111111001110001101
11111111111001101011000001110110
00000000000110111000011010101100
11111111110110111100111001101110
00000000000110001110000001000111
11111111111001101010010001010101
11111111110110010101000010100111
11111111101111101001001010000000
00000000000110011100000110100111
00000000000010100000100000001010
00000000000101101001010001100110
11111111110101111101011010100111
00000000000011111001000111000101
11111111111000100001011001111111
00000000000101000101011111101101
00000000010001000100101001001000
11111111110000101011011000100010
00000000000111000000110110110101
11111111110100001101001101110110
00000000000101100110100001111011
11111111111100000000101011101000
00000000000111011101101100000001
11111111110010010110100100110010
00000000001100110110111000010011
00000000001010010101000011010101
11111111110011011011011010000110
11111111110011000110000011010101
00000000001001111111011111100000
11111111110001101001100000111100
00000000000111001001000011110110
11111111110110111101100111011001
11111111101111100111010101100011
00000000000101101011000011111011
11111111111000010100010110011011
11111111110011111011101101111001
00000000000101011100010010111111
00000000001000011101000010101000
00000000001110110001110111001100
00000000010001111000011001011101
00000000000110010101000010011000
11111111111010101101110101011111
11111111111100110111001111000111
00000000001101110011011101011101
11111111110001110010010000011000
00000000001101001000101111101101
00000000001000011011111100111110
00000000000111000001100110011100
00000000000101101010000100111100
11111111110000110100010101010001
00000000000111010011111011110010
11111111111110111001010011010100
00000000000000001111010001011101
11111111110111100000011101001000
00000000001101001101111010100111
11111111111100111100100010000000
00000000000000001001100000011111
11111111110000011000011001011101
00000000001110000010101011010001
11111111101111000111110000010010
00000000001011010100010110011101
00000000001000000001000011100110
00000000000010110010001011111100
11111111101110010010111100010101
11111111110111100100011011101001
11111111111110110010010111100011
11111111110010011101001011010001
11111111111010000101010011000000
11111111111011110111010000111000
11111111111010010010100011111011
00000000001100101110001101111111
00000000010000101110000000110100
11111111110111110011111011010111
00000000001001011100010100010110
00000000000001001001011110111000
00000000001101011000101100001100
11111111110000000011010101101110
11111111110110111100001101110110
11111111111100010101100011101011
00000000010001100011111100100100
00000000001110011110001111110100
11111111111011000011010010011000
11111111110100101110100111001011
11111111110110110111110101010001
00000000000010001111111011101101
00000000000100001000110011111100
11111111110110101111111100110100
00000000000101001001110000000111
11111111111101111000101011111001
00000000001101100110111111010111
11111111111001000001111000011010
11111111110101101110110101010001
00000000000010110011110111000001
00000000000000111100010111101100
00000000001010010100110110101111
00000000010001110110011110110001
11111111111000101000101100100010
00000000010001000000010000101110
00000000001000100101101110010110
00000000001111100100010100011011
00000000000101101000100110000000
11111111111101010001000001110101
00000000000010100000100110011111
00000000000000011110110000011000
11111111110010011111101011011100
11111111111001111010011011111100
00000000001101110110011000001100
00000000000011100101010100011010
00000000000100110110111101110110
00000000000001110001010000111001
00000000000011111100011111111011
11111111110011010001010111011110
11111111111100100011100110111101
11111111111100000010110111011101
11111111111001110000000000000011
11111111110100011100010011111001
11111111111110000110000000100011
11111111111111100100000010110000
11111111111010000001010001101101
11111111111011100001111101011011
11111111111010011000101000000011
11111111111101000101010110111101
11111111110001011001101110010000
00000000001110111001111000000111
11111111110110001110111100101100
00000000001001100001100011011111
11111111101111111001111001101001
11111111111111001010011110111010
11111111111110010011111110001111
11111111110000011100101100101010
00000000000000111100110001011010
11111111110010010110011110111001
00000000000110011101111101011100
00000000001011011100010101101010
11111111111101001011000010110101
00000000000011000001111100100101
11111111110110110110010000011001
00000000000110100111101000001001
11111111101110101111001000010110
00000000010010001101101100101110
11111111111110111110000101000011
00000000000011110010101101100011
00000000001111011111011111010100
11111111110000110110101010001111
11111111110110011110011010001001
00000000000011010001111011011111
11111111101101110000010011100110
00000000000100001010001100110000
11111111111110011100100001010110
11111111101110110110010000010001
11111111111011011100110000100111
11111111110010100111100011001001
00000000000001110001000011011101
00000000001101011110011000011100
00000000010001011001111101100100
11111111101110111001101110111100
00000000000110100001010011100000
11111111110001111011001111001010
00000000000110011111111101011111
00000000001010000100001011010110
11111111101110100101000111101101
11111111110010110011010010111110
11111111101111100110101000011011
11111111111110010010010001100101
00000000000110101100111000000100
11111111110010100101100011011011
11111111111110110011110110110010
11111111111001101000100110101101
00000000010000100101101101111011
11111111101111001111000001011110
11111111110101110110011100100000
11111111111111110101000010011000
11111111110001110000000000000100
00000000001110000100110100101001
11111111101111001100110100100000
11111111111010000110011100001010
11111111111000010110100111100001
11111111111111110101010001101010
11111111110111010011111110110100
00000000001101001000001010010011
11111111110000010000100001011110
11111111110110010110101101101110
11111111110111101000010111011000
11111111101110100001011110000101
11111111101101110111001111100011
00000000000110011100111011111010
00000000010001001110001101011000
11111111111101001101000100110100
11111111111000111001111100111000
00000000000111111111100110010101
00000000001010110001100101101100
11111111101111100101101101110010
11111111110111010001001111111000
00000000001111011101001011000001
00000000001000001000111001000100
11111111101111000001100011100100
00000000000000010101111000010000
11111111110010001001110010010010
11111111110001110110101111110001
11111111110110111010101111100101
00000000010010001001100010110101
11111111110101011101001110001010
00000000001100100100011001001011
11111111101111011001111101000001
11111111111110101111011111011111
00000000010000100010010110100111
11111111111011111001001110100001
11111111111001101100101010100110
11111111110111111010100111101111
11111111110010110010001011000101
00000000000101110111011111010101
11111111110010101010111001100001
11111111110100010111101010100110
00000000001111111000100110011000
00000000001101100110110101001010
11111111110110011100000101001010
00000000000000011000101101001001
11111111111011000101100011110100
00000000001101111010111011010111
11111111101111100101010100101011
11111111101111100100100011010110
00000000001000111100110101001101
00000000000000110111110001011101
11111111111010101001101010011100
00000000001001010111011010000100
00000000000111100000101000101001
11111111110011100011110111001100
00000000001010011100100111001001
00000000001010100111100110010011
11111111111101011010100000111100
11111111110000001011100000000010
00000000000111101011011000111111
00000000001010111001001011000000
11111111101101110101011111101011
11111111101111000101001101000110
11111111111101110010101100010010
11111111101111111101101111100101
11111111110110110111011100111001
00000000001110010001010110010010
00000000000011010110000010000111
00000000001010111011001001111000
00000000000100010011100111000101
00000000010001111000010010100011
00000000000111100100010100100100
00000000000101011000100110111011
00000000001101110101111100001111
11111111111000101111001100101000
00000000001111101011000001011011
00000000000001101111011111011000
00000000010000101111010010000111
11111111110101000110010010111001
11111111110011100101000010010101
00000000001101010011100010010011
11111111110101011110000101010000
00000000000011100010001001000010
00000000010001010100101010010111
00000000000011011010110101001000
11111111110011000000110000010011
11111111110100110111011100111000
11111111110101111010001100100000
11111111110011100110010010100011
00000000001001110011101100110101
00000000000010101001101011000011
11111111111110010110100010110111
00000000000101000101111010100000
00000000001010101100001001111110
00000000000001100111001110001101
00000000001011110111101111011101
11111111111101100010110000111101
00000000000111000100000011000110
00000000000011111010001011110010
00000000000000001010000110110000
