11111111110011010000111100101000
00000000000110111100010110001000
00000000001110110000111001001100
11111111111000101110010100010111
00000000001001111011101101011001
11111111110001101001011100110000
11111111111000110001111110111000
00000000001101101110011000101110
11111111111101101001100000101001
00000000000111101100000100111001
11111111110101000000100011101000
00000000000101111101001100010111
11111111111011111101000100111100
11111111111111100110100110000101
00000000000110101111111111000010
00000000000100101001111110010001
00000000001100101000011000101010
11111111111110111011000100101001
11111111111010011000100011111011
00000000001101100111010000100011
11111111111111110000000000101001
11111111110000100111010001000001
11111111110011110010101101010101
00000000001011010010001101000011
00000000001000110001010110001101
11111111110111010111011000001101
00000000001101000110001011100100
00000000001000111000001011000101
00000000001000000000110001100001
00000000000000111101010111001001
00000000001000101011111101011101
11111111111011110101011100111011
11111111110000010100011010001100
11111111111011010001010100110110
00000000000011101100011010000111
11111111110110110011000010101010
00000000000111010111001100000111
00000000010000101111110001111010
00000000000111010100000110000010
00000000001011111001111100000101
11111111111110001111110000111110
11111111111111001110010001111101
11111111111010110001111101101011
00000000001111111100111111001000
11111111110010010011111001010000
00000000000111111101011011111111
00000000000111010110001110111111
00000000010000110101110010000001
11111111111101110010101001001001
11111111111000000100010010000001
00000000010001101111110100000111
11111111110011000101000011001110
00000000000000001101001110101101
11111111110100110010000011001010
00000000001101000110011110011000
00000000001100001011010100100000
11111111110110010001000110010000
11111111111110101100110110100010
11111111111111110100101001101000
11111111101110111100001111101000
00000000010000110100011010000010
00000000000111100111001010110000
11111111111111111111110110101011
00000000001111011101000111010110
00000000001001001100010110010011
00000000001000001100111111101010
00000000000111100001110111011100
11111111111001101001011100000000
11111111110001010001011110011011
00000000000110110010000101000110
11111111111110100101111111000011
00000000001001010000111011010011
11111111110010110011100010101011
00000000000001101110001111101001
00000000001101101010010001010010
00000000000011001001111100110010
11111111110011001000100001101100
00000000000101011100010110111000
00000000010010000110010001001101
11111111111010011111111010001000
11111111111100111101011101111001
00000000001010101110101100000010
00000000001011110100001001100100
00000000000110101011101001100011
00000000000011100111111101101010
00000000001101100110110101001000
00000000010001000111011010011101
11111111101111101101101011001001
00000000001011101100110111110111
00000000001101110100100001100011
00000000001010001011010110001111
00000000000111001111011111011001
00000000000110010000110011010100
00000000001101110111011000100001
00000000000010010011101001001100
00000000010000100000100101010010
11111111111101001110000101100110
00000000001001110001011011111111
00000000001110011100000111111000
00000000000000111000001101001101
00000000001101110101111100001101
00000000001011101000001100110000
00000000000110110011110101101100
11111111111001001011100100000001
11111111110010010011010101000101
00000000000111001111011001111111
00000000001010110010001101111100
11111111101111100110011010101101
11111111111111101011100001110001
00000000000000000000010010000101
11111111111100000110000001110101
00000000001010101110100010101110
00000000001111101011110011111101
11111111111001100110111000100001
00000000000111011010101001100110
00000000001101100110000011001000
11111111111110100011101110101000
00000000001001110101010100011000
00000000010001110000010111010111
11111111111110101010110010010001
11111111101110111100100111110001
11111111101111110101110010101100
00000000001111000100011001100100
11111111110100001001110011011010
00000000010000110110001011001001
00000000000011100001010101111011
11111111110001110011011100000010
00000000010001110100101100000100
00000000001101111110000111000000
11111111111010101111001010001101
11111111111100101001000110111000
11111111110101110011000001100111
11111111110110011001101010101100
00000000000100101100110011000000
11111111111110111101001011110001
11111111110011101110101001000000
11111111111100000010010110110100
00000000000111000101111001001011
00000000000100100110101010001011
00000000000011111010011001011000
11111111110100010000011000111110
11111111110111101001001001110100
00000000000101000100011001001100
00000000001100000100001100011110
00000000000011010010001010101000
11111111110010000011001101100010
00000000000110100101000101111111
11111111110100100010010010100000
11111111101110111100010001110100
00000000001100111110101110000111
00000000001010110010010011100101
11111111111100111101000100010101
00000000001011011001001111011110
11111111111001000110100001101001
00000000000101110010010101001000
11111111101110001001100101011000
11111111110111010000000011101010
11111111111100011001101011100011
00000000000011110011011101111001
00000000001000100001011100100011
00000000000010111100101001001011
11111111110110111000111000101101
00000000001110010110001001000101
00000000001010101100100011101111
11111111110101101101010101000110
00000000000000101111010011111110
00000000010000111011101110000100
11111111111001110011011010010100
11111111101101111001111111011111
00000000001101011011011110011000
00000000000111100100110000110100
00000000001001100101110011100011
00000000000010011101010101110100
11111111111101001001011010000010
11111111111011111000100000101011
00000000001000011000001111011011
11111111111011010001011111001100
11111111110111100010111100110110
11111111111111010001100101110001
00000000000101011100001111111110
11111111101110000100001000110110
00000000000000111000010001000111
00000000001000011001000001000000
11111111110101000111001101100001
00000000001100000101110001001000
00000000000100000101011111111010
00000000001010000111001101100111
00000000000111011111000100010110
00000000000000010011100011011100
00000000001000101111011000001010
11111111110000111011001110000101
00000000001101001101000101011100
11111111111101010001110011011100
00000000000000001010001000010101
11111111111000010011010101010011
11111111110011011010011010011001
11111111110101000001000000100101
00000000001000111011010001100111
11111111111011001010111000110001
00000000010000000110110110000000
11111111111100010001101101010011
11111111101101111001010000001111
11111111110110001001011100011111
11111111111111000100010001011101
11111111110110010110111000001110
11111111110110011110000010000001
00000000001000011101110011011100
00000000000111111000000111001000
00000000000000000100001101101101
11111111110001111100100111001000
11111111110001000101010000101000
11111111111111001000000010110111
11111111101110110010000100100010
00000000000100011001011010001001
11111111111111111100011000110011
00000000000011000111010001001100
11111111111110011110111010111111
00000000001011010010010101110111
11111111110110000101010111001100
11111111110000001101001101010100
11111111111010100001000010011101
00000000000111100111011110010011
11111111110000101100011000100000
00000000000010100111110001010110
00000000001110001000101001010011
00000000001011011111010101011011
00000000001000010000100010110100
11111111111001110001001110000001
00000000000100001110100100011000
11111111111111011100010110001011
00000000001101010100101011100110
00000000001001100111010110000110
00000000000101000000110011001010
00000000000100001000110110010111
00000000000110000000101011110011
00000000000100011111111111100010
11111111111101001111110010001000
11111111110011100110010011011100
00000000000101101100001000110101
00000000000010010001100011111100
00000000001100011100101110101100
00000000001010100100011011011010
11111111110001001000001001110101
11111111111101101011010010110111
11111111110001000011001011111110
00000000001111011001001000010011
00000000000001111101011001111100
11111111110011011011000100111101
00000000001111111100010011110001
00000000001100011011111001101001
11111111111100000000001011001000
00000000001001001111010101111011
11111111111111101111000000111100
11111111111110101010110100110001
00000000000111101111101101010000
11111111111110011011110111011101
11111111111000100011111011000101
00000000000101011011011000100001
11111111111001111010100001000111
00000000001010101011100101110111
00000000010000010100000011001001
11111111110110111110010001111001
00000000000100111111111101000010
00000000000011010110011010110100
00000000001001000100011100011101
00000000000000011110000101010001
00000000000000101010101100100111
00000000000100100111111101011011
11111111110000110111011011110110
00000000000010101101110101110111
11111111101101111101010001001001
11111111111101110110111011110111
00000000001010100101010110110011
11111111110110111110110111110110
11111111111101100010010010011111
00000000001110111111101000101111
00000000000110100000010010000010
00000000000000001001000000010000
00000000000001101100000010111101
11111111110111011110110001011111
00000000000010101001011100000101
00000000001110101001100011011100
00000000000110101001011110111111
00000000010001111111001110100110
00000000001010001001111101111001
11111111111100100010011001111101
11111111111101001111111100100010
00000000001000101010010011110100
00000000000000101101111010011001
00000000000101001111000010001000
11111111101111000101111100010111
00000000000011110001110011110011
00000000000010010110101110011011
11111111101111000011000111010101
00000000000011001001010010001111
00000000000110110011011000100111
11111111111111100010111101010101
11111111101111000110111101111110
00000000001111111101011110000011
11111111110000101110000011100000
00000000001010110101110010011101
00000000000000101111101000000011
11111111111011000110000101010000
11111111110011000000011100101010
00000000010000000011100100110011
00000000001110011001011100110000
11111111110011110111111010000100
11111111111101011001101001011110
11111111110011110110010001000100
11111111110110011110011100110111
11111111111110000101001011110011
00000000010000011100100110011101
11111111111111000101111100101110
00000000010001111100110001011011
11111111101101111001110001111101
11111111111100010000010110011001
00000000000010100110000001011011
11111111110111100011001001100100
00000000000000100100010100011101
11111111111111111000101010000100
00000000001100110010001110000010
11111111111101101010101011010011
11111111111101000110111000001101
00000000001010011100101100101111
11111111111001010101110000001111
00000000001011110111011110001011
00000000001111011011111011110111
11111111110101010000101001001001
00000000000010010000101100000111
11111111111011011000101110110001
00000000001110010011000101111111
11111111111101101011010011010111
11111111111100100001100111111001
00000000001011110111101110011011
00000000000010110101101010111000
00000000001100000111011001110100
11111111111001000110101000000011
11111111110000000001111111100000
00000000000011000001001101010011
00000000001111010000100100001011
00000000001101110011100000100100
11111111111000000111001010100011
00000000010000001100101011001011
11111111110100101000111010110010
00000000010001000111010011001101
11111111111110111010011110010001
11111111110110101000111000111111
00000000000100000000001111011000
00000000001110111100000100001000
00000000001011100101011101011100
11111111110110100100100111011111
00000000000100100011010111010000
00000000000111000110000001011101
11111111111011100110100000011111
00000000000010000100101000000100
00000000010001010001000001110101
11111111111011001001011111000000
00000000001110001010110100001000
11111111110000011011111101100110
11111111111001001100010100011001
00000000000100001111001101101100
11111111111000101111111101011001
11111111110010010010100011100110
11111111111100111110111010110111
11111111110111010010011001110100
00000000000111011000111001001111
00000000001000110010010001100111
11111111110011000101011111110110
00000000001010000011101000110111
00000000001010111010010001001011
00000000001011110001000001101111
11111111110100010011100001100000
11111111110001011111111110111100
11111111111111011000000010110010
00000000000110010110011010010010
00000000001000010100101011101111
11111111110001111100011000010000
00000000001111000010000011001000
00000000010001101100111101000101
11111111111110100100000000101111
00000000000010111001011100000011
00000000000011001011111101011100
11111111110010011100000111111010
11111111101110100110011101100010
00000000001011010100000111010000
00000000001110101111111001001100
11111111111111100001110100110011
11111111110000000110011001000000
00000000000000110000000100001100
11111111110100000001110010011010
00000000000110010000110010010010
00000000010000101101101010011111
00000000010010010000111111001010
00000000001111000100100111101100
00000000000100001100101101001111
00000000010001111101010100000110
11111111111100011101101101010101
11111111111111011001001101011001
11111111110011011100001000100001
00000000000111100110110010010001
00000000000111001001001111010000
00000000000111011010000010000110
00000000001101001010100110010011
00000000001111110100001100111100
11111111101110101110001101110010
11111111111010110100011000001001
11111111110001011000011110110111
00000000001101111001010110100011
11111111111111011011010110001001
11111111101111101111011100100010
00000000000111110000101110000110
11111111110100110010101011001101
11111111111111101010010100011100
00000000001001110000001100000111
00000000001010001010111011000000
00000000001011010111010011101100
11111111111111101010110101010111
11111111111110001101111110010111
11111111111111001001111100011011
11111111101101111110101100000010
11111111111001100000000100110111
00000000001101111010100110000000
00000000001001010110110101101111
11111111101111010001010011001100
00000000000100100011111010011010
00000000010000110011001100000001
11111111110001011101011011100101
11111111111110001010101111001001
11111111110110001011000001001000
11111111111111101111001010001011
11111111111000000001100100110010
00000000010000000001000110100000
00000000001001011111100111000110
11111111111100011101001111101100
11111111110000001010011101111011
11111111110110010001010000101100
11111111111110000100011000111010
00000000000100111010111110000100
11111111111000100110111111110010
11111111110100110011001101000001
11111111111101110000010100101100
11111111110001011100111001101010
00000000000100000100100001011101
11111111101111100100111101001001
11111111111100111000111001111111
11111111110000101011110010011100
11111111111000110101011011010100
00000000000000001100101110001101
11111111110111001001000010100011
11111111110100000001000001100101
00000000000010000011111110010111
11111111110110101101111000000001
00000000000000111111111110000001
00000000000011111001010000000110
11111111111110000100001000010000
11111111110000000001001110000101
11111111111010110010011110111000
11111111111110001001011100000101
00000000000101011010000000111110
11111111110001001111110110011100
00000000001100101101101101111100
00000000000100011101010100001010
00000000000010000101111111110000
00000000000001000100011000001011
11111111111100111111011111011001
00000000000110100111010110101010
00000000001100101111010110011010
11111111111100010001100100101100
00000000000111110100001001010001
00000000001010101001101101101010
00000000000111100000000100010010
00000000000000000101100011111001
00000000000110010110001010011000
00000000000001110001111010001000
00000000001011100010110101000000
11111111111010100110100110001111
00000000000010100011000010010111
00000000000010111111101001000000
11111111101110100110101000111110
00000000000100101001000000010111
11111111110011010110000000011100
00000000001001000100111000010011
11111111111100010110111000010101
00000000000100110111110101011101
11111111110001101101001110101100
00000000001000001111010000010111
00000000001011110010001110110011
00000000000110100001110010011000
00000000000101010111010010101101
11111111110101011011111110110100
00000000010000011001001101111011
00000000000101000100110111010111
11111111101110110001011000010110
11111111111111101000100101110000
00000000000000100001010001100111
00000000000110010000011001101100
00000000000011011001010010010000
00000000001110010100111111111011
11111111111110000100011000011011
11111111111100111111010000001111
11111111111111001100100001110010
00000000001011000011101111111001
11111111101111111101011101100110
00000000001110010010001001111100
11111111111001000010000000001111
00000000001001111101111001100000
11111111110011101100100100110000
11111111111001011010101101101100
00000000000000101011000001011011
11111111111101110111111010001000
11111111110100010111001111111011
11111111101111100000000001101000
11111111110000110010100101101111
00000000010001001110111010110101
00000000001001000110000111010110
11111111111010000101000101110000
00000000001011001111111111101100
11111111111101100001101001011001
11111111111110111110000010011010
11111111110100111001001001011000
11111111110100110000011001111110
00000000001100010000010011010011
00000000010010010001100101010011
11111111101101111000100000001101
00000000000010010001101100100111
00000000000100000110011111010011
11111111110110000000111010001101
11111111110111111001000111111101
11111111110010011000010110110000
00000000000100111110011100011010
00000000010001011111111010000000
00000000000110011111010111001101
11111111111101000010100001010011
00000000000100010011111100000001
11111111110100000111010001111110
11111111110110100101010101000101
00000000000101101111000101111101
00000000001111110101100101010001
11111111111111011101010101010101
11111111111010100111111000010011
00000000000001110000000101101000
11111111101101110000011100110010
00000000001011000011111001110100
11111111110100110100110111100100
11111111111001110110001001010001
11111111110000110110110110101100
00000000000101011000110100011001
11111111111000000011101100111001
00000000000001010101010101110010
11111111110100110111000111010001
00000000001001011011101001000011
11111111110010101101011101011000
11111111110000110011011010001010
11111111101110110000110001100101
00000000001111111010100101010110
00000000001000100111001000010111
11111111110011001011110000000101
11111111111011011111011001100111
00000000001110000000111100010111
00000000000101100110101100111110
00000000010000100101110001111100
11111111111101010010110111011011
11111111111110001111000000000110
00000000001101101000010110110000
11111111111111001111101110011011
11111111110000011011011011001110
11111111111011110101110001100000
00000000001101100011001000010110
00000000000111100100111010010000
11111111111100010001111101110000
11111111101110000101110100100100
00000000001101011011101010100101
11111111111100000001111000101011
11111111111100001010010001000101
00000000010000100111000101000011
00000000001001111101101111001010
00000000000101101001111001101111
00000000000110001011111000011011
00000000000000010101111110010000
00000000000001011000011111011101
11111111110110011101110010000011
00000000000110011110111010100110
00000000001001000001111111111010
00000000001001111001101110000001
11111111110110101111011101111000
00000000000001000011100111110100
11111111111110110101100000000011
11111111110101010101110110110001
00000000000011111101110000001111
00000000001010001001111000001011
00000000000001100110100101100111
11111111110111101010101110011100
00000000001110101010010111101111
11111111110110011000110100111100
00000000000111001000001100111010
00000000000000001001101101011001
00000000000110011001011000000110
00000000000111000100011110110011
11111111101110111010100110101101
00000000000100011101100100100001
11111111111111111111001011111100
11111111110001010011101000100101
00000000001011011110110001010011
00000000000001101101010100111001
11111111111010101111000100111011
11111111111111001011111101110110
00000000001100111001101010111101
11111111111001001010110110000011
11111111110110000011101011100001
11111111111010010011110100001101
11111111111011100011100101110010
00000000000111101110011101010110
11111111111100100110001001111100
00000000001000011100011100101110
11111111110001011101111101110111
00000000000010010001001010001101
00000000001110001001100010100010
11111111111110000011110001000001
00000000001110101011111010110001
00000000000101101101101101111010
11111111101110100000011000101111
11111111110101011111000100101011
00000000001110100011001011000100
11111111111100111100010011000101
00000000010001011010111001111100
11111111101110001101011101011111
11111111110110001100101101100100
00000000001101111100001001010001
00000000010000110101011010001111
11111111101111010110101001000100
00000000000101111011011001011110
11111111101110000000000101011100
11111111110010101111110111000011
00000000001000001110000000101100
11111111110110111010100000110110
11111111111110100111101110011110
11111111111001001010111111101101
11111111101111100001100001011001
11111111101111100010100010000001
00000000000111100010100000110101
00000000001011001001010110111000
11111111111100101111000011100010
00000000001110110100011011000110
11111111110010010100110000010100
11111111111011010001111110110001
11111111110000000010010001000110
00000000010000110010111111111101
00000000000011011101001100000000
00000000000000100101000010001011
11111111110110110001100101001111
11111111101111100110010011000011
00000000010000000110111010011111
00000000001000001010001100001110
11111111111100101010010101001011
00000000000001000010100110010000
00000000000101001001010111101110
11111111110111010110010000110011
00000000010001110101011010010001
00000000000010110001100101111101
00000000000000111001010101100110
00000000001011011110000100000111
11111111110011101010101101101101
00000000001010101011100101011111
11111111111000010010100101011000
11111111110001101101110111110001
11111111111010101010110011010101
11111111111000110001010011101101
00000000010000101101101011110001
00000000000010010010110010110100
11111111110011011010010011101100
11111111110010011000000011110000
11111111110110110101010001111001
11111111101101111001011111011110
11111111111111001001100011110111
00000000000000010000110011011111
11111111101110111101101011100100
00000000000011011110111011101111
11111111111100000111011100101100
11111111111101000001011100001110
11111111110000100011101010110001
00000000001010000101110100011111
11111111111101010101001100011011
00000000000011001110111000011000
00000000000001010010000100001011
00000000000100100110001001101010
00000000001001000001011111010010
11111111111101010111110001010000
11111111111011000100100010000001
11111111111111000011100101010111
11111111110000110101001111000011
00000000000100000000100011010011
11111111111000101010010110011111
00000000001110000000011010110010
00000000010001011110010110100101
00000000000100100001011001000010
11111111111001110111100100111011
11111111111011000000110011110100
00000000001101110100110101011011
11111111111100011000111010011101
00000000001000110111000001000111
11111111110011000011000001010010
11111111111100101101100100101000
00000000001000011000010101111111
00000000001100111001110111000010
11111111111110111110111001011001
00000000000010000110101101100001
11111111111010110111101111101000
11111111110111100000011000101000
00000000010001011011101011101000
11111111111000010000111101100101
11111111111001100101110100010111
00000000001101010111000110001101
00000000001111000000100000010001
11111111111001101110000000011110
11111111111001001101111100100011
11111111110010101010001000000101
00000000001000111101110101000100
11111111111100011110000001100001
11111111111000011101001111111001
11111111110000101001101101101101
11111111111010100010001111110000
00000000000101111001011000110100
11111111110000100010100010000010
00000000001000101101011001001010
11111111110010000111100001000101
00000000010001100011100111001100
11111111110011011011001101011101
00000000010000101001000100010000
11111111111100111010000100010101
00000000001010100101100001010110
11111111111110100111011010011000
11111111110110111010101111001001
11111111111100111000111110101101
00000000000111100011111110110011
00000000001001110000000000110011
00000000010000010100011101101111
00000000000000100100011100100111
00000000000110111010000110100100
00000000001100000110001010100011
11111111111000011101100011001110
11111111111010000100101000110011
00000000001000011000010110110000
11111111111011011110011010101110
00000000000101001100010001111111
00000000000111111011000011000010
11111111111101001100100110011010
11111111111010110101110001101001
00000000010000101010101000111000
00000000000111001001111100110011
11111111101110001111110111010000
11111111101110110011110101110001
11111111111100111111111101011100
11111111110101000001000101100001
00000000001110100011010101110000
00000000001101011111111110000010
00000000001011111000110111101000
00000000001111000010000100011000
00000000001101101111111110110011
00000000001111000101110110111000
00000000000000101001111001111000
00000000001111110101011001001111
00000000000110000101100001100100
00000000001001010110011001100100
11111111110110111001101001011001
00000000000111111011110111000111
11111111110000101001101110110010
00000000000000010101001101010101
11111111110101110100010110101111
00000000000001101101101010000011
00000000000001110111010100010011
11111111111110000011000101101001
00000000010010001011111100101001
11111111101111000011011010001000
11111111101110000001011001010101
00000000000001001100001000111101
11111111110011111101111010100010
11111111110011110111010010001001
11111111110101000011011111110000
00000000001110101110110110111001
11111111110100010111011101011001
11111111110000111101010110001101
00000000001101000111011000101010
11111111110100001111011101011110
11111111111101111100110110000011
