11111111110011101001001000010000
00000000001111001001100100011100
11111111111011111110000111011101
11111111110000100000110010010001
11111111111101011101011110101110
00000000001001000010010111011111
11111111101110001110001001001111
11111111111110101000010011010001
00000000000111011100001010110110
11111111111000110111111010010000
00000000000001101010100101100100
11111111111000110101010101101010
11111111110011101110110110111010
00000000001110010100011111111001
11111111110011000001000010101001
11111111111111110010010001111011
00000000000110000101110001100111
11111111110101110001111111010000
00000000001000110101000100000000
11111111110000110100001000000100
00000000010001011101101011101011
00000000001000001001001100100111
11111111111101011010010100010111
11111111110000110010100000101010
00000000000000100100000101110001
00000000000110011111000111000111
11111111110110000100011010000011
11111111111101101100100111100110
11111111101101110001101110001001
11111111101101101110000011111110
11111111111110000000111001101101
00000000001111010011001110110100
11111111111111001000111010111000
00000000000101101110111001100000
11111111111000101100001101111111
11111111111010000001110111101110
11111111111101111111010111010011
11111111110110110000011000100011
00000000001011001100000111010100
00000000001011011001110010100000
11111111110001110010001110000010
00000000000101100110111100101111
11111111111000011100100011001001
11111111110101011111000010001100
11111111111101110001001110100010
11111111111010010101000001011000
11111111110101100101101001101001
00000000000010101100011110001101
00000000001010011011111101111110
11111111111101001011011010101100
11111111111110101110001000110010
00000000000001011000000100001010
11111111111000001001000010010101
00000000001001101011100100000000
00000000010000110111110011000011
11111111111110010101000010100110
00000000000001001111100011011100
00000000001110101110111100010000
00000000001110111110100010000111
11111111110010011001011011001010
11111111110111100010000010011011
11111111101110000100000010000110
00000000001011001100110010100011
00000000001110010001011010010111
11111111111001010110000011111011
00000000000101110111011001011000
00000000000100011011011110111011
11111111110000010001001000101100
00000000000111010011010101011010
00000000001000111110001111001011
00000000000000011001101111001100
00000000000001111000000000110100
00000000000100001111111100011100
00000000001101001011000101010101
00000000010000001010000001111011
00000000000010101000001100111001
00000000000111110010110101111001
11111111111011001101110100101100
00000000001010111001101110101100
11111111111000110011101010101001
11111111110000111011010110001010
00000000001000100101000100010111
00000000000110110010000010110001
00000000000100000001100101101100
00000000000111110001111010110111
00000000000010001011010000101001
00000000000110001110010010110011
00000000000111011100110111110010
11111111110110001000101100011001
11111111111111000001010010111100
00000000000010110000010111010011
11111111111101001110010100101111
11111111110000101000000010101110
00000000000001101111000000110011
00000000001011001011001101010110
11111111110110001110001000100001
00000000010001111100111111110010
00000000000100001010111001000101
00000000000111110001101110101111
11111111111000111100000110011000
11111111110001000010101100001111
11111111111001001100011101110101
00000000000000100011110000010001
11111111110111101010101110110101
00000000010000010010001101111001
11111111110100010010111110100101
11111111110011101011110010001000
11111111111001100000111001001010
00000000010000011001111011001001
11111111110111101000111000011001
00000000010000111010101010110001
00000000001000110010011001110001
11111111111101001110001011101111
00000000001001011101010001111111
00000000001000101100010111010001
11111111110110101100010101011000
11111111111100001111000100010110
00000000010001101101100100010100
00000000001010011110111100101110
11111111110111000100011010001001
11111111111011000101010100101100
00000000001010001111111011111001
00000000001001010010000111010010
00000000000001011100110001000010
11111111110100001110111111001101
11111111110010100000110101100101
11111111111100001000111111010011
00000000000110101110010001101000
11111111111110000011001111000101
11111111110000101101100010110111
11111111111011100001001011111110
00000000010010010000001000111010
11111111110000111000101111001000
11111111110001110011101111110011
00000000001011011111101011010010
00000000010010001100011100010100
11111111101110011010001110101000
11111111101111011101100011000111
11111111111010010010000100011000
00000000010010001110110100001101
11111111110101100111110011000000
00000000000001100100000011110001
00000000001110111011010101011111
11111111111001100001101101010110
11111111111010011001000111010011
11111111110011101110011101110010
00000000000000101100111011110000
00000000010001000100010100011100
00000000000111011110100010111000
00000000001100110110100101010000
11111111111110110010011101111001
11111111111101000110000111010001
11111111111100101110111011001000
00000000001010011011011110000000
11111111111101100110100010110000
11111111110000011000010110001101
11111111111001100101000011100111
00000000000111001001111111110100
00000000010001110100111111110100
11111111111100101011001101000101
11111111110000000101000100110001
11111111110010100010010011000100
11111111110001100111001101100010
00000000000111010111101111110000
00000000001101011110101001101011
00000000000101011010000110000001
00000000000110010011100000100011
00000000001011111010011010110001
00000000001100100000001001011111
00000000001010111010110100001100
00000000001010001110011011000111
00000000000100111100101010101110
00000000001001011100000011101111
11111111110011011100111111011010
11111111110100001010100001101110
00000000000100111010101111010110
00000000000010110110000111110101
11111111101111111011001011010001
11111111110010101011011100101110
11111111110001011100010111010101
00000000001110100001011110000001
00000000001011111101001000011000
11111111110110011000000001010001
00000000000010110000100100101110
11111111111011110010110100110111
00000000001111111001010111000011
11111111101111011100000010000001
11111111110010101010001110101100
11111111110000110001101010010011
00000000001010101001000101001100
11111111110110110110111111010010
00000000001010111001000010001010
00000000000110001011100110000011
11111111110111000011111110010010
11111111111011000100101111001001
11111111111000100110011001111110
00000000001000000100010011001100
11111111111000101010101011011000
00000000000110001101001010001010
00000000000001010011100110101101
11111111110001011001011001110000
11111111110100100000010110000011
11111111110011010100100011100000
00000000001001100101001110010100
00000000000011111101100101000011
11111111111111100010100100110001
11111111110101000111001010011110
11111111101101111000011110001110
11111111111001100001110110100001
11111111110010000000010101001010
11111111101101110011111101011001
11111111101110100011110100111111
11111111110100000011100100110111
11111111101110001110010100010101
00000000000101101100110011101110
00000000000110110101111000111000
00000000000111010111101101000110
11111111101101110010111111001001
00000000001011010011101010000100
00000000000011100100001010011100
00000000001001010110011010010111
11111111111011100000010111110000
00000000001000110001111111010000
11111111101110101010000101010110
00000000000110001110100110111010
00000000001110011111111111101000
00000000000111101011111100101010
11111111101110110000110111111010
11111111111010110111011110010011
11111111111101101110101010110101
00000000001001100101001011001111
11111111111001000101001010010101
00000000000010101000010100011000
11111111111001100101001010111001
11111111111101000110000101110010
11111111111111101000101101000100
11111111110101100000000000001011
11111111110011010011101101100110
00000000001111000110000111010100
00000000001111010111010001011111
11111111111111011100100100011111
00000000001111110100111101101000
00000000001110000101110011100011
11111111110100011110110110111101
11111111111000101110111110100000
11111111110011011100001100010110
00000000000101111010010111010110
00000000000000011101100110001100
11111111111101011111100000101011
00000000001101100100111001100000
11111111111000110110100100011111
11111111110101111111100000110111
11111111110011000000000100100110
11111111110110101100101001000100
00000000010001100111111101000111
11111111110111000111000001001011
11111111111010111101111111100000
00000000001000001111011101101111
11111111110001111101001011101010
11111111110100111001101011110110
00000000001101011101010101110000
11111111111000111111001001010011
11111111110110100000101110101111
11111111111101101000100101110011
11111111111101011001001111100101
00000000000011010101110111111011
00000000000110101101000011010011
11111111110001111001101001111110
00000000010000100111100000101100
11111111101110100111010110001110
00000000000110001100010110111010
11111111111010110101110010111111
11111111111000010001110010110011
00000000010001000110101101011001
11111111101110011000010000000010
00000000000001001111111011010000
00000000001011101101111001101011
00000000010000010110001110101000
11111111110000100010100111110110
00000000000010001101000000000010
00000000010010000101110110110111
11111111101110000101101010111101
00000000000100011101110110000011
11111111110100100010101110111010
00000000000010111101111110101111
11111111101111011101011000001011
00000000001000111111110010001110
11111111111011111100011000101000
00000000001010111011011010011011
11111111111111101110011001101110
11111111111101011001001100000010
11111111111011100011110111111101
11111111101111010000011100000011
11111111111000001110111010001001
00000000000000100110110111011001
11111111110001110110100111001101
00000000010000000011000010110100
11111111110100000110111000101110
11111111111000111000000100001111
11111111111101100011011111111100
11111111110001001011111111101101
11111111111111110110110000010000
11111111110111001100011101010000
11111111110000101100011011001110
00000000000000011100101101001001
00000000010000001100000010100101
00000000000100100000001011101010
00000000001111000101001111010100
11111111111111110100100011100100
11111111111001100111100001100101
00000000001110101111001100111000
11111111110110010000110011010101
11111111101111000101010111001110
00000000000100000000001000011100
00000000001001000111001111011010
11111111110101000100011100011101
00000000000110011011111001100010
11111111111001100000110011010111
11111111111101110010000000010110
11111111111011111100111000001011
11111111111100000101101011110100
11111111110001000111110010000001
00000000000100011110110100010110
11111111111011001100001010011111
00000000001101111110110101111001
00000000000011000011010101011000
11111111110001000010111010100110
11111111110010000101101100110100
11111111110110011110000101110000
00000000001000110000011011000101
11111111110100001100011010010000
11111111110111101000101000000100
00000000000011010100011101110000
11111111110011010100101001001100
11111111110110111111101110001100
00000000010000100101001100101001
11111111110110010101010001110000
11111111111001111010000110000001
00000000001101000100111111010011
00000000000100000110001111100001
00000000001110010110100011101000
11111111101111111000111111010111
00000000001001001000111101100100
11111111111101001100111111101110
11111111110100010010010000101100
11111111111000001010110001010101
11111111101110010100000000110101
00000000001100101001100100110010
11111111111100011111011100011100
11111111101110000100011110111010
00000000001111101000110110010000
00000000001011110110000000000001
00000000000111100011111001001001
00000000010001111001011001001110
00000000010000100000110101001101
00000000010001000101101100110101
00000000010000011000000001010101
00000000001110110111000100001001
00000000000100110010010111100011
11111111111110011101111111100111
00000000000000101100100000010101
11111111111000011001101001111101
00000000001000100101110111100010
00000000000000100001111001110110
00000000000100010100000110011101
11111111110100001110001010011101
11111111111001000111010110101011
00000000001101101101010111011100
00000000000001110001110100101101
00000000000110010011110110110010
11111111110000000010010101010000
11111111111000001010110110100111
11111111111111100010001101110011
11111111111110000101001100100001
00000000001011101011000010111100
11111111111010011110110100110110
00000000001111010000101101111010
11111111111100011101101010000110
00000000000111000111001011100111
11111111110011001000000101100001
00000000000011000110101000101111
11111111101110001011000010111001
11111111110000010011111010001000
11111111110100010011000000101101
00000000000101000111101000010011
00000000000001011010101101001001
00000000000001110001010000111111
11111111111101111111111111000000
00000000001111010111010101010000
00000000010001111010011010010111
00000000000111110001000000011100
00000000001110100010101011001111
11111111111111000110001010011000
11111111111001010001110001000001
00000000000011100011100000111011
00000000001100000001100000010011
11111111111101001011001000010111
11111111110001111101011010101110
00000000000110000010011110000111
11111111111011010101101011010000
11111111110111001100101010000110
00000000001011100011001011011100
11111111111111011000010001110011
11111111110101100011000010010010
11111111110101000011101110111101
00000000010001001110001000001111
00000000001011111001001101011010
11111111110010111000110101100010
00000000000000000000100011110011
11111111111111100110101011100111
00000000001000101101110101010101
11111111110000010101101100011011
00000000000000010001011001001001
00000000000110000101111011011000
00000000001001010011100011111110
00000000000001111010010111100101
11111111110110111011111011000111
11111111101110011100100000100011
00000000001001111000100011100010
00000000010000101100011011011000
11111111111010011110101010101111
11111111101111101010001010110110
00000000000101010110011010001011
11111111110011001011100000111011
11111111110100000011011000000101
00000000000100111111000000001110
11111111111110010000110111011110
11111111111110110000011001011000
00000000010000011001101011111001
11111111111100110010101110101011
00000000001011001000010111010110
11111111111010010011110001111010
00000000001101100110110100001000
00000000000101100101000001011010
00000000010000010010110101101110
00000000000110011000001010111111
11111111111001100001011101101110
00000000000111111110000100101101
00000000001111100101000011101110
00000000000011011101110011101110
00000000001000011011100010010000
11111111110011001000101011010100
00000000001001111010000110100111
11111111101110101101101111011110
00000000010000001010100011101100
00000000000111100011010110110001
00000000000001001101000000111100
11111111101110111000101010101101
00000000010000101000001101100101
00000000001011101010001110001111
00000000010000110110110110010111
00000000000111001100000011010101
00000000000110001010001000000100
11111111111011010000110110110110
11111111111000100000011010100100
00000000000111001111111001111010
00000000000110010101110111001000
11111111111111011010000011110011
00000000000010111010001001001101
00000000000110010010000000100101
11111111101110010101000101100011
11111111101111110101000100001100
11111111111011001000011101110011
00000000001100011101000010001110
00000000001000111010111101100011
11111111101110100011000000011100
11111111111010100000100111111001
11111111111110000100010010110111
00000000000110000000010111101011
00000000001110111101011011111000
00000000000000011001100110001001
11111111110001110001000100001110
00000000000001000111110011101100
11111111111000111100000101001101
11111111110100110100110010100001
00000000001010001000001101011011
11111111111101100010110001010001
00000000001000101000111110110011
00000000001110001111010000001011
00000000000001110011000001001000
00000000001010010011001010010111
11111111110111010111010010101001
00000000001010001101010001011010
00000000000000101110110000001101
00000000001100001001101100000111
00000000010001011110110111001101
11111111110010001010101110111000
00000000010001010110111110100000
00000000001101111101010110100000
11111111110001010001010000010001
00000000000101010111000011110011
11111111110001000111010000101110
00000000000101111011100111111110
00000000000010110100111110010001
11111111101110100010110101001111
00000000000110101000110101011111
11111111111010111110100010111011
00000000010010001110100000111010
00000000010001110110001101010101
00000000000110010011111111101001
00000000001110011010011110000011
00000000000110100110101011110100
00000000010001010011001101000110
11111111111110010011111100111001
00000000000100100001001111001001
11111111111100111110101100000101
11111111111111101011100010001010
11111111111010011110111101101101
11111111111000110000110110101001
00000000001010100100111111000000
00000000000111110110001100111000
11111111110111111011011001000100
11111111101111111000101000000010
00000000001000111100001110000100
11111111101111001011011111001100
11111111111111001100001101101011
11111111110000010001000010010100
00000000001111010011111010101001
00000000001110111000111011111100
11111111110000111110001101011101
11111111101110111111111100100101
11111111110101001100000100100110
00000000000101000010111011100010
11111111110110110110110001001011
11111111111011101001010011010001
11111111111011010111010110110110
00000000000011010110101010110100
11111111110111010110011100101100
00000000001000010100010000110111
11111111110010111010100011110010
11111111111110010111110101000001
00000000001111010100111101101101
11111111110101111001110010110001
00000000001110000001110111010101
00000000001001100001000101100100
11111111111010000101111110100000
00000000000110010101110100000100
11111111110011101001011000100010
00000000000001011110001100000000
00000000000101001011011111101111
00000000001111110100010000000111
11111111110101110001001000100000
11111111110101100110011011101101
11111111110110110111111001111010
11111111101110001011111100001010
00000000000011101100101010011111
11111111110000110111010001011101
11111111111011000101110110000001
11111111110111110101110101110001
00000000000001000001011011101001
00000000000101100011000000010011
11111111110010101101100100100000
11111111111010100110100000111100
11111111111110001111011111011000
11111111110101011011011110101000
00000000000100001110010110010111
00000000000110110001001111000100
11111111110010111101111101011010
00000000001110011000001101110000
00000000001100111111100110101110
11111111111010100000011010101110
00000000000010101110001000001110
00000000000010001110011111011101
11111111111101011110100010001000
11111111110011101110100100111010
00000000001111000100010101101101
00000000001000111111111001101011
11111111110000101110000001110110
11111111110001110101000000101010
00000000010001011000111000111001
00000000000010111010110010001000
11111111111011110011001000011101
00000000001100011001001001011001
00000000000101010000001100101101
00000000000110100100000110010011
00000000001110100000011011110000
11111111111110100100101010010111
00000000010001011011001000101110
11111111110011001001111100110110
11111111110100110111111000011001
00000000000011000110010010101010
11111111111101110001111011000000
00000000001010011011110100110100
11111111111011000001110001001000
00000000000010111000000001101000
11111111111100001100110101000011
00000000001101101110100101101000
11111111111110110011001111001111
00000000000000010001111101101001
00000000001101011001010101111111
00000000010001110001101110011111
00000000010001011111110010110011
11111111101110000111110010001010
11111111110101101010101101111011
11111111111100000001110111111110
11111111111100001110011001110000
00000000001010100100111100000000
00000000001000010000100011100101
11111111111110011111101111011111
00000000000000011011101110010100
00000000000011111010101111100010
00000000001111110000110110100100
00000000001001011110011101010010
11111111110110110001101100100110
11111111110110101000011111111101
00000000000101110010000110011000
11111111111110001001101000010111
11111111110100010001001101101101
11111111101110010011010011110001
00000000000010100111101000011111
11111111111010101010001111111110
11111111110101010111000101100000
00000000000011011100001001000111
00000000010001110011100110110001
00000000001111001100000001001001
00000000001010011011010000000101
11111111110010001101010111100010
00000000001010011011111010101011
00000000001001011101010010110000
00000000000110000110011101010011
11111111111011011100011110100111
11111111111111101011100111110011
11111111110110000101001111010010
11111111111011111000011000101000
11111111111100111111010110101010
11111111111101011010001110001001
11111111101101110011010110000011
00000000000110011100110111001011
11111111110001000010011110111001
11111111110010010100110100100010
00000000000111011011100100011100
11111111110001000010000001110100
00000000010001011100011011110001
00000000010001100000100110100011
11111111111010001100000110101011
11111111111100110110010011111111
11111111110010000000101010101100
00000000000001001000010110011000
00000000000011010101111110000110
11111111110101111110000001011100
00000000000101101110111110110111
11111111111111010010111101100011
11111111111010100111000001100100
11111111111111111011111100111000
11111111101110010001100111001111
11111111110011000111100111001111
00000000000010011010111010000111
00000000010001101010001010111100
11111111110101001010010110000110
00000000001011101110001111111110
00000000000001101011000110101001
11111111111000001000100000011011
00000000000000000001010010000100
00000000001000110001000100001000
00000000000010001011001110101100
00000000010000001011111101011000
11111111111100100010100000111100
11111111110011110010100000010111
00000000010000100001100000111101
11111111111010110001110001000000
00000000001011100110100011000000
00000000001100000011111010101011
00000000000011001111010000110100
11111111110000111111011111011100
11111111101110000011000101001001
00000000001000101011100100111110
00000000000100011110000111111110
00000000001010101000111100100110
11111111101111111000100000001101
11111111111101011110110001000111
00000000001111110011001000001101
00000000001001100110110110000111
00000000001111001100100011000001
00000000001110010110110100010001
11111111111011100000110110011010
11111111110011100011000011100000
11111111110101000110001011000010
00000000000110001101011101011101
11111111111000101111011110001100
00000000000000000100101001000011
00000000000010111010110000100011
00000000001011010110011111000111
00000000001010001100101011000010
00000000001010011011111011100000
00000000000000101111100100000101
00000000001010010100101011110011
11111111110111011100001000010100
11111111111000101011100110001000
11111111111101000110101101001000
11111111110101011000011000101011
00000000010000010011111001000111
11111111111101001100101010111100
00000000000101010100001110110000
11111111111111011011100111010111
11111111111111101111111111101000
11111111110110010000001111111001
11111111111110101010000101001100
11111111101111101001001011110110
11111111110111010000010110111011
00000000001110000100100110110010
11111111101110110110010101000101
00000000000011000000100101010101
00000000000010111010011100001100
11111111101110011111111001110001
00000000000011100100100100101111
00000000001000011111011000011000
00000000001101001111100111011111
00000000000011011011000011001001
00000000001110010010110010001111
00000000000000101100000011001100
00000000000110111101111001111010
00000000000101011001011110101010
11111111110010100001000111000011
11111111111011111111000110110000
11111111110011000111111000000110
00000000001110001101010011110100
00000000001000101110010010111000
11111111111000001111101011001001
11111111111100101001110101111111
00000000000100111000011010011110
11111111110000000011100110011100
00000000000000100001000010111001
00000000001000101110001111110110
00000000000010010010101000110100
11111111111110010100010100100101
00000000001011110000011000010011
00000000000111111101000011110010
11111111101111101111100111110100
00000000001010110000101110101000
11111111110001100100111101101010
00000000001010010001011000011000
00000000001111011001011011111000
00000000000001101011110110100111
11111111111001110100011110100100
11111111110110100011011111100110
11111111110111111000010110001101
11111111111100101000010001110111
11111111111000011010110100100011
00000000010010001001110000011101
11111111111000000111001100111111
00000000000111100101111000111011
11111111101111000010110000110101
00000000001001010001001010010100
00000000001111100011110011111011
11111111110010111001000011110111
11111111111011010101011010001110
00000000000100010110111011001111
11111111101110011111110001010101
11111111110100011011100010011100
00000000000110010111000000011110
00000000010001001101111111100111
11111111111010100010011000100110
11111111111111110101010101111001
11111111101110010110010010000111
11111111101110011100101101000101
00000000001111111001110001010111
00000000001111100001000111001111
11111111111010011011010101010101
11111111111000110001001111110101
11111111111110110100001111011011
00000000001000011111000000001000
11111111101110010101000011001010
11111111110101110111110000001110
11111111111001111110001100001110
11111111111000000010100111110011
11111111111111100001000101011001
00000000001101010101100111011010
00000000000011111111100001001011
11111111101111011100111010011101
00000000010000111010011000000111
00000000001110101110010011010011
00000000000101110000011110000111
00000000001000111100110101001111
00000000000110110101011110111100
00000000001110111111001111011011
11111111101110011010011011000111
11111111110100100111011110110001
11111111111101101011011000011011
11111111111100100001011000110111
11111111110011110110110001111011
11111111101110011101101100101100
11111111110010000010001110010101
11111111111101001010001111010001
00000000001111100001011011001101
