11111111000001000011011010000001
11111111111101001100111010010010
11111111100011000111100000011100
11111111001110111100100010110110
00000001000001010011010111111010
11111111110010110100110010000110
11111111001110011110001011001000
11111111110010001101100101001010
00000001101100000110011010001110
11111110011101000011101110100110
11111111101011111010101000010000
11111111101101000111110110110100
00000000111010110000011110010110
00000001100011011110110111100110
11111110110100001110010001011100
11111111101001101001001001100000
11111110001111101011110110001010
11111110100110110000001011100010
