00000000000100010101001111101001
00000000001011011010011011000010
11111111101111011010110000010000
00000000001111110010110111000000
00000000010010000000011011110001
00000000010001011100101111000000
11111111111000110111001001101011
00000000001011001110011011011100
11111111111001010001100011001111
00000000000010110110000010110000
00000000001111010010101100000011
00000000000011110101001011111011
00000000000110101011111110001110
11111111111011001000011100010100
11111111110111010100011111001100
00000000001110111010110010001110
11111111101111011111110011101101
00000000000011001100101010000100
11111111111110001110110101101100
11111111111010110110010111011100
11111111101110001000110000111011
11111111110101001000000110100100
11111111110101100100000010000000
00000000000010110000011000001010
00000000000111001000011101100000
11111111101111011000010000010001
11111111111000111101111101110110
11111111101110100100000110011110
00000000001100100000010100010010
11111111101111001100110001011011
11111111111101100011011100101011
11111111111101011000111110101000
11111111110101111110010100011001
00000000001101001000101110011010
00000000000111110100101011100100
00000000001001100010101010010110
00000000001100111000111111011111
11111111110110110111011110011000
00000000001000110110001101001000
00000000001110110001111110011101
11111111111011110011010011101111
11111111111110100000001101101001
00000000000001101110101101111000
11111111101110000010110010010010
11111111111110000011011100111101
11111111111101110011111111110011
11111111110010101101001010100010
00000000001101011000000111000100
11111111101111111010010010111010
11111111111000101011010100000010
00000000001010110001001000010000
00000000000010110101100001011010
00000000000111011010011100010010
00000000000000110010011001011100
11111111101110111111000000001111
11111111110010110111100100000010
11111111111001110011110010001001
11111111110011101100000000001101
11111111110100100111000001110010
11111111111010000101001101100001
00000000010000010011001000001101
00000000001110001010111111110011
00000000000011101011001100101000
11111111110100010001010000101010
11111111110100111110101100100011
00000000010001111001111110110011
00000000000010010000111111110110
00000000000010000100100000111000
11111111110101101000110001100010
11111111110110101010100000111111
00000000001000111111010100100000
11111111111110011011100110101001
11111111111110000101110100011011
11111111110110111111011101100101
11111111110010011100110010110000
11111111110100001100110100001111
11111111101101111111110111010001
00000000010000101111110010000010
00000000000010101011110001110110
00000000000010100011110101111000
00000000001101101110101011011101
00000000001001001011111111101011
11111111111101010101000010110111
00000000001011010100100110001111
00000000000000010010110001101101
11111111101110001011001100111011
00000000001110110100101000110101
11111111110101001110011110111010
11111111110010001011101000011011
11111111111011110001101010011111
00000000000100011101101010000110
00000000001110011000100101000001
11111111101101111001100000011100
11111111101110111000110010111100
11111111110011110100001000000111
11111111110101010100010110000000
00000000010001111110100111100100
11111111111111101101110110110001
00000000001101010001011001011011
00000000000101001001111110000010
00000000001010101011110010001010
11111111110110100001001111111110
00000000000111111101011111111111
00000000000110101000110010110100
00000000000110010010110101001000
11111111110010010001010110101101
11111111111001101100110000110101
00000000001111100010000011011011
11111111111011111111111011000110
11111111110010101101110100010100
11111111110000100001000101010100
11111111111100010010011111010000
00000000001000011101100110101010
11111111111010100110110001100111
00000000001101000010101001101001
00000000000111110010110001111110
11111111110001010111110000000101
00000000000000001100001000011100
00000000010000101010111011110111
00000000001011010111111111111110
11111111111001011011101111010111
11111111110010011011011000001101
00000000000100101111111011111111
00000000001000110001110001111111
11111111111100001111000111011000
11111111110000011001100001111010
00000000010001101010100111001010
00000000001000110101100011111011
11111111101101110010110100111100
00000000000000110011100001101101
11111111111011111000111001100010
00000000010000111101101101110100
00000000001001101001111000000100
00000000000100110110001000001101
11111111111010100110111011111100
11111111110010100001001000110001
00000000000101101101111111111100
00000000000111011001010111010111
00000000000000011001000010001001
00000000010000000100110000011111
00000000001010011111101100011010
11111111110000101101110111101100
11111111111110111111011110110101
11111111110111110110001010010111
11111111111111001010000010011111
00000000000001101010101100100000
00000000000010001111101111111001
00000000001011001101100001110100
00000000001100100110110010000111
00000000000000111110000110000110
11111111111001001000011110111100
11111111110110111001011101101011
00000000001001011110010100000110
00000000000110100111101110000000
00000000001111011111011011110101
11111111110000100101011011001110
11111111110010000010100101000010
11111111110101000011101011010010
00000000001000000100100001111011
00000000001110001110000010111011
11111111111110100001101011000011
11111111110000101100100010100011
00000000000010111010001111110011
11111111110000010001011101100000
00000000001011101011100111110001
11111111110010010001100100001101
00000000000010101010000000100101
00000000000000001101000001100001
00000000001001001101001001011110
11111111110011010101010001000010
00000000001000001101001111110111
00000000000000100000011110010101
00000000000010001110111111000010
11111111110011100110001001100101
00000000010001010001101011001011
11111111111100101100110010101000
11111111110101010110000110011110
11111111111010111000000110000101
11111111111010100100010101101100
00000000010010001011100111100101
00000000001101011000111010010000
00000000000000000101001010100100
00000000010001100111011011110110
11111111111111111001001110011101
00000000000010001001100010100001
00000000000011010011101100000110
11111111111110010100110100001100
11111111110010001010010101001110
00000000000101011100000101001000
11111111111110100101000111101001
00000000000111001110001111001110
00000000001010000111011101010100
00000000001101001111100001010100
00000000000100111000011000110100
00000000000000111010101111111110
11111111111000001000001000000100
00000000010001000111110110000101
11111111101111110100001001111110
11111111110110011100000001000000
00000000000010010010011110011000
00000000001000110001101101110001
00000000001010100110110000101110
11111111101111110101001111001001
00000000000110010110100011110101
11111111110000110010010001110010
00000000001100111101001100111001
11111111110000011101100100110011
00000000000011001111110010100011
00000000000011000000101001000011
11111111111100000110011100100100
00000000001000010010001110110110
00000000001100100110110001100011
00000000000110010111100000100111
00000000000011110101011101000101
00000000010001111010011101001000
00000000010001010001100000101001
11111111110011011010000010111001
00000000010000011101010100110111
00000000001111111111011111001100
00000000000000000011110101101110
00000000000110000110100001010110
11111111111000100111010010101111
11111111111000111000000100101100
00000000000011000000110110110111
11111111110111110110101001110010
00000000000100110000110000110100
00000000000111101110110011100000
00000000001010101101000001100011
11111111110010111101100011110000
11111111110110101110111110001001
11111111111100110011110001101001
00000000000111010100010011110011
11111111111000101000010111101001
11111111110111010110110010110111
11111111111011101011111101011101
00000000000110001111001001100011
00000000000000110000000011110101
11111111111011011010001011100100
00000000000100101001001110000100
11111111110010010010000110111000
11111111101110011101010000011000
00000000001010010101011101110100
00000000010000010110101100011011
11111111111111010110001000100111
00000000001001100011000111101101
00000000001100110111111011010001
00000000001111101011101010111010
00000000000001011010100001101011
11111111111110010010101000100110
11111111101110011101010010110011
11111111111110110000011000101011
11111111111010110100011111110000
11111111111111011101001010101011
00000000010001011111101010101100
11111111111010000011110100001010
11111111110001001010110111110110
00000000010000101000110001110100
00000000000000110111011101100000
11111111110100001001000111000001
00000000000000110011011010101101
11111111111111101101001111010101
00000000000110000011011110111011
00000000010000111001011001110100
11111111110101111110110001011000
11111111110101010110100111000100
11111111111110110011111000111001
00000000001010001000111100011100
00000000010010001101101000110100
11111111110100010000111100100010
11111111110111010010000000101100
11111111111110110010001010111011
11111111110000111010010001111000
11111111111110010100101100000000
00000000001101110111100000101110
00000000010000100100001110001100
00000000001101010000011100101000
11111111111101000001101111010110
11111111110110111110101111100000
00000000001110011001010001001101
11111111111010101010101110011110
00000000000000101001000101000000
00000000010000111000100100101011
11111111111110100011001101010111
00000000001101101000001010010000
11111111110101011111010110001010
00000000000000010001001100110011
00000000010010001001111101110101
00000000000000000001011100011011
11111111110100000110100000011001
00000000000011111000010011100010
11111111110111000101010111100010
00000000001001111111111000101100
00000000001101010101011101111000
11111111111100110000001010100110
00000000001011000001010000001010
00000000001111000000010111110001
00000000001100101111010001101011
00000000001010110101010110010011
11111111101110111011111011101101
11111111110001000000001110010101
00000000001110101001010101000001
00000000000110110111010100010110
11111111110001101010011101100101
00000000001111101100001000000100
00000000000001001110010110000000
11111111101111100000001010001111
11111111111000101010000010010110
11111111110000100101011010100101
11111111111001100101101001001001
11111111111110010001100001000110
11111111111110011100000001001011
11111111111101011100010010110111
11111111111110001011000100100010
00000000001110111000110001100000
00000000001100110000100110001100
11111111101111001110010000011011
00000000000100010001001110001111
11111111110110101000001000101000
11111111111100100010110111010000
11111111111000110101000101101011
11111111110110110000011100010100
11111111110110001000000011011100
11111111101101111010011100010110
11111111111001000001000101110100
11111111111100011101001111111000
11111111101111001011111110111110
00000000000101110010001101110100
11111111110110010100100101010000
11111111111010110000001001010011
00000000000111010110010110001111
00000000010001100110101000010111
00000000001000110000010101000010
11111111110010011011111001111100
00000000001101001110111000111101
11111111111110001001010100111001
00000000000110101011011000001111
11111111110100110000000010110010
00000000010001000110111010110101
11111111110100010100110110100110
00000000001011011110111101000011
00000000001111010100111001110010
00000000000001110010000001100001
00000000001110001010111010111011
00000000001010111001110110111110
11111111111101001111011110111100
00000000000010010011111011101010
00000000000000011000100101010100
11111111111101000010101010101101
11111111101111110011001100011101
00000000001010010101100001101010
11111111101110100001011111001000
00000000000110101011000001110100
11111111111001010110001111010110
00000000000001001010001110101111
11111111111100001110101000100000
11111111110101100011101110001010
11111111111001001000101101011101
11111111101111100001000101111001
11111111110101000110010011101000
00000000001001011111010111110000
00000000001111000110001000001011
11111111101110101000010001000010
11111111111011110100111111010010
00000000000001101000111010101111
11111111110101110100110010000001
00000000000011011000111111111101
11111111111101111111010010111100
00000000000011000001010100111101
11111111110101110101011011100110
11111111110000001111101001100111
11111111111110000101110111110101
00000000001100011101010110111010
00000000001111111001111011101010
00000000001110100000110000001000
00000000000000111101111010100100
00000000001101110010010010011000
11111111111000100010001001001011
00000000001101010011001010110010
00000000000010110101011100111100
11111111110010001001010111111110
11111111111010000000001010111111
00000000010000010001110011100010
11111111111001010001001101001111
11111111101101111011001111011111
00000000010001101001111010011111
00000000000101101100100101000100
00000000000100000011011111100100
11111111110111111010011010110000
00000000010000100011000010111000
00000000001111000010100100001000
11111111110001001100100101100010
00000000001000000001010110100100
00000000010000110000110001001010
11111111110010000111100100100100
00000000000101010010010010010010
11111111111000001110010000111111
00000000001100111111101010100000
00000000001100100011001110101100
00000000001001011010100010110100
11111111111011001001111101110001
00000000001110110100001000000111
11111111111011101000010101100100
00000000001100001000001111100010
00000000001000101001001111111000
11111111110000111101000001000101
11111111110100011101100001000101
11111111111110100001100000110110
11111111110000111111010001111100
11111111111011010010001011110110
00000000001001111001101010010011
00000000010000100010000111010110
11111111111110100011011100001001
11111111111011100111110001100111
11111111110010001101011111100000
00000000000101100011001110101011
00000000000010100111011101011000
00000000000111110011011100000000
11111111110000100010001001100010
00000000000000111001001001011101
11111111110111111010110000100010
11111111110101101011100101011001
00000000001001000101100111001111
11111111110001000001101000011001
11111111110101000100100110101010
00000000001101011101101111100110
11111111110100000010101011101111
00000000001100010100011001110000
11111111111001010100110111101111
11111111110011011111111001011101
11111111111110110100011010111000
11111111110100110000000010000000
00000000000100110010111101101110
00000000001101000000110010110110
11111111110010001001010000111010
11111111110011101000000001001010
11111111111100110100101110110111
00000000000000100110100000100111
00000000001111110101001110001110
00000000001110010111001110110011
11111111110110000110101111100011
00000000001011111011100101101110
00000000001010100101010000000100
11111111110001111111100010101001
00000000001011010100011010100110
00000000010001101000000111110100
11111111111011101110000011001001
00000000001111110010001111101001
00000000010001010110010111100011
00000000000100100101111101000100
00000000000000011001010010101111
00000000001111001011010001000001
00000000001100101001000100010010
00000000010001011001100111111010
11111111110100010001100010011110
00000000000110001111001000101111
00000000001011001010010111001000
11111111110100000110001101010110
00000000000011000111000101000000
11111111110110000100010111010011
11111111110010110100100011111110
00000000010001111101101011111110
11111111110001001011010100010100
11111111101111010000110111010011
00000000001111001110100100110111
00000000001010110100010101001001
00000000000100000111000011001100
00000000001101001110010100110000
00000000000000100011011010111011
11111111111010001010001100100011
11111111111101010010111100111101
00000000000011011011000100000011
11111111101110100001010110000101
11111111101111011010001100011011
11111111111001011011010101101100
00000000000010000100110101111100
00000000001100000110101110110010
11111111110111011000100100000100
11111111110000100101101011011010
11111111101111100101001011100110
11111111111111101100010110100000
11111111110100100011100101001100
11111111111011111110110110011000
11111111110100001100110101011101
00000000001000001111011001100111
11111111111001111001011110001011
11111111110011001110001011100111
00000000000101110001101001000111
11111111111111010010100101001001
00000000001011011010010110000111
00000000000000111111001110100100
00000000000111100100010010010110
00000000000110000110111100001001
11111111110101110001010111110000
00000000001110100111001110100111
00000000000011010011111001110111
11111111111101010010101101001000
00000000000010100101100110001101
00000000010000100000111110011011
00000000001101011111001000001011
00000000001111011110010111111011
11111111110101100110001011110000
11111111111011100001101111001011
00000000000100000100100100110010
11111111111101100000110001111100
11111111111100100011101011111100
00000000001101110000100101110011
11111111110110001100001111000011
11111111110111100110101001111001
00000000000010101000000111110011
11111111110111100111101111101011
11111111110101100111001010011110
11111111110001011000010101011110
00000000001100010100011110101101
11111111110110111000111011000011
11111111111101101101001110011101
00000000001011111000110111000010
11111111101110011101110000101010
11111111111111110000101110010111
11111111110111100011101000011000
11111111110010110110011111011011
00000000000010010010001110101001
00000000000101101000000100010010
00000000001011110111001101010001
00000000010010010000000011000111
00000000000101111111001111010100
11111111111111101010101110110000
11111111110110010101001001011011
11111111111010110111001000010011
11111111101111010110011011001000
11111111101111010000010011001101
11111111110010000000000011010110
00000000001100110011001000111101
00000000000111110001001100110111
00000000010000110001001110110100
00000000001100100110110111000111
00000000001100101111001000000100
00000000000011110010001100111000
00000000001001010000000101110001
00000000000110100011111001110010
11111111110001011101011101101101
11111111110001100000010101100011
00000000001110101010100110000001
00000000001011011101101111100001
11111111111011010001101000100100
11111111110101100100001000100001
11111111110011001010111001000010
11111111110001111101101011111000
11111111111010001001110011001101
00000000000001100001111101111011
00000000000000100010000101000111
00000000000110101110111111000101
00000000000010001110011101011010
00000000000100101101101001110011
00000000001101101101001111010100
00000000000100000101110011101100
11111111111110110011110000011001
00000000001001000000011111101111
00000000000110010101010011101011
00000000000111110110101111111111
11111111111011000100000110111011
11111111101101110001001100110011
11111111111001100100010001110111
00000000001110110011110011111001
11111111111001101111010000011110
11111111110110110100111010000111
11111111111000001011101101001011
00000000001011001110000011111010
00000000010000111000011111001000
11111111101110100110000110111001
11111111111001101010111100000101
00000000001110011111110101100100
00000000000100000100111101111001
00000000001011101000101000011011
11111111110001100010101111101110
00000000001010111010111101000111
11111111110110110111110101001101
11111111110100100111000100100000
11111111111000101101101011101100
11111111110010101000110001110001
00000000000101011100001011010111
00000000001100010001110011110000
11111111110100000100111011000110
00000000000110100010111011101110
11111111110010011010111011000010
00000000001010000010111111100100
11111111111110011011000111010111
00000000000001001111001101110100
11111111110001100011000100101101
00000000000110101100100001000101
00000000000110111100111101100001
11111111111001100010101000001100
11111111111000000111000000110100
00000000001110010100001001100001
00000000001101000000110101010011
11111111110110101100000101110100
00000000000110100000010100101011
11111111111000001101111101000000
11111111101110110000111101101000
11111111111111001100110001000100
11111111110000011100101010001010
11111111110111010111001001001011
11111111111110101000010110011001
11111111110100010011011110111010
00000000001010101000100011001010
11111111111010100101101111101001
11111111110001101101101100011110
00000000000011000101010100010111
00000000000100100000001011001000
11111111111011000111001010110101
11111111110010001011100001101101
00000000001000001000110011101010
11111111111001110101001011010111
11111111111000011111010010101011
00000000001110110010110100001101
11111111110101101100110101110000
00000000001010011010011100001011
00000000000000001100010101010110
11111111111100000010101000000000
11111111110100100101010000101011
00000000010001101100010110111001
00000000000001110010100011111001
00000000000010100110111100111101
11111111110001011011011001000001
00000000001100111101100111011111
11111111111111110100001011001000
00000000001000001001101110011000
00000000001100011001101110100000
00000000000100010111001001001000
00000000001010101100101111011000
11111111110111011111101111101000
00000000000111101010000110010111
00000000000111011110011010101000
00000000001001001101111001110011
11111111111001111010101111100001
00000000001010001111000010100111
00000000001111111101110010111101
11111111110111000011111011100111
11111111111110000100111011001100
11111111111110001111110101000000
00000000001001001100101011111010
11111111111101110100000101000111
00000000000100001010001011010011
11111111111001000001101000011011
00000000000101110000000100100001
00000000001010110100000001011010
00000000000011101001001001011001
00000000010001110000010001011111
00000000010000010000011000101000
11111111110011000000001100100110
11111111110011010100001101110011
11111111110001011001011101011101
11111111111100001110101101110011
00000000001001100110111011100000
11111111111000011010110000000010
11111111111011100001011101010011
11111111110111100001011111100000
00000000000101001011000001110011
00000000000011110001110111000110
11111111110001001000100010001101
11111111110110110011011101111011
11111111111101001110101011011010
00000000010000110110111001000010
11111111101110101100110000001111
11111111101111000001011011111101
00000000000111101110110100110011
00000000000101110111101111000110
11111111111110011000100101001001
11111111110001011101101100000001
11111111110110111110110101111011
00000000001100101001101011101101
00000000010001000010011000001010
00000000000011011010011010001011
00000000010010010000110010100000
00000000001110011111111100000010
11111111111110101101011111010011
11111111110100101000010111100010
11111111110110000001011001000111
11111111111010101000111111010100
11111111110001000101000101101110
00000000010010001001010110000111
00000000000000100011001110110011
11111111101110011110110110011101
11111111110110110011010111111010
11111111111010000100111110110100
11111111110001001011110110110100
11111111111100000100110111010110
11111111110100001011000011101101
11111111111011010100000110111001
11111111110010010110101110101001
11111111111111011101001010000101
11111111110011011101001111101010
00000000000111010011110010101100
00000000000100010110010101011001
11111111111110101011101011101000
00000000001011000000111100111010
00000000001000110110011010011111
11111111111110111110010110001101
00000000000000010110100111001000
00000000000111001111100010000010
11111111110000010011001111101110
00000000000011100011000011110100
00000000000001011110101101011101
11111111111111100011011100101101
11111111111011000110001101111110
11111111110110111100001011010111
00000000000101110100110011100000
11111111110011011100110110000100
00000000000111000101000100011010
11111111110000111100110010111110
00000000000100111000100010100001
00000000000001101011100101101100
11111111110111001110110001110000
11111111110111100010000011010000
11111111111010111110100010101001
11111111110111100000010111110000
11111111111010111111010010100000
11111111111011110011010110100111
00000000001110101110011101111100
00000000000000101010000011001011
00000000010000000100110101001110
11111111111100011001110000001110
11111111110001101110010110100000
11111111111011110101011101111000
00000000001001111000101011101111
11111111110011100110111110010010
00000000001110100111000111011000
11111111111110010110000100110001
00000000001110001111111100001100
11111111111011010101000010001110
11111111101111111001001011101001
11111111110101000101110111110101
00000000000001101100001100000101
11111111110010110110000101110110
00000000010000000000111101011110
00000000001111010010010110000011
11111111111011101000010011001000
00000000001101100010110011011111
00000000000101011110000100010001
11111111111110011010111101011111
11111111101101111011111111111110
11111111110000011111010001011100
11111111110010000100111110010111
11111111111110111001000110110010
00000000001101111100000100000110
00000000000100101110001111001000
11111111111101000001110000111101
00000000001011001111001011010101
00000000001000001000011011101100
11111111110011011010100101101101
00000000000100000100011111101010
00000000000001001110110011110000
00000000000111011100000010010111
00000000000001111001001000110110
11111111111010100011100101101101
11111111110111101011110011111010
00000000001110001101000101010011
00000000000101110011001000110011
00000000001011110001010010011100
00000000001110001111101000111000
00000000000111011101111110010111
11111111110001011010001000101010
00000000000010001011101010010010
00000000001010111110010011101110
11111111111010110100101110100011
00000000001101111111100100000110
11111111110111011000011010000001
11111111101110111011100100100011
00000000010010001101110110011100
00000000001011110010111001110100
00000000001110111111100100001000
00000000001011001111011111110000
11111111110000011100110010001101
00000000000101100111100111100101
00000000010000110111100010111001
11111111110101101000001011100010
00000000000011000101011001001010
00000000000101000100100011010111
11111111101111110001011010100001
00000000000001110110010001100000
00000000000110101111001001010111
11111111111111100011010111100010
11111111110000110101000011001101
00000000001001010100010011010111
11111111110000110101011110111110
