00000000101101001111101101100110
11111111110010110110111100001010
00000001011001010110011000101010
11111111110100100001010000000000
11111111001000111001100100111110
11111111011000001100001110011110
00000000001100110001111101011110
00000001001101010011101010010110
00000000001001111000101001011110
00000000011011100001100100101110
11111111010101100111101111001100
00000000101101110110010101001110
11111110101110100011010001000100
00000001001010111110000011110110
11111111111010110011010101110010
00000001100101011000001001010010
11111111000010100100011011011010
00000001110110010011011110001110
