00000001000101100001001100111110
00000001001111111011000010011110
00000000110010001010001111110010
00000000100110110010101110110010
00000001000000110010011000101110
00000001110010010100000001100110
00000001010001111110100000100110
00000000000011110110001111111000
11111110101101100111100000000100
11111111111101000011000111100110
11111110111010101001101011011100
00000001101010011010111001000110
11111111011100001010100100000100
00000000001000101100110000111110
00000000110011000011001101100010
00000000101001111110010101101010
11111110011101000010000110000000
11111110110010000110011100010000
