00000000010100100111111110011110
11111110100111010111000010110110
00000000101110111110110011100110
00000000011111111111001111000010
11111111010001000001001011001100
11111110100000100010110110001100
00000000010010011111101001110110
11111110111100100111110101100100
00000001110011110100001010101010
00000001001101111011111011101010
00000001001101001110111011101010
00000000111000011100111100000010
00000000101111000011011000011110
11111110100101011010011011111010
00000001110010111001110001011110
11111111100111010101101011101000
00000001000101111010110100101010
00000001101110110011100111100110
