00000001001100101010111100110010
11111110011110100010001100011010
11111111011100001011110001110110
00000001101001011001001101011110
00000000101000111111001001110010
00000001100100010111101111101110
11111111100110101100001000010000
11111111001100011101100110101100
00000001010000000010010101100010
11111111011011110010100010000100
00000001101101011100010101110110
00000001000110011110001000110110
00000001111000001001000001101010
00000001011011000000111001000010
11111111011100001010100100100010
00000001100101110010000100010010
11111110100010010111111101001000
00000001110110000101100001010010
