00000000001101010011011100011001
00000000010001101001110000000111
00000000001110101101110111101010
11111111111011010111000001100011
11111111111010000100000100110011
00000000001111000011010101011100
11111111110111101100010011110111
00000000000001111101100001010111
11111111110101100111110011111110
11111111111011001111101000010101
11111111111001001010111011010111
00000000001011011010100100110110
11111111110111111111111011100100
11111111111000000011101111101000
00000000000111110000000100010011
11111111111110111111010011100010
00000000000001110000110110101000
11111111110010010100110110101000
11111111110111111101000001010011
00000000001001001100000010100010
00000000001000011001100111001111
11111111101111001111000101101101
11111111110011010011011001010101
00000000000101010100000011010000
11111111110001101001000000010101
11111111110110010100110000000101
11111111110101101010000010101101
11111111110010000010110100101000
11111111110111000100010111001000
00000000001100110101000110010000
11111111101111001011011010101111
00000000001100000111011100111111
11111111110000001001101011111001
11111111111011000100010110111000
11111111111001111000111000110000
00000000001011100110011001111011
11111111110001001011111011010000
11111111110110111001110101110101
11111111101101111111100001101101
11111111111010100111111001111001
00000000000111010001101001011100
00000000010001010011010000010101
00000000001111110101110110100010
11111111111011001000101110011100
11111111110110010000110000001011
00000000000100000011101010100111
00000000001100001000010100101101
00000000010000011000011000010101
00000000001100100000110111111010
11111111111111101010111110101000
11111111110000111001001011100001
11111111110100111011110100011000
00000000001011001001010110110001
11111111110000011011110000011101
11111111110010100110110110110100
11111111110100010111000001010100
11111111111011000101101010110001
00000000001000100001101000010111
00000000001100101011000111111100
00000000001110000101111111110011
00000000001000011111010000000101
00000000000100001001101101010000
11111111111011001100000000101010
11111111110100110010111100110101
11111111110110101100000000100101
11111111111111011100101100100010
00000000001111110101001100011110
11111111111001011111011110001101
11111111111101010000100101010100
11111111111111100000010011001001
11111111110111110001010110000001
11111111110111010011100000100001
00000000000101001100011100110110
11111111110010111100100011111010
11111111111110111001010000010101
11111111111011100101101000001111
00000000000100000011100001100000
11111111111101101010011100100101
11111111110110011010110001010011
11111111111010011110101011111101
11111111111011011101111011001001
00000000000111110010001000110010
00000000000100001011001001011011
11111111111010010100110111000001
00000000001110010101001101001101
00000000000001100111111001001101
00000000001001111110111010001100
11111111111001000010111111010101
11111111110000011111101010011100
11111111101110010111010111111111
11111111111001111001110101100001
00000000001011010001011011101100
00000000001011011111111001011010
00000000000101100100101001000011
00000000000101001010111111001010
11111111110011101101110001011000
11111111111010100110110101010100
00000000000010001101111101001110
11111111110000000010101101010100
11111111101111010111011000001011
11111111110010001000001010110011
00000000000101101010111000101011
11111111111101101011100010011011
11111111111100110001011000110001
00000000001011011000000110000110
11111111110011110001001111001101
11111111110100101100001100110001
11111111111011110100010011100010
00000000001011010001000010001010
00000000000010111011111001110000
11111111110000001110101110011110
00000000001100111100001010001100
11111111110101011000010110011111
00000000001110010001001010000110
00000000000110101100010110100001
00000000000100110010110101110111
00000000001111001001010001110010
00000000000110101110011001010011
11111111101101111101110011100111
00000000000111010001000111010100
00000000010001101111001011011100
11111111111000011010001110001111
00000000001101011000111111110110
00000000001110110011010001101010
11111111111011101100001110001001
00000000000000000001101001000000
11111111111101101000010111001111
00000000010000001011000111000111
00000000000111101010001111101010
00000000001100111100111111100110
11111111101111101000110101011011
11111111111000100101010010111110
11111111110010001011111011111000
00000000000100000000000110001000
11111111111000110111001010001100
00000000000101010011001110000011
00000000001001100001011001100010
11111111111011001010110011000001
00000000000010001001110001001000
11111111110010100001011000010001
11111111111101111001000010111001
00000000000010111101010001010101
00000000001101000011000001110110
00000000000111011000111000010100
00000000000100110111001010101110
00000000001001011111011111100100
00000000001110010011011100001000
00000000000001101101111010100100
00000000010001100111010001010011
11111111110100110110100101001001
00000000000110001100010110111111
00000000000000000011110001101111
00000000001101100010010000110101
11111111101110100011010000111011
00000000001000110111111111010000
11111111110000010001011101000110
11111111111010100010000111001011
11111111111010000110100011011011
11111111111001111000010010111111
11111111110111000111011111010100
11111111110001000101110111111101
11111111101111111111100001111111
11111111111100010001010001110000
00000000001110111011110000110111
11111111111011000110000111010110
11111111110011101001010011010101
11111111111010110001111000111001
11111111110000111011000010110100
11111111111111000000100001000111
00000000001111000001011111000001
11111111101110001001010010010101
00000000001001110111010100000110
00000000001101100011100110001010
00000000001101001011110110000011
11111111110101001001110010111111
00000000000010001000111000011011
00000000001010010011101000101011
11111111110000010101000111110001
00000000001110000010111100111100
11111111111110101010000111010011
11111111101111111001111011101011
11111111111011010011110011000011
00000000000000100001100110100100
11111111111000100010111110101011
11111111111000100100110101110001
11111111111110000111101010010000
00000000000110010010011111100011
00000000001000010010100010001001
11111111101110000111111000111010
11111111111110110100111010110011
00000000000100100001011110001110
00000000001110110000011000011001
00000000001001001010011001001010
00000000001100011100010010001110
00000000000101011011001000011110
11111111111110001101101100000101
11111111110101111001001101111101
11111111111000011001110101100100
00000000000101111010011001111110
11111111111100001011000010100110
00000000010000110101011010010101
11111111110100100010001011111100
00000000001100011011110000001110
00000000001011101101011100111100
00000000001100000100111011110101
00000000001110010101100110011000
11111111110101011011011111110101
00000000001010100100010110111110
11111111101101111001010010010101
11111111110110001011111101101000
11111111111101000110001111101111
00000000001111011001101110100111
11111111111100010100001111001100
11111111110001010101101110100011
11111111101111101011101010101000
00000000000000010101111001110011
00000000000001010111010111001111
00000000000100011100101011101111
11111111111010111000010000111000
00000000000110000110010111011000
00000000000001111010101010111101
11111111111011001100101001010101
00000000001001010111010111011111
11111111110010110011011111101101
11111111110110100010000101110101
00000000000100100001010100111100
11111111111010110001101010111000
11111111111111100011101101000010
11111111111001011100101111000100
00000000001010011011010001010111
00000000010001001110001100100100
00000000001111101010010000101010
00000000000100101111100110101110
11111111110100011010001111100010
11111111111001100110110111010110
11111111110111101011010011001110
11111111111100011110001101000011
11111111110110111000101101001100
00000000001010111001011101011100
11111111101110101001110011000001
00000000000000110011000101001011
00000000001101001101100101111100
11111111110001011111110010101001
11111111111100110010111101110010
00000000001010000001100101101111
11111111111001100111001001000011
11111111110111010101110111101111
00000000001001101111010011001010
11111111110011010101101111010000
00000000010010001111110001111001
00000000010000011001110000010000
00000000000000110100011000111101
00000000000010111100110101001010
11111111110110101011111010111111
00000000000100010000101011010011
11111111110010001011110101100110
11111111111011001111000001110100
00000000001110100111100110011001
00000000000101010101011111101010
00000000001101001111111110001000
00000000001100000100010001011111
00000000010001011101110101100100
00000000000100101000001011111010
11111111110010100110010010001101
11111111101111011100101101110110
00000000001011010101111000010001
00000000001110110110100100000001
00000000010010000000001111100011
11111111110011100100110110101010
00000000010000101101001011010011
11111111111001011110111111000011
00000000000100110001011010100111
00000000001100101010110111011110
11111111110001111000111010101001
11111111101110011100101111110111
00000000001100001010001110101011
11111111101110111111111000001001
00000000001000110111000110110110
00000000001010100101000110111011
00000000001101011000001000110000
00000000000000011100001111000001
11111111111011010101000010010100
00000000000010011000100111011001
11111111111101011101111100110111
11111111101110110001000101011101
00000000000100010100000101111000
11111111110101010001001001100110
00000000001101100010001110001000
11111111110111011010100011011000
11111111111100011011110010110101
11111111110001110100010001010011
00000000010000110101111110010011
00000000001010100110111101000011
00000000010000000000101011100000
00000000001010101010111100111100
11111111110100101110100111011111
00000000010001010010011011100111
11111111111101100010101000011100
00000000010000110100110000011001
00000000000010100011111001001101
00000000001011100101000100001100
11111111111000101111100000101010
00000000000111001011101110101101
11111111111111111000111101011000
11111111110001011001111111000001
00000000001110001010011111111010
11111111110110000010111010110101
11111111110011111000100001110010
00000000001110101010101101010001
11111111101111001110010100100111
00000000000110010100001010001010
00000000001110110111101101011001
11111111111101000101100110011101
11111111101110101100111101001110
11111111110001001011100001111101
11111111111111000110000101111001
11111111111101000110010001101111
00000000001100101100101011100011
00000000001110100111011111011001
11111111110100101100010001000100
11111111111011001010101111101110
11111111110001101000011000001001
00000000000100000100100001000110
00000000001101011001100001100110
11111111111001101111110111010101
00000000000000100110110101001100
11111111111110100101000110011001
11111111110000001001000001100001
00000000010001110100101100111001
00000000000011111100100001001100
00000000010001001001110101000010
11111111110000000110100001000000
11111111111010101001111011111110
11111111111011001011011001101011
00000000000110000001000111001000
11111111111011010111100101110010
11111111110101011110101111100111
00000000001110111110011001111000
00000000001110010110110000010011
00000000010010001011110010100001
00000000001010111111100111001101
00000000001100000001110110011000
11111111110011111010110011000001
00000000000001010111011000001001
11111111111010010001000011011011
11111111111110010111011000100101
00000000000001011111010011010001
00000000000100011000111101000111
11111111110101001100001110001101
11111111111101000001110011011110
11111111110111100011101101010011
11111111111011010010110110101011
11111111110100001110011011111100
11111111110110011100101011000101
11111111110011001110011000111000
11111111110011001010010101111110
11111111111110110010111010001111
11111111110000011101000011010001
11111111101110100100001011001010
00000000001100110100111111000000
11111111110010110101010011100000
00000000001100110011010011110100
00000000000001010001000001101101
11111111111101010100110000011100
00000000001110001001011111100000
11111111110001101110001101010101
00000000001000110000101001001010
00000000001100001101000110100111
00000000001110100101011111111101
11111111101110111011001111000110
00000000000000110111011100111101
11111111111101101011010101000110
11111111110010011011101011100100
00000000001100011111010001100111
11111111111100110001111011100001
00000000001100010111100010100000
11111111110110001001110110010111
11111111110111111000111110101100
00000000000110111000000000110011
00000000000010010101100010001010
00000000001010011110101101011101
00000000000111110011001111010001
00000000001110101000110001111101
11111111110010100001010101011101
00000000000100001000011011110101
00000000001101100101001110010011
11111111110111101101101101000100
11111111110100100100101111100000
00000000010001111111100001110110
11111111110000101011111100110010
11111111110010101110000001001000
11111111110000100001110011010101
00000000000100100001100100101001
00000000000100011011110101110111
11111111101111111100110011010111
00000000001011001100100111001101
00000000000101001111100000110000
00000000000110001100011011011111
11111111101110000110011101011110
11111111101111010001111001100011
11111111110000111110001000101111
11111111111000011111110011101011
11111111101111110000001011010010
00000000001001010000110010111111
11111111111101100001001001001101
11111111111000110010011110111000
00000000001111111000111001011001
00000000000010011010011101110111
00000000000010010111001010100011
11111111110101101110110101010000
11111111111010100111011110100101
11111111110000100100010011011100
11111111110100110010110010001010
00000000010010001010101010100011
11111111110100000100101111010001
00000000001010000001110011001000
00000000001100100100010001110111
00000000001011111100010101100101
00000000001110111110001100100111
00000000001111101100001100110000
00000000001001110011111110111010
11111111111111000001010010001101
11111111111011010011111100001110
11111111101110100010100100010111
00000000001001100111110001010010
11111111111011110110110000011111
00000000000010110111011011001101
11111111111011110111101101100010
00000000001011110011110101100000
00000000000000100101001011110101
00000000001101000110010111101000
00000000001101101010110010101101
00000000000101101010000100001100
11111111111110100000101110000110
00000000001000011101111000001100
11111111110101001110000110101001
00000000001100110111000000010010
00000000001110001010100100000101
00000000000010011000011110101001
11111111111110001010011101011001
00000000000100100001101001101011
00000000010000000110001011110110
00000000000100010100000111110101
11111111110110101111011000010000
11111111111100000101100001001111
11111111101110000001110100110001
11111111111111100000101010111101
11111111101111010101000011010111
00000000000100000111110001010100
00000000000010010101101100001000
00000000010001000001101110111100
11111111111010100010100100110011
11111111111111000010100111010011
11111111111111111011110101000001
11111111111001010010000011111001
11111111111001100000011011000010
11111111111000011100011101110110
11111111111000010010000011001100
00000000000010000110010100110110
00000000000111000010100100000011
00000000000011101001010101011110
00000000001110100111100010100011
11111111111101101100010100010101
00000000000101010101010001011110
11111111110000110111001110110101
00000000001011011110000001100011
00000000001111001001001000110100
00000000000111000000000000101110
11111111110100001110101001101010
11111111111111010100011101110001
11111111110000101111100000101111
11111111101111010111111101000001
00000000001101110100100110011100
00000000001000100000001010100101
00000000001101110100101000110011
00000000001011110010111111101000
11111111111101000110001010000110
00000000001000011101110000011100
11111111110111010011111011011000
11111111110001000111011011100101
11111111111101001000100000110001
11111111110101001100110000011010
00000000010001000010111010101011
11111111110001001000010011101000
00000000010001000100010110001000
11111111111100111010000111000110
00000000000011010011110111010001
00000000001111111011000011010011
11111111110111100010011111110100
11111111111001001110011000110100
00000000000111100100001011011110
11111111111011010111100000010110
00000000000010010100001100000111
00000000001011100001010111100000
00000000000000111000010101001100
00000000001100011100100111001011
11111111110111111111010010011001
00000000000111011011110011011110
00000000000001110001010001111111
11111111110001111011110111010111
11111111111101111101011001011001
00000000000111001001010100001010
11111111110100101111100011111111
00000000001111100001001111101001
11111111110101101111010001111110
00000000001001111101111000111000
00000000000010000100010000111101
11111111110101011000001001010010
00000000001101110010010101011011
11111111111011110101011010101101
11111111111101001010010100111001
11111111111010101111101001000111
11111111101101110111100010010001
00000000001010110011011000110100
11111111110111101101110011001001
00000000001010111101011100101011
00000000001000101100100101111100
00000000001001111010001101111000
00000000000110100001101010000000
00000000000101111000101110010000
11111111110000100101001101011101
11111111111110111110010011000110
11111111111000011011101011111001
00000000001101110100111110110011
00000000000111000100101000110110
00000000000000011101001001110000
11111111101111011100001000011001
11111111101111001100010100101101
11111111110000101100100110111010
00000000001100110010101101011011
00000000001011011100010011011011
11111111101111110011001010101101
11111111110000010000100110111001
00000000001111001110011001101100
00000000000111010111111101111010
11111111110100011110100010010000
11111111111101111000101111100111
00000000001011010001100000011100
00000000001001101010010101101101
11111111111111010001110111110111
11111111111000011001001110101001
11111111111001110110010010011011
11111111111010100010011101000100
11111111110100101001101010111010
11111111110011111011000011100010
00000000001100111100100001000000
00000000000011000010001101000101
00000000000110000000000100100110
11111111110010101101100010100011
00000000000011011000111110000000
00000000010000010010100010101101
00000000001010000000111110110011
11111111111111001100110011110001
11111111110111100101010000001011
00000000010001100111000001110011
11111111111000001100010011110000
11111111111010110100000101100101
00000000000000111000000000100110
11111111111010110100000110101110
11111111111111010001111000000011
11111111111011101100100011111110
11111111110101001001110010110110
00000000000000001011011101001101
00000000000111100010000110010111
11111111101110001001011111000001
00000000000110011000110000111100
00000000000010101001101100010101
11111111110100001111100101100100
00000000001101011000011111101000
00000000001011111100100011010000
00000000000101110100111111111001
11111111111000101100110001110000
00000000000100010110100000111011
00000000001000011101000100100110
11111111111101010010100010000111
11111111111000001000100000101000
00000000000000010110011000011001
11111111110000100101011111111101
00000000001100110111110001110100
00000000000001110010111011110011
11111111110111111110101101001000
00000000000001101111011110000110
11111111110110011010000111111101
11111111111101001011101101011110
11111111110100010010100101010010
00000000000100111011100011001000
00000000001000110111010101101110
11111111111010010110001111000000
00000000001001110101110010001100
00000000001100111110000001011100
11111111101111100010010011110101
11111111110100001011001110000110
00000000000001101010111100000100
11111111110110001111000000101111
00000000001100000111010110000011
00000000001111111111111000010111
11111111110101101110011110000100
00000000000010001111011011101111
00000000000001001011000010101110
00000000001111010110010100001001
11111111110001010110111011100100
00000000000110010011001001101000
11111111110010111111001110000110
11111111110000011001110000110011
00000000010000001111010101001101
00000000001010101110011000011010
11111111101101111011110110000111
00000000001010111011101110111111
11111111110010110111110110010001
00000000001111011110011101100100
00000000000010111110001010001111
11111111111010001010000101000011
00000000000001101101000011001111
11111111111100101101000110100111
11111111111111111101001011110000
11111111110011011100010111101111
00000000001001000001011100011001
11111111110011010101111110001110
00000000000001010000011010010011
11111111110010101111110110110001
11111111110110000101101011001011
00000000000010000110010001101000
00000000000001101001001001111101
11111111101111011010000100110100
00000000000100111101111001000111
00000000000101110111110101101101
11111111110111100011000001100001
00000000000010000110001011010011
11111111110110010100101001001011
11111111110000001100111000001000
11111111111100111010110000001110
00000000001100000101010001111011
00000000000000101010110010000101
11111111110011000011100100100100
00000000001110001110101101111000
11111111111101000111001000000011
11111111101111111000110111101111
00000000000110000010010011011000
11111111110001000001011110000010
00000000001011110111001000010011
00000000000011101011101111101010
00000000000101010101111000101011
11111111101111111011011000001111
00000000000100110101000111110110
11111111111110010100100010011011
11111111111100000010011111001110
00000000000101001011110111110000
11111111101111100010011011100100
11111111110010111011011010100110
11111111101111010101101100001100
11111111111001100011101100110101
00000000001000000101000001010110
00000000001010000001000110001111
00000000000100101100100101101011
11111111111000110010010001100011
00000000000000101101110100010101
00000000000111001100000000000010
11111111110111110100110011000101
11111111101110100110010000101101
11111111111100010011011101011000
11111111111000101110000110010100
00000000001011111010001001101010
00000000000110001000010100011010
00000000000010100111100011100111
00000000000111110001011010110011
11111111101111110101010011111110
11111111110110011001101011010000
11111111110001000010111001010110
11111111111011100101100001001011
11111111110011000101111110100000
11111111111111001101100011001010
11111111110111100111101101001011
00000000000101101000110011100000
11111111110000011111001100110110
11111111110110011010101000001001
00000000001100101001110011011011
00000000001101000010011111100100
00000000000001111110010001011111
11111111110111100101011101111101
11111111101111111101101001101100
00000000001100110000011111101001
00000000000000010110110001100100
11111111111100111000110000100011
11111111111110000011001110100001
11111111111011100001100001000001
00000000001001110101001001001010
11111111110100010001010100000101
11111111111110110110000011011000
00000000001011111001101010100110
11111111111011111101010000010011
00000000001001101110101000101011
00000000000100100111000101010101
11111111110000011100001110010100
00000000000010000110111101000111
11111111111110011110110111001000
11111111110100001100101101110010
11111111110111011100101110011110
00000000001111010001011011010111
00000000001010110000011000110111
00000000010001001011100101000101
00000000010001001011010011101011
00000000000100010110110001011101
11111111111010001100010100100101
00000000001000101111010001100111
11111111110110010011111101100100
00000000001110010111100110101111
00000000010000010111011000101010
00000000001111000001111010010100
00000000001100001011001010001000
11111111111000111101010101001010
11111111111000101010011111000101
11111111111001011001111010011001
11111111101111100111001110010000
00000000010001001111101110011000
11111111110110011010011000100001
11111111111111110011001101100101
11111111111010111010110001010110
00000000000100101111000111110101
11111111110000101101101011001000
00000000000000100110101001110011
00000000001111010010001011111101
11111111111001100111000000100000
00000000000011011111000000011100
00000000000111101011000000111111
00000000001110101100100000100110
11111111101110011011011001000100
11111111110111111101110000010011
11111111110010100111000111001100
11111111110010110010101000101010
11111111110101010110001010001011
00000000000101111101010100010011
00000000001110001000110000010100
00000000000001001100110010000101
00000000000001100010111011011110
11111111111110000100100110100100
11111111101110010101101111001111
00000000010010001001101110100101
00000000000111001111110110010101
11111111110000010110000010100010
00000000000100001111111010010111
00000000001100100100110111110000
00000000001011001100001111111111
00000000010000011000100011001111
00000000010000000001010000100011
00000000001110111000011100011001
11111111111100001100000000110110
00000000000100111100110001111111
00000000000110010111110111010111
11111111110000011101000100000001
00000000000110000101000001010011
11111111110100110111100010010001
00000000010001101111010011111011
00000000001100011111010001101111
00000000010000011010001000000011
00000000001111100001100001110111
00000000010000100101101111001100
11111111101110000011011100110100
11111111110000100001111101100001
11111111110000011011010100101001
00000000001110100011010100011111
11111111110110010111101000111101
00000000001100010111101011001111
00000000000111001111000001000011
00000000010001111111000110001111
11111111110110111110111110101001
00000000000011010111100100010010
11111111110000111011110100100001
11111111110001001010100110110001
11111111101110111000011101011011
00000000001010101111100011001010
11111111111010111010110100011000
00000000000001011100101011000101
00000000001110101010001111010010
00000000001001101100110011101100
00000000000101101101001001111011
11111111110110000011011110101001
00000000001010110011000100111110
00000000010001010000000110001111
11111111101111000111011111010101
11111111111100000011110101010011
11111111110010000001101011000001
11111111111011011010111011110101
00000000000011111100010011101110
11111111101110110010000111010111
