00000000001000001101010000111010
11111111101111001000001110011001
00000000000000111001011010001100
11111111111011010000111111010111
00000000001011110110110001100010
00000000000110001001101111000100
00000000000111010101000011000000
00000000001010111111101001010101
11111111111011111001111111101101
11111111111110110101000001010100
00000000001110101010110111011011
11111111110001010000110000110011
11111111110011010111000100110101
00000000000001010101100111001100
11111111111000110000011010101111
00000000000001000011000001100000
00000000010000001001110010001001
11111111111101111000010101100001
11111111110000011010001011001001
11111111110111101100000000111011
00000000010000110010110000000110
11111111111011111110111001101001
11111111110111111110110110110001
00000000001000001110110001101101
00000000000010010000111000001000
11111111101111111000001011101110
00000000001111001110100110010011
00000000001010010011000001000101
00000000001111111001001100011110
00000000001000000000000111011100
11111111111001110101011011110000
11111111111010000001111101101011
00000000001000110111001001010111
11111111111100011101001000101100
00000000000011100101011100000100
11111111101110010010000000011101
11111111110110111101100000000111
00000000000110110010101100110010
11111111111111000110010011100111
11111111110111001101011000100111
11111111110000000011001100101010
00000000001011100111110010010110
11111111111100010100101101000011
11111111101110000010001001111110
00000000010001101001000100101100
00000000001000111001011111100000
11111111110101000100000000011010
11111111110010101001111000111001
00000000010001101010110111001011
00000000000000000100111000101110
11111111110101000000001010100000
00000000001010100001011011111110
11111111111100001100001110110001
00000000000001010000001010110000
11111111110110011110010110111110
11111111110000100000110001100011
11111111110011110110110010010110
11111111111101111111011111111101
11111111110010110000110001100100
00000000010010000001011100011010
00000000000000001100101010101000
11111111111000111111111110100100
00000000000111001110100001010100
11111111101111110010011101100001
11111111110110101001011010001000
00000000000110110111100011111000
11111111110000011101101001101110
00000000001001000111010001100010
00000000000001100010010111100101
11111111110000110000001101010001
11111111101101110110100100100010
00000000000101110001110111101010
00000000001000101001001010000011
11111111111100010110000011010111
11111111101111110101001010110010
11111111110101011101100000101001
00000000000001111100011000011100
00000000000000101010100100111000
00000000000100101011100100001111
00000000000011001110111011100010
11111111111111000010101010000111
00000000001001101001100101110100
00000000010001101111001100010111
00000000001111001110101000010100
00000000010000100111011010010001
11111111111001110101000001100101
11111111111001110000100100000111
11111111111101111110100100001010
00000000000101011001111000110110
00000000000111011001101101001111
11111111111110010111101011110111
11111111110100001100000101001111
11111111110010001101000001010000
00000000010001100110101001111110
11111111111011000101010111001011
11111111111101100001110100000110
11111111110100110010110001110101
11111111110110111011110100011100
00000000000100000001000010101000
00000000000111101100111010001001
11111111111000110001010110111101
11111111111001010001010000000001
00000000001110011111000011010111
11111111110110100101010010001001
11111111110010010110110111100010
11111111111101001001011010101101
00000000010001011001100101000001
00000000000011111110101001000010
00000000000010100001101100111100
11111111111101101110010010001111
00000000001011011011010011000110
11111111110110111011111100100111
00000000001100011001011101110111
00000000000100010100011110010010
00000000000010000010000111011011
00000000000010100001000110111110
11111111110100101110010000010110
00000000001101100101001011011110
00000000001001100110101001001011
11111111110001101100101100110000
11111111101110111110010111100101
11111111111011010010101111000000
00000000001100001001011110110110
11111111110110111111110101001101
00000000010000111100101010100000
11111111110110110011100110111101
11111111101111011110111000001101
00000000001000000010110010110100
11111111110100111100101111101011
11111111111101000111100001001011
11111111111010010010111110111100
11111111111110100011000000101001
11111111110000000100001111101010
11111111101111001110100111001101
00000000000111110111000101000010
11111111111101111011011000111000
11111111110100111110000011000101
11111111111111100010001100000000
11111111101111010011110101111010
00000000000100110110101001001011
00000000001000101011110001011011
00000000010001101110111101100110
11111111110001000110100110011001
11111111111101110010000110000011
00000000001001111011000110111011
00000000010000110000100001010101
11111111110010111111010111111110
00000000000111110001010100111100
00000000000111100011001010110100
00000000001011000001100001111111
11111111110011011001001011111010
00000000001101000011001000101010
11111111111000000010010001000010
11111111110100101111101000011101
00000000000011101000010111100110
00000000001111011111011001010110
11111111110011111001000000110000
00000000001001110000110100110011
11111111111101111001111110001111
00000000000101110101100110010101
00000000001110010000111001111100
00000000000100111101110000011010
11111111110000110100011110101101
11111111111010011111101001111100
00000000000011101000010001100110
11111111110000100100110000100010
00000000000011000010100011110100
11111111110110001011100101111101
11111111111100010111010111111100
00000000000110100010101010001100
11111111110001010010001000011001
11111111110100010000101010001110
00000000001000010101110001011011
11111111101101111010100010100011
00000000001100100101011000001000
11111111110001111001100111100000
11111111111111101101001010000000
00000000000011110000001111011010
00000000000111001101110010010011
11111111110100101001101001000100
00000000000010011101011111010001
00000000000111110111111010010000
00000000001111101011110000111110
11111111110010001111010011010110
11111111110110111010001010101011
00000000000101010100111011000110
11111111111111011010011011100100
11111111110011101010010000100111
11111111110000100111000001110100
11111111101111110000110111100111
11111111110011001101000110000100
11111111111000001101101110101011
11111111110011010011010110101011
11111111101111111101010111101101
00000000000001011011010110011111
00000000001010101110010100100100
11111111110111011000001110011100
00000000000001110101000001101010
11111111111111110001100100101100
00000000001000100011000001111101
11111111110011010100011001100010
00000000000000110111100011111010
00000000010001000100010101101100
00000000001101000011011111010010
11111111101101111000000111000011
11111111111101001111110100110111
00000000000000001010111010001011
11111111111001111101100100111000
11111111110011111111001000111000
11111111110011010001101011110100
00000000001100001001100111011110
11111111111010000101000111111101
11111111111110110100101011111111
00000000000101010111011001011110
11111111110100110001101100001011
00000000000001101000010011110100
00000000001010111000000110011100
11111111110101010011101111110111
00000000000101010100011110101101
11111111111111011000000001110001
00000000001010000011011101110001
00000000001100001001101000011011
00000000000100110110011110111100
00000000000000100011010111000111
11111111110000010000100101010001
00000000000111010001111101000100
00000000001011001001011110111100
11111111111001010110111011000011
11111111101101110101111110010011
00000000001110110100010110111100
11111111111011101101010011010001
00000000000011101010001001000100
11111111111010110111000001011110
00000000001011101010010100110100
00000000010001110101010110110000
00000000001011011101100101001001
11111111111010001011100100000110
00000000001100110100000111111110
00000000001000111011000001010000
00000000000001110010001011001111
11111111110001010001010110111000
11111111111000001001011111001100
11111111101101111010001000101001
00000000001100001110101110011111
00000000010010000100110100010001
00000000001010101001101101010011
00000000000101110101111011011101
00000000000100010100100101100100
00000000010001100110100100010011
11111111110110101110101100001001
11111111111001110111000110110000
11111111101111100101001110011101
11111111111110001100000111010100
00000000000001010000010001101100
00000000000101000000010110101010
11111111110011010001110110011101
11111111111101111000100100110101
11111111110000111011101011110000
11111111110001001000000010110001
00000000000010011000100010100001
11111111101110001001100111110111
00000000000100110111100111110010
11111111101111001001111011110011
11111111110011010001101011110110
11111111111100001101001010111010
11111111101110100011001101111110
00000000001110110001001010010001
00000000001110111110111000011000
11111111110110011100101110011101
00000000000011110101001001101100
00000000001001010110101100000110
00000000000101110011111000101010
11111111111101100011001110111100
11111111101110110000001011000110
00000000001101010010111101011101
11111111101111111101100010111101
11111111111100100111010000110111
00000000000001001000100110000011
11111111111001111110100100110111
11111111111001010011111101100111
11111111110000001100100011101000
00000000000001000000011110110101
11111111111101111011000111101011
00000000001111111100010000100000
11111111111001111110101101111010
00000000001110001000100010000000
00000000000000110111011001101100
11111111110111110010001101100011
11111111111011101001101011110011
11111111111101111011001100011101
00000000000000001100000111110100
11111111111100111111001100010100
00000000000101011011010011110011
00000000001111000011101111111100
00000000000010110111111100110001
00000000000110100111111001000111
00000000001011010010101011001110
00000000000011111100010000011110
00000000001000011011011101111011
00000000001001100101110111111100
00000000010001000111011001110010
11111111101111010011111011110011
00000000000110010000011101100011
11111111111111001010111110010000
11111111111100101101110101000000
11111111111000111100110011100100
00000000001010111111100100111001
00000000010000101110100100000000
11111111110001000100111100010001
00000000001001111000010010000011
00000000001100100110111110000110
00000000000011001100100010010001
00000000000000001101110010010010
00000000001110000100100100001011
00000000000000100010101100101000
11111111111011011100000110100011
11111111111110101001100101001011
00000000000101110111011101111111
00000000000100100100111101111110
11111111111111000000110111000000
00000000000101110001011010111000
00000000000100111011001011101010
11111111110001001011111111111110
00000000000100100011100110111010
00000000001011001100000010000101
00000000000010000110001101011110
11111111111110010101001011100010
00000000001110000000011110011100
11111111110000000001100010110010
11111111110111101001110101101100
11111111110111101111000010101011
00000000001111110011001100000001
11111111101110010100000100110000
00000000000001110100000100001111
11111111101110010010010110110110
11111111111111011001100001000100
00000000000110110100001101011001
11111111111011101110010100101101
00000000010001110000000010011010
00000000000000000011101110011011
11111111110110101011010110100111
00000000000100101101110001101101
00000000001001100000100111111010
11111111111111111101101011001101
00000000001111101001001001100001
11111111110100011011010011101011
00000000000111110011010101011111
00000000001010011000100001111011
00000000001001000101010001010100
11111111111111111111100100100010
00000000000101001110000100110010
11111111110001101001111001011101
11111111110001101001100111001001
11111111111110110111010000100101
11111111111101101101010100110001
00000000001101100100111101111010
00000000001101010001110001101010
00000000001100011001100000100111
11111111110111100111111110001000
11111111110001101001010010000101
11111111101110110110010001011111
00000000000110100111100010100000
11111111101111100001011110011111
11111111101101101111110000001010
11111111110110110000100011111001
11111111110000100011111011000110
11111111111000110010110011100000
11111111110100011111010000000011
11111111110110100111100110100101
00000000010001011000100111101000
11111111111100100011011101101011
00000000001111001010110011000001
00000000000000011001111101110011
11111111111101101001100000100100
11111111111010101001010111001000
11111111110010111011011100101011
11111111110001010011101111001000
00000000001100101010010101001101
11111111111010010111010111011000
11111111101110001010111111101101
00000000010000110010000000011000
00000000000000010101101101010101
11111111110011110000111001110010
11111111110001101000000101111100
11111111110000101001001101100010
11111111101111111101110101000011
00000000010000100011000001000011
00000000001100100110111001111000
00000000000001011111101101111100
11111111110000011010100110001000
11111111111011001101111010001111
11111111101110110100101000111101
00000000000110010011010011011101
11111111111011001001010001000011
11111111111100000101100100001100
11111111111010010010110110101111
00000000001000100100101100001011
00000000001001111001011101101010
00000000000100000000010111001100
11111111111101101101011100111000
11111111111110001100010110010000
11111111111111101011100011010000
11111111110010011000100001111100
00000000010001110101111011011111
11111111111000000111010001101100
00000000001010101000111000010101
11111111110101101111111100001100
00000000000000000111110110110011
00000000000110010000100111101111
11111111101111001101011101110111
00000000001000011000110011110101
11111111110010000000001101100000
00000000000010100011010011110001
11111111111100010111111011101111
00000000001010011110110101011100
00000000010001110001011001101110
00000000000100000111101111100000
11111111111111011110100101010111
11111111110110111100001100000011
00000000000110110100010100110010
11111111110111001100101101110001
00000000000111100011011010000000
11111111111000000100110001000001
00000000001100011001110100100100
00000000001110000001101001101011
00000000001011001101100110100000
00000000000000001011101110010000
00000000001000011110101101100111
11111111101111010101100110001111
00000000001110110101000100011111
11111111111011001111111100100001
00000000000110101010101000101010
11111111111100111001110100110101
11111111111001110111000010001001
11111111110111011010011011010111
00000000001011110010110111000111
11111111110110000011010011101001
11111111111100110001101000000010
00000000001001001110010110011100
00000000000001110101111100110000
11111111110000100111010100101000
11111111101101110100010011000010
11111111110111000111000010011111
00000000010000110111010111111011
11111111110010111111111001011001
00000000001010000100111111000110
00000000001101000101101101010111
11111111111000011010111010110111
11111111110111111011001100011011
11111111110010110110000011011101
00000000000010110110100010110000
11111111111101011100011001011111
00000000000000111000110110111011
00000000000111111011100111111011
00000000000111101011010101010010
11111111111010001110110001110100
00000000000001010000011000000110
00000000000100010101111111110100
00000000000000011000111010010011
00000000000011101010001011111010
11111111111000100101111011011111
00000000001110111111010000001001
11111111111110000111111101101011
11111111111101101010010001001000
11111111101111100101101001110110
11111111110010101111101100101000
00000000000000100100011001110101
11111111111101001011000000101111
11111111110110110011100110101010
00000000001001100100100101100011
11111111111110010111001110101100
00000000000110011011100100110110
00000000001111011001101100010011
11111111110111100101111101110000
11111111110111000000000001001001
11111111111100010100110101011010
11111111111110011100111001100011
11111111110110110110101010101100
11111111111011100111000010000111
11111111111111011110010001001001
00000000001000001100111100011101
00000000010000111010101101000111
00000000001101100010100110110110
00000000000001111011110110110111
11111111111110110110010000001010
00000000000100101011110001011010
11111111111111010000001110100010
11111111111101100110011010100110
00000000000110010010011011010011
11111111110001000111110110110000
11111111110000011100101111110000
00000000000000000100101111011000
11111111111010011101010010011111
11111111110110111101001001101101
11111111101110111110100001111111
00000000001100001111111011010111
11111111111111010001010111110001
11111111110110001011001111000001
11111111111000100011010010101000
00000000000100110011101010111111
11111111110010101111010001001010
00000000000001001011001010011011
11111111111111110001100100011000
00000000000110001110101011000011
00000000000111010000001111110101
11111111110100000011010111000001
00000000000111111001010100011001
00000000001101110011101101000011
00000000000001001011010101111010
00000000001001010100001101010000
11111111111001000100111100011101
00000000000011101000011100111111
00000000000101010101111101001010
11111111110111100011011101110100
00000000001011010010100011100000
11111111101110101101011111111000
11111111111001001000011001100000
11111111110101001111011010110001
11111111110101001001010001100110
11111111110100111010110111010010
11111111101110110001010000000010
00000000000011001000110101110011
11111111111100011000011111111000
11111111110000100110100110110110
11111111111111111111100001001101
11111111111100111101000011010110
00000000000111100010110001100010
11111111110001101011010101001110
11111111111010110110110001001110
00000000000011110000111000101001
00000000000111110000000100011001
00000000000001011000100010000011
00000000000100111101001001010011
00000000010010010001110110111000
11111111111001101010100110010101
00000000001100011101100110100011
00000000001111110000000100100000
11111111101111110100101111110001
00000000000100011011000101011110
00000000001010010110111010000110
11111111111101001001011100110101
00000000001010000101111000001111
00000000000000100111110011100101
00000000001101111010111010110011
00000000000000011001001100101011
11111111110100010010110000011100
00000000001101111000110000101001
00000000000101011100000011000100
00000000001111100011101001001011
00000000000100100010100001000000
00000000001001101101011011100010
00000000001011011001101011111100
00000000000011000101000011111000
11111111111011101111111100101101
00000000000011110001101101000101
11111111110011010000000001001011
00000000000000100111111110110001
11111111111010000111110110100111
00000000000001001001111111011001
11111111110001100001011010101001
00000000001011001011000100100011
11111111101111001000010001111010
00000000000111110101001010100011
00000000001100000010101101000011
11111111101111001111011100000010
00000000010000100001010111010111
11111111110010011010000001110100
11111111111100011010001100100000
00000000001001011110011100001000
11111111111010001100111001100011
00000000010000010010111100001111
11111111110111111011101110011011
11111111111101100011010100010011
11111111110100000011000000000110
11111111110111100001000100100000
00000000010001110110000001001100
00000000001101110000001000010001
00000000000001010110001010110011
00000000000001100000001110010100
11111111110000011110111001101011
00000000001101110011100000010010
11111111111101010000100010101000
11111111111000010111111000011001
11111111110001011100101010010001
00000000001111000010001011111101
00000000001000101010111011110101
00000000001011000000111001011010
00000000000001111001001011011000
11111111110011100101111000010000
00000000000111011111011000111011
00000000000010000110111101111101
00000000000110001000101101111110
11111111111011011100100101101101
11111111110111010111101110010111
00000000001111000000101110011000
00000000000110001000010011001010
11111111111000100101000001110110
00000000000001101000100000010101
11111111111100000001100110111101
11111111111110011011111010111101
00000000001010010000001111111010
11111111110001011100100011000101
00000000010000100011001001011011
00000000001100010011101010101111
00000000000000000001000000010111
11111111111000100001010100000100
00000000000011101110100111001000
11111111110011111001011000001101
00000000001011111000001010001111
11111111110110010101000101010000
00000000000011011111100111001011
11111111101110000000101000110000
00000000001000110000011010111001
00000000001100011000001110010010
00000000001101101110011001001011
00000000000001011111100001100101
00000000001010110010111110110000
00000000000110001111000001011010
00000000001100010000110011111111
00000000001010010100011001101100
11111111110000000000000101011001
00000000000001111011010111110110
11111111111001110001000001111001
11111111110111010001001100010111
00000000001100110011001001111100
11111111111101011000100000001111
00000000000010110101110010111100
00000000001011100000110110001010
00000000001100010011101111101101
00000000001001110000100011001000
11111111111100110011101011100101
11111111101111101100110100000100
11111111101110011100100010110010
00000000000101101111110110101111
11111111111111110010000111001011
11111111110100011100100110011000
00000000000111111111000110100010
00000000010000100110010000011011
00000000001010100100110111010010
11111111111101011010111010001101
00000000000010011110001000101000
11111111110100010101100001000011
00000000001000101000010111011101
11111111110001110101000101101011
00000000001100100111111101001101
11111111110111101001011110010001
11111111111000101111110110010111
11111111110000101011110000010101
11111111111011100101000000000011
11111111111110001110110011001010
11111111110111100100100101000100
00000000001101000001000100010000
00000000001010011111101000011010
11111111101111110111001001011111
11111111111110001010111011111000
00000000000110001001011101110010
00000000010001101001000101101010
11111111111011101000001010111000
00000000001011001110011110010011
11111111111110111110011011111111
11111111111000111111001001010011
00000000001011001100001010110101
11111111101111101101001010111000
00000000001111010100011101110100
00000000010010010000111010100100
11111111111011000000011110111101
00000000000111001110010010011110
00000000010010001111000000111001
00000000000101100000110100101100
00000000000111001001101010001110
00000000000110101101101110001011
11111111111000100001001101001101
00000000000100011101101010100011
11111111110110010000010001001100
00000000001111100111010100101100
11111111111000001010100001000001
00000000000100001011100010001000
11111111111010101100111111100100
00000000001001001001010000011101
00000000000000010011010010100100
00000000001010000011011111000100
11111111111011000011000110110011
11111111110101010001010000110100
00000000000111000000101011011111
11111111110101101101011000101010
11111111110000111111001010001110
00000000000111000100001001101110
11111111110101000000001001110100
11111111111001001000000111101001
11111111111011011011110010010000
00000000000001010011000110010101
11111111111001101010101011110011
11111111111001011010110011111110
11111111111011011001110111001100
00000000001100110100001000000111
00000000000101011110011010100110
11111111110111001100100101001000
11111111110011010111000100000011
00000000000000011011000111011010
00000000000101110110111010110011
11111111111111100111100000101100
00000000001010101101000100101111
00000000001111011000010101101101
00000000000101010111000000000000
00000000000110000001111101010100
00000000001010100110111101010000
11111111111001101111000101011000
00000000000011001111100101100100
00000000001110110010001010000110
11111111110111001111100101111010
00000000000001011011000101010001
11111111111000110110011101110101
11111111110001111100001000111100
00000000001001101011110111011101
00000000001110100111000111110011
11111111110110000111110001010011
00000000000110110110100110111010
00000000000101100110110111000110
00000000000111001000111101001000
00000000001010000100001100110100
00000000010001000100100100011000
00000000001101111000001111110101
11111111101111111111111111001110
11111111111000110101001101110101
00000000001001101101100010101100
11111111110101100011111010101110
00000000000011100101110010110010
11111111111000001010010010110100
00000000000011101000011011100101
00000000001000111011000001111010
00000000000101101111110101011011
00000000001101010010001000110011
11111111111101110011001011000111
00000000001001111011010100000111
00000000000101111010010101110010
11111111111010001111001011101011
11111111110011000101011101111000
00000000010000101110101010111001
11111111111010100011000100111101
00000000001101110001011111010001
00000000001011100001101011001000
11111111111111010000110111111111
11111111110000111001010101011001
00000000000001011110001101101001
11111111110111001010010000101001
00000000000100110000100001101010
11111111111000101110110100110100
00000000001110000110000000000011
11111111101111100000001000000100
11111111111011000100111101000011
00000000000010111000100011010110
00000000000001101111101001000100
00000000001111000001011011101010
11111111111010001110001110110100
11111111110001011001110100000110
00000000001100000110110100111010
00000000000101000111000000110101
00000000001100000010111010101110
11111111110101001011010111000010
11111111110101010000101000110101
11111111111000100111010001000100
00000000000001010011001101000100
00000000000110001100100011111110
11111111110101011111011111010110
11111111111110010001110100010000
11111111111100110101101111000100
00000000010000101011110011111100
11111111111001011001111100101010
00000000010001101110000101101101
11111111110100110010001110101000
11111111111000011101110001010100
11111111110010001111110001110010
00000000001101011110001001100110
11111111110011011011001110000100
00000000000111100100011010111000
11111111111001010001111101101100
00000000010010001110001100110101
00000000000010100101000100111001
11111111110000000111101101000101
00000000000011001001011010010001
00000000000010001110010010000101
11111111101110010100000101110001
00000000000011101010110111011000
00000000010001011100100100001001
