00000000010111001101010000110110
11111110101000100011010001011010
11111111111010010001011010110110
11111110111001101110011111101000
11111110011101101111000100010010
00000001010110001110010101101110
11111111010010011011001111001110
00000001100000111100110111001010
11111110111001110101111100101000
00000000110001111111110110011110
11111111110111111000000100010000
11111111110010100100001011000000
00000001000101101100111111100010
11111110010010101110101100000010
00000001100100110110101111110010
11111111100111010000011001110110
00000000110110100000000110011010
11111110111000011000010011111010
