11111111110101110111111100011101
11111111111000010101000110000001
11111111111010101001110100101100
11111111101110001011111101011011
00000000000000111100110100010111
00000000000011001110111110011011
11111111111111111111000000100110
00000000000101111001111010111011
00000000010001010110011011010100
00000000000100110111001010010000
11111111111001010011100101110100
11111111111000011110010111110111
11111111110100010011001111101010
11111111110011010100101111000110
11111111111101000011100001101001
11111111111100110001000001000101
00000000001000001000100111011100
11111111111000001011110001101110
00000000001110100100111101001100
11111111110011001010110101010111
00000000000000000011010100111000
00000000010000011011111111100100
00000000010010001011101101101111
11111111110101011010000110010000
00000000000011010000011101100011
00000000000010001010001111001100
11111111110111011011010011110100
11111111111001101011101011000010
00000000000100111100111110100000
11111111110011010010001110010110
00000000000011000001000101111001
00000000000111111010011010010110
11111111111000110010110100110101
00000000001111001100000101100110
11111111111110110010111110111011
00000000001000010010111110010011
00000000010010000110111100010000
11111111111010011010010001111110
00000000001001111011111100010110
11111111111010110001010000111010
11111111111101010101000011011001
11111111111100111001101010111010
11111111111111111000101110101100
11111111111001000101111001110011
00000000000100010010010011001011
00000000000000101100000110001100
00000000001011100101110101010000
11111111111100010011001000001100
00000000000001110101010110110100
11111111111001001100101010100100
11111111110000101011111100001010
00000000000111011001100100111000
00000000000010010101101111110101
11111111111000101011010100011101
11111111111001110100010100100001
00000000000100110010000011100000
11111111111100101100011001001000
00000000001011111100110000001110
00000000000001000010010010011110
00000000000110111010000011110101
00000000000111111101111000111010
11111111111011100000110110011111
00000000000111111010010101110111
00000000001101011111100101111100
00000000000000110101110110101100
00000000000011100101000001000100
00000000000000101010100001011110
00000000001100101010010001001000
11111111111000010001111010010011
11111111110110010001111010010101
00000000000111111101111101001100
11111111110000000101011110111110
00000000000000010010110000110011
11111111110111100101110010111101
00000000001100000100011011011000
11111111101110111110011010110001
00000000001011000101100101010001
00000000010010000101110101001000
00000000000011101100110010111011
11111111111110110010000001110010
00000000010001111111111110000111
11111111111000001011111000000011
11111111111110100010001110001001
11111111110111111111100001101011
11111111111101011110011100111101
00000000000011111110010110010100
00000000000010011100010011100001
11111111111100100010111101100110
11111111101101101101111001101010
00000000000000111011111011000110
11111111111111011101010101011000
00000000000010110000000011011101
00000000001110000000101110110101
00000000010001110001100001110101
11111111110101001001101100001010
11111111111110110111000001110001
11111111111000101011000110001111
11111111101111001001011010010101
11111111110010101100011011100101
00000000010001001010011000100111
00000000001010101010010110010010
00000000001001110100100111101100
00000000001010001010011000001110
11111111110001011110001110111001
00000000000001111010111001110000
00000000010001000001001100111011
11111111110101110010111000010101
00000000010000010001000101000101
00000000000100110011100110001010
00000000001100110111010110001101
11111111111000001010101010100000
00000000001000011011100001011100
11111111101111110010100011100110
11111111111110110101101100010011
00000000000110000110010110011010
00000000000101011110111101100101
00000000001111010011010011011111
00000000010001111101111111010101
00000000010000101000101011001111
00000000001100010001101110001000
00000000001100110110110010001001
11111111111101101000111111111001
11111111110001110011110011011011
11111111111001001101100011101111
11111111111101111100100111100101
11111111110110000111100101111111
00000000001001010110001101110100
00000000000110011010110011010110
00000000000010111100110100111111
00000000000100011010101100011111
00000000010000000100000010100100
00000000000110101010010000010011
11111111101111111101101110101111
11111111110010101110100000110010
00000000001000000011110011011001
00000000000010011111011111000101
00000000001000111010101111010001
11111111101101101111001101100110
11111111101111000111111110101011
00000000001011001101101001100111
00000000001011101100100100010111
11111111101111011101001110101101
00000000000110111100001110010010
11111111110001101110001100000111
00000000001101110110010001000011
00000000000101101111001110010111
00000000010010000101001010011100
11111111101101111110000110111001
11111111101110011001011001001101
00000000001100010111001110111000
00000000010000001111000000011011
00000000001011001101000000101011
00000000001100001010000010100111
11111111110000100110010011010101
00000000001101001111000100011010
11111111101110101111000101000000
00000000000100000101011100011010
11111111110100000001011011000001
11111111111000101111001010110000
00000000000011001111001110001010
11111111111000110011110111100000
11111111111101000110110101011000
11111111101110101010110001100101
11111111101110110000100100011010
00000000000111000101010100110101
11111111111000010000101001001011
11111111110100111000000000101010
11111111111000110010001110011110
11111111110001000011001101100001
11111111110001011000011110010011
00000000001010111100010001000100
00000000001001010010110010011110
00000000000010011011111000101101
11111111110110000000101110000110
00000000000110000101010110101111
00000000000000110100100100110100
11111111110010111011101000001111
00000000000011111011110101010110
00000000010000101001100110001011
11111111101110000000111001100101
11111111101101110100010001101111
00000000000010010101111100010101
00000000001101110001010000000101
11111111110100110111111001001010
00000000000100000001100111111001
00000000001100110110101100011001
00000000000101101000110100010111
00000000000011111101010000110011
00000000010010001111100111111101
00000000001011111010011010001100
11111111110101101101110011001100
00000000000001100101001001111100
00000000001001010101110111011110
00000000010000001000000101100000
11111111101101110011101001001111
00000000001001111001101101110100
11111111111010101100001110101001
11111111101110000110000010000001
00000000000100000011110001011110
11111111110110000010111000010111
00000000000010100101110110000000
11111111110100001000001100100001
11111111110010001111010100111000
11111111111110011100101100110100
11111111111001110110110111110000
00000000001010101100011101010111
00000000000001100100111001100101
00000000001110010001011110100000
00000000000011011011010100001010
11111111111010000111101011100111
00000000001100011000101011001000
00000000000000111111111100110100
00000000000011011011101001110010
11111111111010000111100111000001
00000000000000000100001100110011
11111111111100011110111111000101
11111111111110011100100000010111
11111111110001101111010100011000
11111111111111111000110011011001
11111111110000110100100111000111
11111111111100000100001111000101
00000000001010100110001111000001
11111111110011010010001111011101
11111111110011101011001010101100
11111111111011100010001111100111
11111111111010111111001011110101
00000000000011000110000111010110
00000000000011000010010010010010
00000000001001010001011100101010
11111111110011011001110100000010
11111111111110101101011010010110
00000000001010001110100001111101
00000000001111110100010000111000
11111111111110101010101000100001
11111111110101011010110110010110
00000000000101010000011010011101
00000000001010011010011100111000
11111111110100100100110111010100
11111111110101011000111001000001
00000000001000000101010000111010
11111111111110101110000000001100
11111111101110101110101010101011
11111111110101011101001110110001
00000000000111011010100101101110
11111111111001110011000100010101
00000000001100100111110000111110
00000000001110011101001010000101
00000000000010101010001111011100
11111111111110100011011101011100
11111111111010001100100001010000
11111111111111000100110100101101
00000000000011010101000001000011
11111111110010000010000100111000
11111111111011101000010011101001
11111111110000110010100011100010
00000000001011001110010001001100
11111111110100010110101110000100
00000000010000101101000110110111
11111111111011010010010100101011
11111111110101100001100100101000
00000000001000110010010001000111
00000000000010101110011101110001
00000000001100101010010111110001
00000000000111101000100011110001
11111111101110011000100111100010
00000000001011100100001100011100
11111111111100100011100111101000
11111111110111111010110001001000
00000000001011100111001100011100
00000000001101010101100001100110
11111111101111111011011001100110
11111111111110010110001011011101
00000000001111000001000010111101
00000000000111000101001111000111
00000000001111011001111011100000
11111111111001101110111100011101
11111111110101111010011010111100
00000000001111101110010101110000
00000000000111100111110011010100
00000000010001100011011101000011
11111111111000010111001011010000
11111111110100010000100110010011
11111111111101110110110100111101
11111111101110110010000101010010
00000000000111001010101110010001
00000000001101011111001100000111
00000000000100011000111011110110
11111111111110001100010111100011
00000000001001000100001111000011
11111111110100011001001010001110
00000000010001111000110100101111
11111111101101110100010101010111
11111111101110011110111011100011
11111111111011101011011101011011
00000000001110111011111100010000
00000000000001110101001011010000
00000000000111000001011100010111
11111111110010100110001011000011
00000000000110101010110010010110
11111111111101111101001110100111
00000000000111010101000101000000
00000000001100111010100000010111
00000000000111111100101100110011
11111111111110011100011100110110
11111111111110110111111010010101
11111111110100100010000001010010
11111111111001011000101101001001
00000000001011111000011111110000
11111111111000101010101110000011
00000000001011010110110010110100
11111111111000101111111100011100
11111111111011101111011100010010
00000000000000011000111010000000
11111111101111001110000100011011
11111111111111110100010100001001
11111111111110001010000010100101
11111111111110010110110111011011
11111111111100010110000011100001
00000000001110011010101000000111
00000000001101011111101001111110
11111111110011100110110101001001
00000000001000011111101000010000
11111111110001101010000011000110
11111111110000011011101101100000
00000000000101100101101111000011
00000000000000010001001100101111
11111111110111011110000011011111
11111111101110010111010000010101
11111111111000111010111100001011
00000000000110000110110111111111
11111111101111000100110010000010
11111111101110001111000110111010
00000000000010010100011110100010
11111111110010110100111010111110
11111111101111111110101111000110
11111111111000111101000110101111
11111111111101000011100101010100
11111111101111011000100011100010
11111111110011110010100100010110
00000000000001001100101110111011
11111111101110110000011101000010
11111111111101011011100000101110
11111111110100001100010101111110
11111111110011010100101101101110
00000000000111001011111101010110
11111111110001111011001111100100
11111111110010001001000111100001
00000000001010011011011001000111
00000000000011011010110011011101
00000000010000101001110010110101
11111111111011000111001100000010
11111111110111001010101111000000
11111111111110010011101100011100
00000000000000000101111010111100
00000000001101111100100000110000
11111111101101110010010011010101
11111111111110101100101011001100
00000000001000000101101011011011
11111111110101111011100010110011
11111111110110101101010101001000
00000000001000110101100011111011
11111111101110011110101001100101
00000000000100010101010011100101
11111111110001110101111110110001
00000000001001000101101101000101
11111111110000010111010110111100
00000000001011001111011111110100
11111111101110101100001010110110
11111111110000101000010011000000
00000000000000010001001111110001
00000000001110011010001010111111
11111111110000010101110001011100
11111111110111110101111110111001
00000000010000000011110101110111
11111111111100111011101111110000
00000000000111100100110101001101
11111111101110011010001011111111
11111111111010001111111101111011
11111111110110101101101100010000
00000000001111011010100111110101
00000000000111100101101101110010
11111111110010101010000100100011
00000000000010111100101011101000
11111111111111110010100011001011
11111111111000011111001010100100
11111111110101100011101011010110
11111111111001111011101001110111
00000000001110011010011100110100
11111111110010111001000101000000
11111111110010111110010110101101
11111111111010010110111100011101
00000000000000010100010110111101
00000000000100111110100100001101
00000000000000100011000111100011
11111111111011100110010010000100
11111111110100111010011001011010
11111111111100101110000000110100
11111111111000101000111001011101
00000000001110110001100000011111
11111111101110001100110101010011
11111111110100010101100001011101
11111111110001000111110111100000
11111111111100101010000111110101
00000000001110001111111110001111
00000000010000000001110011010010
11111111110000000101001100111010
11111111111111001101010010111001
00000000001010101110111010110000
00000000001000000011110110111110
00000000001110111110100101011110
11111111111111011111100010011101
11111111110011101101101100011001
00000000001100000110001011100000
11111111111001101110101100010011
00000000001001011101111101010011
11111111111011011111100110010101
00000000000111110001011110110100
00000000010000011100100101011101
00000000010001000000001100100101
11111111101111010110111101101100
11111111110011111001111000010001
11111111111000011100001000000011
11111111110100010101101101010010
00000000010001100010111000111010
11111111111110011000101001000101
11111111110011110111101100111100
11111111110111110111001111000100
11111111110101111001100100110110
00000000000111011101011101101101
11111111110000000011001101111001
11111111101110111100110100100111
11111111101101111110011000001011
00000000000111110111110101100001
00000000001001000010101001110011
11111111110100101001001010010000
00000000000100100010001101001011
00000000001101011111111000110001
00000000000010101010000010110100
11111111111100001000011000111010
00000000000001010110011101101010
11111111111110000010100000110101
00000000001001001101001111001110
11111111110011100101010111001110
00000000001001010001011101000111
00000000001010010011100110011100
11111111110100111010111101000010
00000000001110111011100111001101
00000000010001111101011011111101
11111111111000110010101000111101
11111111111010111000001101011011
00000000001001000111001101111110
11111111110001101011001011001010
00000000000111001110110011001000
00000000000100010001000010001000
00000000001011100001101010100111
11111111110000000111011110110110
11111111110000110011101111101001
00000000001000001101100111000000
00000000000110100101100011001011
11111111101110111110101111001101
11111111110101110011011000010001
11111111101111010001001101101011
11111111110010111001100101001010
11111111110111101111111101111011
00000000001111001000011101001101
11111111111100010111000011011100
00000000001010100000001001111011
00000000010001010111011001011110
00000000001000010101010101100100
11111111101111101000010110010010
00000000001001001100111010100001
00000000000110111110011000110011
00000000001110001011000011000101
11111111101101111101100101110001
00000000001011001111101111101001
00000000001110111101111011010110
11111111101110111111001101010010
00000000000001111010011100010101
00000000001111100111000010101001
11111111110010101100110101111000
00000000000101111111111111100100
00000000001000000101000111110111
00000000000100110010101110000110
00000000010010001011100101100011
00000000001110111110001101001100
00000000001111101100000011010101
11111111111101101110001000001011
00000000001111010101100010001000
11111111101110111101011001010110
11111111110110001000011110101100
11111111111100000101101100101011
11111111111010100100010110111101
00000000010000111000111111001001
00000000001000100111111110111011
00000000001011110001011100011111
00000000001100011100000010100001
11111111110010010101110010101110
11111111111101111000011101001101
00000000000010101010111000111111
00000000000100110000011000011111
00000000001001011001110011001001
11111111111000101110010101011110
11111111111010011111000111100110
00000000001111010011001110011111
11111111111011000101111010011111
11111111110011010011000100100100
00000000001100011001100000000001
00000000001100011000011101110010
11111111111010010001000010011000
11111111111100010110000010010101
11111111110010100000011110000100
11111111110000101110101100111010
00000000000110111000000101011110
11111111111000001100000100000001
00000000001110100011101010001100
11111111110001010110111011111101
11111111111101011110001111001100
00000000000000011001010001001100
00000000001001011001011101110000
00000000001110110011001001011111
00000000001100011000100001011101
00000000001000000011001001111011
11111111110111100110110110001010
11111111110010111100001111100100
11111111101111101001000011000010
00000000000000111010000011010011
00000000010001101111000010010111
11111111111100100001101101101001
11111111111111001110101110111001
11111111110010101101100011111000
00000000000101100111010010100000
00000000001011100101111100010001
11111111101101111110001100100110
11111111110011000111111110011101
00000000001101100010110101101111
00000000000100010101000101010000
11111111111110110111000010011001
00000000000011010001001100101100
11111111111101001110000100010101
11111111110011001110000000101110
11111111101110111010011100110011
00000000001100000001101101001100
11111111111101110100110011110111
11111111111001001101010111101111
11111111111011010001111011101000
11111111110110000001101100110000
11111111111010100101011000011000
11111111110000010011011010001111
00000000001101101011110001101010
00000000000111011101111000001010
11111111110110110001110011001100
11111111111001110000100100001111
00000000001000001101000010001011
11111111111001001110101000110001
00000000000100110100100110001101
00000000000101000010001110100111
11111111110100011111010100000010
00000000000100100101001010001000
00000000000001000111100110100101
00000000001111111110000110111101
11111111111001011000100100010100
11111111111011010011001010000001
00000000001111110000010100011010
11111111110001000100010101111001
00000000000001010100100011010010
00000000010001100111100100101011
11111111110111110011010010000001
00000000010001100001111011101001
00000000010000001110011100010011
00000000010001000000110000110110
11111111111110010000010100111111
00000000010000100010101011011111
11111111111000000010000101011000
11111111111001101111011001111100
00000000000110111010101000111110
00000000000011110111001110000011
00000000001010000101001001100110
00000000010001011000001001010010
11111111110100100011011010100000
00000000001001101101000110100001
00000000000110000111100010010100
00000000001001101001011001111100
00000000001000101010111010101100
11111111111001001010001110110100
11111111110001100011000011101100
00000000001110101000101011011100
11111111110101100100101010010101
00000000001011101100001100100000
11111111101110100101001000101001
11111111111100110101100010011011
00000000000000001100011001110101
00000000000011001010011111001011
00000000000001011110100110001011
00000000000101110000110000111011
11111111111101111101101100011111
00000000000100011110100110111011
00000000010010000110000110001011
11111111110100001010110000111010
11111111111111000000000110110011
11111111111001000001010001100111
00000000010000000010110101111110
00000000001111101001110011111011
11111111111111100000000101100101
11111111111001101010010101110100
11111111110100101100111010111001
00000000001101000101011000101100
11111111111110101111011010001111
00000000010001001110001011111011
00000000001010011011010111101001
00000000010000000000010110110100
00000000001110011101100110110100
11111111110100000111011111111100
00000000000101010110100010111001
11111111111000011010101110110001
00000000001001001011001100011101
11111111111110010110110001111011
00000000000001100101010011111100
11111111110011010110100111101100
11111111101111101010000101011111
00000000000110111000101100101011
00000000000100001111111101010001
00000000000001100101101001111000
00000000001100011010110110100000
11111111111000010111010100011001
00000000000110011111011011011101
11111111110101111011011100111010
00000000000011110010011110111011
11111111111011110100110100110101
00000000001100110011100101010001
00000000001111111111011001001111
00000000001111111000011010111100
00000000000000110100101001001111
00000000001010110010000111000000
11111111101101101110101110010000
11111111110101010001100001000110
00000000000011010001001010000100
00000000000000000110100001101101
11111111110001101001001111011001
11111111110111111010000001001010
11111111110111011101011010011101
11111111101101111000100001100111
00000000000001101111100111000111
00000000001100011101110001101110
00000000000111011010111110011110
11111111110111010011111101010111
11111111101111001101010111100001
11111111110001001111110101110010
00000000000000010101101101010011
00000000001100100101000011100010
11111111111000100110000100010000
11111111110110000011001100011111
11111111110110001111101101000010
11111111111110011010101100001010
11111111101110101000101000011111
11111111101111110111010010011011
00000000010010000000000001001011
11111111110111010001110111110100
11111111111100101100111011000101
11111111111011000110111000110001
11111111101111111011111001011001
11111111111100110001101011111101
00000000000101100110001111100111
11111111111000100100110010111111
11111111111111001110000111110111
11111111111111111010011001101111
11111111101101110010111110011001
00000000001101010010011101110100
00000000001110110001010100110011
00000000001100011101111010000100
11111111111001111111101011100010
00000000001001100011100011000110
11111111101110110111100010000111
11111111111011011110011111001011
11111111111100010001111110111000
11111111111001100010101101101101
00000000000111101011100001010010
11111111110111101010110000000001
11111111111101111000010111000000
11111111111010101110000100111000
11111111101110110101000000010011
11111111111100111110101111010000
11111111110000100000001101011111
00000000001010101010011001100000
00000000001001110001011110010111
00000000010001001000010100000111
11111111111001110111000000111101
00000000000000111011100000101111
00000000000011100101001111111000
00000000010010010000001100110111
00000000010000110000101100110001
11111111110110100010010101001100
11111111110000011100001100110110
11111111101111100001001111000011
11111111110111001100011100000000
00000000001111010111111101011110
00000000000110001001000010100100
00000000010001101001001001110110
00000000001101100011011100001011
00000000000000010000111101110110
11111111110100101010101011111001
00000000010001110110110010001110
00000000001110101010110001010000
00000000000111111010101010101100
11111111110110000000101101110100
00000000001110011001111011010100
00000000000001101010100000111100
00000000001100000101110101010010
00000000000111101000011100000011
00000000001001101101011011100111
11111111101111111101000110100011
11111111110101110111000110010100
00000000001010111101111001110111
11111111111100001100001100000000
11111111110000000101111000000001
00000000010000101000010000011100
11111111111111100110101100010011
00000000001110110000000011001111
11111111110001101101010010010000
00000000000110010010111011000001
11111111111001000111001100001011
11111111111000010011100001101010
11111111111100001011111010011111
11111111111001001110110100101101
00000000001010000001010001010010
11111111111100100001101001011001
00000000001101110111010101001101
00000000000100001011000010100010
11111111111101001011001011000101
11111111110101011100000010110011
11111111101111010000011001101010
11111111111010101010100110100000
11111111101111000100010001110101
11111111111100100111001011100011
00000000000000010011001000001010
11111111111110110100100101010001
11111111110111000001001000101101
00000000001100101100010000001011
00000000001010010011000101001101
11111111111011011111101010110010
11111111111000110001100111010000
00000000001011011111101111110100
00000000001111111010001011010101
11111111101111010000011100001111
11111111111100000011001001100011
11111111111110010011011001010010
11111111111001011000010010010001
00000000001111100111000101010110
11111111111101010011001000101011
00000000001111100000001110011001
00000000000000000101110010010001
11111111111110000001000011101100
11111111110101010101010111101101
11111111111001111010110111110110
00000000000101111001000110011100
00000000001000000101101010010100
11111111111111010110010111000111
00000000010001011011000110010011
11111111110011010110000000011100
00000000000111000000101101000000
00000000010000011110000011000100
11111111111100110100100000100001
00000000001110100001000110011011
00000000000000010011010010101001
11111111110010010011101000110100
11111111110101111101111101100101
00000000000110110011100110010011
11111111111000000101100011110111
00000000000100011001011101110111
00000000010001111111110111000010
00000000000110001101100001011111
11111111111110010010011110010011
00000000000100100100100001001100
11111111110101011101101111110101
11111111110000101000101010011111
11111111110010010000010011000000
11111111110000101010000000101010
00000000000011110000001010100110
00000000000011100011111100111011
11111111111000001110101010101000
11111111101110000111010010001101
00000000001001111001111100110000
11111111110101100111111110000001
11111111111100111100100111111010
11111111110000101010101111001001
