00000000010001111010101010110110
11111111110000110010000100100001
11111111111110000101001010001110
11111111110011000100100111010011
11111111110100000101010011100001
00000000001110000000110111000101
11111111111100011101111100110101
00000000001000000111111001000000
11111111111001101000010110010100
00000000000000011001101010001001
11111111110110101111000100100101
00000000001111011100101000011100
11111111101110000011010100001110
11111111111111000110101111110111
00000000001111101000010000000011
11111111110010111110000111100111
11111111111101001001001110111111
00000000000011010010101011110000
00000000010001101010000000110000
00000000000000010101101010000110
11111111110001010101111101111111
11111111110011001011011111011001
00000000000011000101001011111100
00000000001111100011110010001111
11111111101110011011000101101111
11111111110010011001101000010101
11111111110001001100010110001100
11111111110000001110011111000100
00000000000001011110001001111110
00000000001010000101000111100111
11111111110000001100100101001010
11111111111101001010011011110011
00000000000100101001001100100000
00000000000101001100010011000011
00000000000111110110001000011111
11111111111011110011101000101001
11111111111010110011011011110001
11111111110100110010111010011100
11111111101111000101011010110000
11111111111111110100010111101100
00000000000101101001001010101111
00000000000010000000100110101100
00000000001110110110000000110001
00000000010001100001001101111101
00000000000101000111010011110110
11111111110111010011001010011000
00000000001000111100011111001110
00000000000111110101101010100010
11111111111100111111011010011011
11111111110000110100000010100001
11111111101111110110110110011011
00000000001110111110101101100101
11111111110011001001001101100100
00000000010000101011010010001110
11111111110000101110110011100100
11111111110111110001011011001101
11111111111110011001111100101110
00000000010000110010011000010000
00000000000011000110101000100011
11111111110100001101010001111000
00000000001101010101101001001100
00000000000100000111111011010111
11111111110011111001100101000100
00000000010010001011001110010011
00000000001111000111001001110111
11111111111111000000100001001001
11111111111111000100001100110110
00000000001010011011011011110111
00000000000001100000010010001011
11111111111101010100100111011011
00000000000110000101100100100101
00000000010001100100101001000111
11111111111100111000010001110100
00000000001010011100100001011011
11111111111000100111010111001001
11111111101111110111000010111101
00000000000001110110101000000001
00000000000000101111101011111110
00000000000110011000010000110010
11111111101111011111001010001111
11111111110010000101011110111110
00000000000000110001100000001111
00000000000101010101011001001011
11111111101111010000100001100001
11111111110010001001001010101110
11111111110100000011011010111111
11111111110111001110010001010101
00000000001110001010011000100001
00000000001010111101110111001111
00000000001111111011111100101100
00000000010000011100000010110001
00000000001010000100010101110000
11111111110101101110010010110100
11111111101110110010011110001010
11111111110010101011110100001101
11111111101111111001101111111101
00000000001110101100111010001011
11111111110110000110001101110100
00000000001011100011110001000001
11111111111011111001001011100010
11111111110101000011011110011110
00000000000010100110000011111100
11111111111010101111100100000001
11111111111111101001010111111111
00000000000100111011111011111111
11111111101110001100100001001111
11111111101110100001000111111111
00000000010000111000001100000101
00000000000101011010000001101000
11111111111100011010001101000011
00000000001010010010011101000100
11111111111110001101001100110110
00000000000101011011010110101011
11111111110010111111000001101010
11111111110101011010001000010111
00000000000110001101011111010110
00000000000001110011101010000111
11111111111101001100101111101101
11111111111101010101011001111100
00000000000111110100010000000100
00000000001110101110100100001001
00000000001100101010111000101110
11111111110110000000101101011010
11111111111000011110001011001000
11111111111100000001011101110111
11111111111001101001111010110011
11111111111101001010111110110011
11111111111110011100011000000100
00000000001100011001110111000100
11111111110100000001011101001111
00000000010000011000001011111001
00000000001110000101010011111000
00000000010000111110001110010111
00000000001100011011101011011010
00000000000111111000110001100000
11111111110001101101110010111101
00000000001101111001110011110001
11111111101101110101111101011101
00000000000011010010001000001100
00000000010010000001111011011011
00000000000010110011000010101011
00000000000001100001111111010010
11111111110100010101000110001100
11111111110000011011101100100101
00000000000010100100101111110011
00000000000110110001101101010011
11111111110101110000000100000101
00000000000001111101100101100110
00000000000001011001000100110001
11111111110101011010101001110100
00000000000011101000011101011010
11111111110000110100000100100011
00000000001010010011110111110011
11111111110100110001000110001100
00000000001101011011011100110111
00000000001111000001010000011010
00000000001010110100001100101111
11111111110011001011011101100110
00000000001100101110111010001100
00000000000000010001101001011111
11111111101110011001001010000000
00000000001110011101111000111001
00000000010000110110011011110110
00000000001000000111001101100111
11111111110001010100001011110110
11111111111011001111101010111100
11111111111110010100001010101110
00000000010000011101101000010000
11111111110000010110001011000001
11111111110011000100010101100001
00000000001001011100011101100111
00000000000110000110011000001100
11111111111010011100000100110110
11111111110000101011110011001010
11111111111110000100000110000000
00000000001011011111000110010110
00000000010000010010101011001100
11111111111111100010000000111001
11111111110101010000101000001110
00000000000101010010100000100101
00000000001101110000100001111000
11111111110100111110011001101000
00000000000100001010011000100011
00000000001010001101000001001001
11111111111101011010010010110001
11111111110001000010101001111001
11111111110110011100010110010011
11111111101110001011010010110001
11111111111111100010000001001110
00000000001101010000010111100011
11111111111110100101100111001101
00000000001101111101011011000001
11111111110001010110110000000001
00000000010001011110111101101111
11111111111010111001111010110001
11111111110011100111100001010100
00000000001110100110011001100011
11111111111100000100110100011101
11111111111110001011011101110010
00000000001000011100100010001110
11111111111101110110001101101011
11111111111111000111010100101000
00000000001000100111110010010010
00000000010001011001000100000100
11111111110111110110011011101100
00000000000000101011010010011011
11111111111010110100011011110100
00000000000001000100111000110110
00000000001011001010100010110010
00000000001101001011000101100100
11111111111100011000101000111100
11111111110101111010000111101011
00000000001000101100100111100000
11111111110011000111000100111001
11111111101101111001001100010110
11111111111000010110110011110010
11111111110010101110000110111011
11111111110011100010011000010010
00000000000111100110111101110110
00000000000100001001010101110110
00000000001001010110111010010010
00000000000100000100110101011101
00000000000011111001100000110110
00000000001101011111010001000110
00000000001010001000110010011001
11111111110011000010000100011101
00000000010000110111100001000110
00000000000110011000111011100001
00000000010000010100001100111001
00000000001111001100100100001000
11111111111001101101101001001100
11111111111110110011101111000000
00000000000101010110100101100111
11111111101111110101001110101111
11111111111000101111011001110101
11111111110000000010000000110000
00000000000100000011000110101001
00000000000001111111101000001001
00000000001100110010110111100100
11111111101111000111000110001010
00000000001101011110110001111101
00000000001001100000010000111110
11111111111100011110011011101011
11111111101101110100001111000010
11111111111110111111011111001111
11111111111001110100111111001111
11111111110110010110000110001000
11111111111000110100110010100100
11111111111011111101010001011100
11111111111010110000010000000000
11111111111111011111010011111101
11111111110010111000010001100110
00000000000110011111011010111011
11111111111000000001000011100000
11111111110010111000010010100010
11111111111111100001010111101100
11111111111110001011011110010100
11111111110000011010010111001100
00000000010001000011110101000100
11111111110001100100001100000111
00000000001111000101101101101111
00000000000010000001111111100010
11111111110010000011011001011001
11111111110001111100010001000010
11111111111001000000000001110111
00000000010001011110101110111011
00000000010000100000000001011010
00000000001001000111101001111100
00000000010001000001111001000111
00000000001011000001011011101100
00000000000101010010001011110111
00000000010000010111001010000011
00000000001010110100100100111011
00000000000011000010000000000000
00000000000110100110011010000110
00000000000001010001110101110111
11111111111000000111101011100101
00000000001000011100100111100111
00000000001000101101000100000011
00000000001011000111001110101010
00000000001100111110010011100011
00000000010000100011111000101011
00000000000101001101000101100010
11111111111010001101000101101010
00000000000110000001011011011111
00000000001001110000100000010000
11111111110010111111100110000100
11111111110101000100100110010111
11111111110001111101010001100101
11111111110110000011000001100000
00000000010001000111101000001000
00000000001001100001011100010011
11111111111110101101110010110000
11111111110010110011000100001010
00000000000101001110110001110011
00000000000011010001011110010110
00000000000000001110111100010110
11111111110100000101100001100001
00000000010001111100000101110011
00000000000010011100101100001000
11111111110001111111001110011011
00000000001010011101110001000001
11111111111100110011101111110101
11111111110011011001111111111010
11111111110010110100001010011101
11111111111110100011010111001111
11111111110110010100011010101100
11111111110011101110011001111110
00000000001000010011011110010100
11111111111111001001000011001111
11111111110100011011010000011010
00000000000000110101100110011111
11111111101110001000110001100011
00000000001110011111111011101011
11111111101111010101010110000111
11111111110101011011100000101010
11111111111100010011011101111100
11111111101110100110111000001010
11111111110000001101000111011000
11111111110001111010111001011110
11111111110100011010110111011110
00000000000101011100011101111000
00000000001010001011101010110011
11111111110011011011011100100111
00000000001000100101111011111111
11111111110111110101010101100101
00000000001101011001001110101010
11111111111011100000111000001001
00000000001000000110000111100101
00000000000100110100101000000000
11111111111001110011001101000000
00000000000001111101001011101101
00000000001000101111101101100111
00000000001011101011101011110011
00000000000100000010010001011011
00000000001000101011000111011110
00000000000101100100110011001100
00000000001110100011110101111101
11111111110011011100010011100110
11111111111000000111010000110111
11111111111111111101100001001001
00000000001011010010011010011011
11111111101110000010110101001101
00000000001000000111110111111001
00000000010001011111011010001000
00000000001011110100001111100111
00000000010000001010000100111000
11111111111001011101000001100000
00000000000001111100100001110101
00000000001111110001111100001110
11111111110100110101110011001101
11111111111100010011111010110010
11111111110111111000111011101001
00000000001101110101000111101000
00000000000011111000000011000011
11111111101111100111001110010010
00000000001101011111001010101101
00000000001111000100111011101101
11111111111111000001111100100000
00000000010000110101010100111110
11111111101111011110110111100111
00000000000001011110010101101011
00000000000010010011011111110100
00000000000100011110111010011000
00000000001000110100000110100000
00000000000110001011110101001111
00000000010001000111110110000110
11111111110101101111001101100001
00000000000011011100001010110110
00000000000111101011011111010111
11111111110001100001100000111110
11111111111000111110101100000101
11111111110001100001110101111101
11111111111001001111010101000000
11111111110110001111111110001110
00000000001101111100111110000100
11111111110111000100001101100001
00000000000100111101011000010000
11111111110111111101101010011011
00000000001011110010110111111001
11111111111111101111101101111111
11111111110011100101010110000000
11111111111001111100011110110110
11111111110100011110110111011100
00000000000101111111111110010010
00000000001111111110100101110100
00000000000101111001010010001101
00000000000100101100111001011110
11111111110001101000110011011100
00000000000001110011010111111011
00000000001000001111110101100010
00000000000000110100100111001010
11111111101110000110010001000110
11111111110100011111000000001010
11111111101110011011110100110111
00000000000011000010010110000011
00000000000101110101011010100100
00000000001001010100110001001111
00000000001011010101100011011010
11111111110011110000011100011111
00000000000101100110101111101000
00000000010001110000101111100101
11111111111000001101011010100010
11111111101101101111110100110111
11111111111010110100100010011000
11111111111000001000110101110001
00000000001101101001100001110000
00000000001101111010110010010001
00000000010001000100001110111000
00000000001100011111000000111110
00000000000001000111101000101011
11111111110110011000110010011001
00000000000011001111101100000101
11111111111100100011010011100010
11111111110111111001101100101100
11111111110000100100111111111011
00000000001111100101001011011011
11111111101111001101110110000011
11111111111011000000000110101000
00000000000101000000101010001011
11111111110101010001000001010101
11111111111011010001001011111001
11111111110000101101010100000101
00000000000100001001111111001100
00000000010000101011110010000011
00000000000101111110011001000110
11111111111101101001000100110011
00000000001101000100000100111110
00000000001110110010111101101111
00000000001111011000000100101111
11111111111001010111010001010001
00000000000110011100101111010100
00000000000100100000001100011111
00000000000100000110010000110011
00000000001101011010001100100110
11111111111000011110010010111101
11111111110011010001111011111010
00000000000111100000111010010110
00000000000100001000000110010100
11111111110110111011001010010110
00000000001011101010101110010100
11111111111110000100010111001110
00000000010000011101011100010010
11111111110001010100101111000101
11111111111000001010100011100100
00000000001000011000100100100000
11111111110101111011100101000001
11111111111111100001001000001101
11111111111011111110101100010100
00000000001100100111110000101101
11111111101111011011011011000011
11111111110011001000110010001000
11111111110001000001001111100001
00000000000010100010101111010011
11111111111111001010100110000011
11111111110111110101011100101111
11111111110010100001001110101101
00000000001001100011101010110000
11111111110011110010010101101110
11111111110100001100000010111010
11111111111101010110101100100011
11111111101101111000110010111001
11111111111010001001011100111100
00000000000010001101010011110100
00000000001010000101010010011001
00000000000000010011101101110000
00000000010001010101101001001110
11111111111100101001000111000111
00000000000111000011111101101110
11111111110100010010101110110100
11111111111101101100010110100100
00000000001110101100011101111011
00000000001100010001010100001001
11111111111110001011010111000000
11111111110110110110100100111011
11111111111001111011011111011101
11111111110001001111100111101101
00000000001000111110101101011000
00000000010001000101010111101111
11111111111101101101011000011111
11111111110101010100001001101101
00000000010010001010011101011011
11111111111001000001110001010100
11111111111100011000110101010000
11111111110011101011111010100010
00000000001110110110110010101101
00000000000011000011011111100111
11111111101101110100000101010111
00000000010001001100100011110011
00000000001011001000101111101011
00000000000110101100011011110111
00000000010010000101010011011011
00000000000011110111101111001110
11111111110111001010010010001001
11111111111000111001010000100010
00000000001001011001111011011111
11111111110101110110011110000101
00000000001011111101010000000011
11111111110101110010000010000011
00000000001110111101010011011101
11111111111100011001000110011101
00000000001101110110100011000011
11111111110101110001100101101111
00000000000101010110101011111001
00000000001101000001000101010110
00000000000100010000100010000001
11111111111101101000011011111111
11111111110100111001011101000100
11111111110111011101110001101100
00000000000111000100011000010011
00000000001111000111100100001010
11111111110101110000000110010100
11111111110111000111110000000001
11111111110100101110100110101011
00000000000001010000101010000110
11111111111000000110010110000001
00000000000110010011101000000000
11111111111001001001010111111011
11111111111011000111101101010011
00000000010000010100100010000010
11111111110110110010111101111011
11111111110000001100101011011000
00000000000010100001011001101110
11111111110010001100000010111000
11111111111010001111011101101111
11111111110001011111011111111011
11111111110010111010101001010101
00000000000001101000110111100010
00000000001000010011100110011000
11111111111011010010100011001001
11111111101110011001110111001101
11111111110001000011101000101000
11111111111110110011001010110011
00000000001001001001110100110000
11111111111011011111110101011000
00000000000111110100101111011010
00000000000011101111100111110000
00000000010000000001010000101001
00000000001000000101010101110010
00000000000010111100000101101011
11111111110110011100010001011001
11111111111110010011000010010010
00000000001111001110011100010101
00000000000110101111011010011010
11111111110011111001000110110110
00000000001110100100001110011100
00000000001001110100111010101111
11111111110101111001101110000000
00000000000001010010100110110010
00000000000110010000001110001101
00000000000111100100001111101001
11111111111101010110100010010110
11111111111111011011111111111010
00000000001010111011111001001000
00000000000000010000000000001000
11111111110111010101100110101010
00000000001101100100110000111001
00000000001101001011010000001000
11111111111000011101101001111110
11111111101111011101000110100001
11111111110111001011111010011011
11111111110010110010110100110001
11111111111101000011111101001011
11111111101111111110100100001111
11111111110010010111101001010011
00000000000101101011111011010000
11111111111101111100010010101101
11111111111101100100011000001011
00000000000010110010110111101001
00000000000101101011110100101001
00000000001101001011000111111001
11111111111101101000011000001101
11111111111110111110101111101010
11111111101110111101100111100001
11111111101110011000100010011011
11111111110011100101111101011011
00000000001001101011110100011100
00000000001001001001110110101011
00000000000110010111111010110100
00000000001001110110101011110101
11111111111101001111101001011000
11111111110011101010111111000000
00000000001101000110100110010100
11111111111011110000101000000000
11111111111100110001101111110101
11111111110100100100001010010001
00000000001100011100100001001111
00000000001101111100010000110000
11111111110111001101000001100100
00000000001111101111100011110101
00000000001011101110000111111010
00000000000101001000111001100100
11111111110111010010110010111010
11111111110011101110101001100100
00000000000010100101110100110011
00000000001000000101000101011010
11111111110100000001011111111010
00000000001101110001101000011001
00000000001011010100111011011111
00000000000000010100000110111000
11111111101101101110100011101010
11111111110001101101100001101110
00000000001100111010110000010000
00000000000001110000000111100100
11111111111100111111111110101110
11111111110100010000100000101001
11111111110111011110101110001001
00000000001111010001111001001000
00000000001000101101000111110001
00000000000001011100011000101000
00000000001101111100111010000000
11111111110101010100110100101000
11111111111001110100111011010111
00000000000110011111000011000001
11111111110010000101001110000001
00000000010000001011111000010101
00000000001011110101111110100111
00000000000011000011000101011101
11111111110001100010011000111100
00000000001101101100000111000000
11111111111001010111011100011001
11111111111101000110010110010010
00000000001111001111101000001100
11111111111011111111101100111001
00000000010001010110011011100101
11111111111110000110111100000101
11111111110101000011010011011110
11111111111011111000010011100000
11111111101110111101101001010110
00000000001011001001011101110111
00000000001000101011010011110010
00000000000011010100100101010011
11111111101111111111010011000111
00000000000101111001000111011010
00000000001010011000100110100000
00000000001111101100111100110111
11111111111000010010111110110100
00000000000111010110111101000000
00000000001000100011101011001011
11111111111101101011111111000111
00000000000001101001010101111100
00000000001011100011101010100011
00000000000001100001001010100010
11111111111010100110011101010111
00000000000111000010011111111011
00000000000001001110011010110101
11111111111001110111110010111100
11111111111110001001011010001000
00000000001010101000110010111100
00000000010010000101000001110011
11111111111011001011000010011111
00000000001110001100010001010101
00000000010001101001100001000111
00000000001010101111101000110100
00000000001000111111001101110000
11111111110000100100010000011111
11111111110111100011001011001101
11111111111000011101010000000111
00000000010001110011010100000000
00000000000010111001101010011001
11111111110000011101000001010101
11111111101111110000101110111110
11111111110000010001110100011110
11111111110010101111000000001111
11111111110100111101001111011100
11111111110110010000101100011101
00000000001101100101111111110111
11111111111000011111110000111000
00000000010000110100010110111001
11111111111011110100011000011011
11111111110001001110100100000110
11111111111001010010110000010100
11111111110111111001001010000101
11111111110011011011011111000101
11111111101110111100011011110110
00000000000000101000110010010010
11111111110001110011011100110001
11111111111010101111001110111011
11111111111011001100011001001011
11111111110101011100001110111001
11111111111111010011101010110011
11111111110001110101001100011100
11111111111010000011100011011000
00000000010000001011110111001010
00000000010000111010010110110101
00000000000001011110010010110001
00000000000100010000001001010110
00000000010000001111100110011011
00000000010001100011110001010101
11111111110111011000010010001000
00000000000010111001000011011100
11111111111100011000011001110111
11111111110011011101010000011110
00000000010000001110110000001101
00000000001110100000001100010001
00000000000000110010011100111110
00000000001111000100111101101011
00000000000100111000100010110101
00000000001100000100100110110001
00000000000111101111101011010011
00000000001000101001110100101111
00000000000110100001110000001111
00000000001001001011010100001010
00000000010000000100011000000101
00000000000111001001101000100111
11111111110100010101011111101111
00000000000110101110100101101010
00000000010010010000100100110001
00000000001111001010010000101000
00000000001011100010000011101100
11111111111001000100010101100000
00000000010010000100000011001111
00000000000011010101100101110011
11111111110110001010011111100110
11111111111111010100000010011110
00000000001101010010001110011011
11111111101111001101010100011101
11111111111011110011110111110101
00000000001101101000010111110100
11111111111010111101011011000100
11111111111000100111011010011100
11111111111011000100011111101100
00000000000101111111011111101011
11111111110001111000111110000111
00000000000010010100000011100101
00000000000100101100110010101010
00000000000100110100111101110011
11111111111111101000010010100000
00000000001000111111111000101100
11111111111110111010111010111011
00000000001110001011101101101101
00000000001100000110110001111100
11111111110011010111010101111101
11111111111100011011010011100111
00000000001110001110001100000001
11111111111110001010101010110011
11111111111010011010000010010111
11111111111110110110101110001000
11111111111011110011000010010000
11111111111001100111101000101001
00000000000100000010111100100110
00000000001111011010000111111101
00000000000010101001101001001100
00000000001010010010000011100011
00000000001110000111100110000000
11111111110100000110011100000010
11111111110010111111100110110001
11111111111101010011100010000001
00000000000101011100100111110010
11111111111101110010000000100101
11111111110111011011100010110000
11111111110011011010100010101011
00000000000000100010001011010111
00000000001101100110101100011010
00000000000000110010011110111000
00000000010001011010110000111100
11111111110111010110001001100111
00000000010000111000101000110010
11111111110100010001101101110000
00000000001110100001110010100001
00000000000001111111110001011010
00000000010010001100000001011101
00000000010001011001101010101100
11111111111001101111100011011001
11111111111110101010011010111100
11111111111011000010001101110010
00000000000100000100010101111110
11111111110110111111001010000111
11111111111011110000000010011011
11111111110100111010101010110011
00000000001011001000101110110110
00000000001110011100101000010001
00000000000010000000110100111011
11111111111111011100011000100101
11111111110010010010001111101000
11111111101111010101110001010101
11111111110001111001000000111010
11111111110010011101011111101101
11111111110000111101000110011101
00000000001000100100101101101011
11111111110010000011010010100100
00000000001000110000110100010011
00000000001100001010101100101000
11111111111111111011010001011001
