11111110010011100000011110100100
11111111010011011000000011111010
00000000001011111110101010110010
00000000010100001111101100111110
11111110100101110000101000010100
00000001101001011011010100011110
11111110010000101101011001100110
00000000111011001000010001110010
11111111001010101010100110100010
11111110101010100100100110000010
00000000110101011000000000101110
11111111100011000100111011111000
11111111010000000001010001000000
11111111110011010101111000001010
11111111010100111001010100011010
00000001110000010110100110110110
11111110001110010101100110011010
11111111010110101000010011000110
