00000001000111001011100001111010
11111110110011100001111001011100
11111110010010000101100111100100
00000001101101101010001110100110
00000000111011101011001010000110
11111110110000110100100101011000
11111110101011010101001010010000
00000000100000010011101011101010
00000001001111000011000001111110
00000001101001101010011001010010
00000000001111001100000110110110
00000001000110101000101101000010
00000000101111000111110101000010
00000000101010101011000101010110
11111111000011100100111111101100
11111110101000100101110001000110
00000001110101001100010101001010
00000000011001000011010001100010
