11111111110001010110011101111100
11111111011110011100110011111100
11111110110101111101011110010100
00000000001111111111011111010010
00000000000010011011110100011100
00000001001100101011001001000010
00000000100111101000100100001110
00000001010010101000000111011110
11111110101010110000111000101000
00000001100100101011010000000110
11111111001101100000100100001000
11111111111110011101100001010100
00000000101100011011100110001110
11111111100111000011111001010010
11111111011111111111001010011010
00000000110110110110000110000010
00000001010110111100101101001110
11111110110001100001000000111000
