11111111111111101011110000111000
11111111001001000000000011000110
00000000100011001111010100011010
00000001000000110001010000010110
00000000000101101010011100011010
00000001010101110001011101011110
11111111110111011011000100111000
11111110001001011010000110110100
00000001001101110100110111100010
00000000000001000101101111110010
00000001000011101110010110000110
11111111000100011001001111110001
00000001001110110101101000000110
00000000101101010100101110010110
11111110111001111000011011110000
11111110001111110100001100101110
11111111111011111110101110101110
00000000010110011111101001010010
